{
  "version": "1.0",
  "truncation": null,
  "padding": null,
  "added_tokens": [
    {
      "id": 0,
      "special": true,
      "content": "<unused_0>",
      "single_word": false,
      "lstrip": false,
      "rstrip": false,
      "normalized": false
    },
    {
      "id": 1,
      "special": true,
      "content": "<unused_1>",
      "single_word": false,
      "lstrip": false,
      "rstrip": false,
      "normalized": false
    },
    {
      "id": 2,
      "special": true,
      "content": "<unused_2>",
      "single_word": false,
      "lstrip": false,
      "rstrip": false,
      "normalized": false
    },
    {
      "id": 3,
      "special": true,
      "content": "<unused_3>",
      "single_word": false,
      "lstrip": false,
      "rstrip": false,
      "normalized": false
    },
    {
      "id": 4,
      "special": true,
      "content": "<unused_4>",
      "single_word": false,
      "lstrip": false,
      "rstrip": false,
      "normalized": false
    },
    {
      "id": 5,
      "special": true,
      "content": "<unused_5>",
      "single_word": false,
      "lstrip": false,
      "rstrip": false,
      "normalized": false
    },
    {
      "id": 6,
      "special": true,
      "content": "<unused_6>",
      "single_word": false,
      "lstrip": false,
      "rstrip": false,
      "normalized": false
    },
    {
      "id": 7,
      "special": true,
      "content": "<unused_7>",
      "single_word": false,
      "lstrip": false,
      "rstrip": false,
      "normalized": false
    },
    {
      "id": 8,
      "special": true,
      "content": "<unused_8>",
      "single_word": false,
      "lstrip": false,
      "rstrip": false,
      "normalized": false
    },
    {
      "id": 9,
      "special": true,
      "content": "<unused_9>",
      "single_word": false,
      "lstrip": false,
      "rstrip": false,
      "normalized": false
    },
    {
      "id": 10,
      "special": true,
      "content": "<unused_10>",
      "single_word": false,
      "lstrip": false,
      "rstrip": false,
      "normalized": false
    },
    {
      "id": 11,
      "special": true,
      "content": "<unused_11>",
      "single_word": false,
      "lstrip": false,
      "rstrip": false,
      "normalized": false
    },
    {
      "id": 12,
      "special": true,
      "content": "<unused_12>",
      "single_word": false,
      "lstrip": false,
      "rstrip": false,
      "normalized": false
    },
    {
      "id": 13,
      "special": true,
      "content": "<unused_13>",
      "single_word": false,
      "lstrip": false,
      "rstrip": false,
      "normalized": false
    },
    {
      "id": 14,
      "special": true,
      "content": "<unused_14>",
      "single_word": false,
      "lstrip": false,
      "rstrip": false,
      "normalized": false
    },
    {
      "id": 15,
      "special": true,
      "content": "<unused_15>",
      "single_word": false,
      "lstrip": false,
      "rstrip": false,
      "normalized": false
    },
    {
      "id": 16,
      "special": true,
      "content": "<unused_16>",
      "single_word": false,
      "lstrip": false,
      "rstrip": false,
      "normalized": false
    },
    {
      "id": 17,
      "special": true,
      "content": "<unused_17>",
      "single_word": false,
      "lstrip": false,
      "rstrip": false,
      "normalized": false
    },
    {
      "id": 18,
      "special": true,
      "content": "<unused_18>",
      "single_word": false,
      "lstrip": false,
      "rstrip": false,
      "normalized": false
    },
    {
      "id": 19,
      "special": true,
      "content": "<unused_19>",
      "single_word": false,
      "lstrip": false,
      "rstrip": false,
      "normalized": false
    },
    {
      "id": 20,
      "special": true,
      "content": "<unused_20>",
      "single_word": false,
      "lstrip": false,
      "rstrip": false,
      "normalized": false
    },
    {
      "id": 21,
      "special": true,
      "content": "<unused_21>",
      "single_word": false,
      "lstrip": false,
      "rstrip": false,
      "normalized": false
    },
    {
      "id": 22,
      "special": true,
      "content": "<unused_22>",
      "single_word": false,
      "lstrip": false,
      "rstrip": false,
      "normalized": false
    },
    {
      "id": 23,
      "special": true,
      "content": "<unused_23>",
      "single_word": false,
      "lstrip": false,
      "rstrip": false,
      "normalized": false
    },
    {
      "id": 24,
      "special": true,
      "content": "<unused_24>",
      "single_word": false,
      "lstrip": false,
      "rstrip": false,
      "normalized": false
    },
    {
      "id": 25,
      "special": true,
      "content": "<unused_25>",
      "single_word": false,
      "lstrip": false,
      "rstrip": false,
      "normalized": false
    },
    {
      "id": 26,
      "special": true,
      "content": "<unused_26>",
      "single_word": false,
      "lstrip": false,
      "rstrip": false,
      "normalized": false
    },
    {
      "id": 27,
      "special": true,
      "content": "<unused_27>",
      "single_word": false,
      "lstrip": false,
      "rstrip": false,
      "normalized": false
    },
    {
      "id": 28,
      "special": true,
      "content": "<unused_28>",
      "single_word": false,
      "lstrip": false,
      "rstrip": false,
      "normalized": false
    },
    {
      "id": 29,
      "special": true,
      "content": "<unused_29>",
      "single_word": false,
      "lstrip": false,
      "rstrip": false,
      "normalized": false
    },
    {
      "id": 30,
      "special": true,
      "content": "<unused_30>",
      "single_word": false,
      "lstrip": false,
      "rstrip": false,
      "normalized": false
    },
    {
      "id": 31,
      "special": true,
      "content": "<unused_31>",
      "single_word": false,
      "lstrip": false,
      "rstrip": false,
      "normalized": false
    },
    {
      "id": 32,
      "special": true,
      "content": "<unused_32>",
      "single_word": false,
      "lstrip": false,
      "rstrip": false,
      "normalized": false
    },
    {
      "id": 33,
      "special": true,
      "content": "<unused_33>",
      "single_word": false,
      "lstrip": false,
      "rstrip": false,
      "normalized": false
    },
    {
      "id": 34,
      "special": true,
      "content": "<unused_34>",
      "single_word": false,
      "lstrip": false,
      "rstrip": false,
      "normalized": false
    },
    {
      "id": 35,
      "special": true,
      "content": "<unused_35>",
      "single_word": false,
      "lstrip": false,
      "rstrip": false,
      "normalized": false
    },
    {
      "id": 36,
      "special": true,
      "content": "<unused_36>",
      "single_word": false,
      "lstrip": false,
      "rstrip": false,
      "normalized": false
    },
    {
      "id": 37,
      "special": true,
      "content": "<unused_37>",
      "single_word": false,
      "lstrip": false,
      "rstrip": false,
      "normalized": false
    },
    {
      "id": 38,
      "special": true,
      "content": "<unused_38>",
      "single_word": false,
      "lstrip": false,
      "rstrip": false,
      "normalized": false
    },
    {
      "id": 39,
      "special": true,
      "content": "<unused_39>",
      "single_word": false,
      "lstrip": false,
      "rstrip": false,
      "normalized": false
    },
    {
      "id": 40,
      "special": true,
      "content": "<unused_40>",
      "single_word": false,
      "lstrip": false,
      "rstrip": false,
      "normalized": false
    },
    {
      "id": 41,
      "special": true,
      "content": "<unused_41>",
      "single_word": false,
      "lstrip": false,
      "rstrip": false,
      "normalized": false
    },
    {
      "id": 42,
      "special": true,
      "content": "<unused_42>",
      "single_word": false,
      "lstrip": false,
      "rstrip": false,
      "normalized": false
    },
    {
      "id": 43,
      "special": true,
      "content": "<unused_43>",
      "single_word": false,
      "lstrip": false,
      "rstrip": false,
      "normalized": false
    },
    {
      "id": 44,
      "special": true,
      "content": "<unused_44>",
      "single_word": false,
      "lstrip": false,
      "rstrip": false,
      "normalized": false
    },
    {
      "id": 45,
      "special": true,
      "content": "<unused_45>",
      "single_word": false,
      "lstrip": false,
      "rstrip": false,
      "normalized": false
    },
    {
      "id": 46,
      "special": true,
      "content": "<unused_46>",
      "single_word": false,
      "lstrip": false,
      "rstrip": false,
      "normalized": false
    },
    {
      "id": 47,
      "special": true,
      "content": "<unused_47>",
      "single_word": false,
      "lstrip": false,
      "rstrip": false,
      "normalized": false
    },
    {
      "id": 48,
      "special": true,
      "content": "<unused_48>",
      "single_word": false,
      "lstrip": false,
      "rstrip": false,
      "normalized": false
    },
    {
      "id": 49,
      "special": true,
      "content": "<unused_49>",
      "single_word": false,
      "lstrip": false,
      "rstrip": false,
      "normalized": false
    },
    {
      "id": 50,
      "special": true,
      "content": "<unused_50>",
      "single_word": false,
      "lstrip": false,
      "rstrip": false,
      "normalized": false
    },
    {
      "id": 51,
      "special": true,
      "content": "<unused_51>",
      "single_word": false,
      "lstrip": false,
      "rstrip": false,
      "normalized": false
    },
    {
      "id": 52,
      "special": true,
      "content": "<unused_52>",
      "single_word": false,
      "lstrip": false,
      "rstrip": false,
      "normalized": false
    },
    {
      "id": 53,
      "special": true,
      "content": "<unused_53>",
      "single_word": false,
      "lstrip": false,
      "rstrip": false,
      "normalized": false
    },
    {
      "id": 54,
      "special": true,
      "content": "<unused_54>",
      "single_word": false,
      "lstrip": false,
      "rstrip": false,
      "normalized": false
    },
    {
      "id": 55,
      "special": true,
      "content": "<unused_55>",
      "single_word": false,
      "lstrip": false,
      "rstrip": false,
      "normalized": false
    },
    {
      "id": 56,
      "special": true,
      "content": "<unused_56>",
      "single_word": false,
      "lstrip": false,
      "rstrip": false,
      "normalized": false
    },
    {
      "id": 57,
      "special": true,
      "content": "<unused_57>",
      "single_word": false,
      "lstrip": false,
      "rstrip": false,
      "normalized": false
    },
    {
      "id": 58,
      "special": true,
      "content": "<unused_58>",
      "single_word": false,
      "lstrip": false,
      "rstrip": false,
      "normalized": false
    },
    {
      "id": 59,
      "special": true,
      "content": "<unused_59>",
      "single_word": false,
      "lstrip": false,
      "rstrip": false,
      "normalized": false
    },
    {
      "id": 60,
      "special": true,
      "content": "<unused_60>",
      "single_word": false,
      "lstrip": false,
      "rstrip": false,
      "normalized": false
    },
    {
      "id": 61,
      "special": true,
      "content": "<unused_61>",
      "single_word": false,
      "lstrip": false,
      "rstrip": false,
      "normalized": false
    },
    {
      "id": 62,
      "special": true,
      "content": "<unused_62>",
      "single_word": false,
      "lstrip": false,
      "rstrip": false,
      "normalized": false
    },
    {
      "id": 63,
      "special": true,
      "content": "<unused_63>",
      "single_word": false,
      "lstrip": false,
      "rstrip": false,
      "normalized": false
    },
    {
      "id": 64,
      "special": true,
      "content": "<unused_64>",
      "single_word": false,
      "lstrip": false,
      "rstrip": false,
      "normalized": false
    },
    {
      "id": 65,
      "special": true,
      "content": "<unused_65>",
      "single_word": false,
      "lstrip": false,
      "rstrip": false,
      "normalized": false
    },
    {
      "id": 66,
      "special": true,
      "content": "<unused_66>",
      "single_word": false,
      "lstrip": false,
      "rstrip": false,
      "normalized": false
    },
    {
      "id": 67,
      "special": true,
      "content": "<unused_67>",
      "single_word": false,
      "lstrip": false,
      "rstrip": false,
      "normalized": false
    },
    {
      "id": 68,
      "special": true,
      "content": "<unused_68>",
      "single_word": false,
      "lstrip": false,
      "rstrip": false,
      "normalized": false
    },
    {
      "id": 69,
      "special": true,
      "content": "<unused_69>",
      "single_word": false,
      "lstrip": false,
      "rstrip": false,
      "normalized": false
    },
    {
      "id": 70,
      "special": true,
      "content": "<unused_70>",
      "single_word": false,
      "lstrip": false,
      "rstrip": false,
      "normalized": false
    },
    {
      "id": 71,
      "special": true,
      "content": "<unused_71>",
      "single_word": false,
      "lstrip": false,
      "rstrip": false,
      "normalized": false
    },
    {
      "id": 72,
      "special": true,
      "content": "<unused_72>",
      "single_word": false,
      "lstrip": false,
      "rstrip": false,
      "normalized": false
    },
    {
      "id": 73,
      "special": true,
      "content": "<unused_73>",
      "single_word": false,
      "lstrip": false,
      "rstrip": false,
      "normalized": false
    },
    {
      "id": 74,
      "special": true,
      "content": "<unused_74>",
      "single_word": false,
      "lstrip": false,
      "rstrip": false,
      "normalized": false
    },
    {
      "id": 75,
      "special": true,
      "content": "<unused_75>",
      "single_word": false,
      "lstrip": false,
      "rstrip": false,
      "normalized": false
    },
    {
      "id": 76,
      "special": true,
      "content": "<unused_76>",
      "single_word": false,
      "lstrip": false,
      "rstrip": false,
      "normalized": false
    },
    {
      "id": 77,
      "special": true,
      "content": "<unused_77>",
      "single_word": false,
      "lstrip": false,
      "rstrip": false,
      "normalized": false
    },
    {
      "id": 78,
      "special": true,
      "content": "<unused_78>",
      "single_word": false,
      "lstrip": false,
      "rstrip": false,
      "normalized": false
    },
    {
      "id": 79,
      "special": true,
      "content": "<unused_79>",
      "single_word": false,
      "lstrip": false,
      "rstrip": false,
      "normalized": false
    },
    {
      "id": 80,
      "special": true,
      "content": "<unused_80>",
      "single_word": false,
      "lstrip": false,
      "rstrip": false,
      "normalized": false
    },
    {
      "id": 81,
      "special": true,
      "content": "<unused_81>",
      "single_word": false,
      "lstrip": false,
      "rstrip": false,
      "normalized": false
    },
    {
      "id": 82,
      "special": true,
      "content": "<unused_82>",
      "single_word": false,
      "lstrip": false,
      "rstrip": false,
      "normalized": false
    },
    {
      "id": 83,
      "special": true,
      "content": "<unused_83>",
      "single_word": false,
      "lstrip": false,
      "rstrip": false,
      "normalized": false
    },
    {
      "id": 84,
      "special": true,
      "content": "<unused_84>",
      "single_word": false,
      "lstrip": false,
      "rstrip": false,
      "normalized": false
    },
    {
      "id": 85,
      "special": true,
      "content": "<unused_85>",
      "single_word": false,
      "lstrip": false,
      "rstrip": false,
      "normalized": false
    },
    {
      "id": 86,
      "special": true,
      "content": "<unused_86>",
      "single_word": false,
      "lstrip": false,
      "rstrip": false,
      "normalized": false
    },
    {
      "id": 87,
      "special": true,
      "content": "<unused_87>",
      "single_word": false,
      "lstrip": false,
      "rstrip": false,
      "normalized": false
    },
    {
      "id": 88,
      "special": true,
      "content": "<unused_88>",
      "single_word": false,
      "lstrip": false,
      "rstrip": false,
      "normalized": false
    },
    {
      "id": 89,
      "special": true,
      "content": "<unused_89>",
      "single_word": false,
      "lstrip": false,
      "rstrip": false,
      "normalized": false
    },
    {
      "id": 90,
      "special": true,
      "content": "<unused_90>",
      "single_word": false,
      "lstrip": false,
      "rstrip": false,
      "normalized": false
    },
    {
      "id": 91,
      "special": true,
      "content": "<unused_91>",
      "single_word": false,
      "lstrip": false,
      "rstrip": false,
      "normalized": false
    },
    {
      "id": 92,
      "special": true,
      "content": "<unused_92>",
      "single_word": false,
      "lstrip": false,
      "rstrip": false,
      "normalized": false
    },
    {
      "id": 93,
      "special": true,
      "content": "<unused_93>",
      "single_word": false,
      "lstrip": false,
      "rstrip": false,
      "normalized": false
    },
    {
      "id": 94,
      "special": true,
      "content": "<unused_94>",
      "single_word": false,
      "lstrip": false,
      "rstrip": false,
      "normalized": false
    },
    {
      "id": 95,
      "special": true,
      "content": "<unused_95>",
      "single_word": false,
      "lstrip": false,
      "rstrip": false,
      "normalized": false
    },
    {
      "id": 96,
      "special": true,
      "content": "<unused_96>",
      "single_word": false,
      "lstrip": false,
      "rstrip": false,
      "normalized": false
    },
    {
      "id": 97,
      "special": true,
      "content": "<unused_97>",
      "single_word": false,
      "lstrip": false,
      "rstrip": false,
      "normalized": false
    },
    {
      "id": 98,
      "special": true,
      "content": "<unused_98>",
      "single_word": false,
      "lstrip": false,
      "rstrip": false,
      "normalized": false
    },
    {
      "id": 99,
      "special": true,
      "content": "<unused_99>",
      "single_word": false,
      "lstrip": false,
      "rstrip": false,
      "normalized": false
    },
    {
      "id": 100,
      "special": true,
      "content": "<eos>",
      "single_word": false,
      "lstrip": false,
      "rstrip": false,
      "normalized": false
    },
    {
      "id": 101,
      "special": true,
      "content": "<bos>",
      "single_word": false,
      "lstrip": false,
      "rstrip": false,
      "normalized": false
    },
    {
      "id": 102,
      "special": true,
      "content": "<pad>",
      "single_word": false,
      "lstrip": false,
      "rstrip": false,
      "normalized": false
    },
    {
      "id": 103,
      "special": true,
      "content": "<unk>",
      "single_word": false,
      "lstrip": false,
      "rstrip": false,
      "normalized": false
    },
    {
      "id": 104,
      "special": true,
      "content": "<cls>",
      "single_word": false,
      "lstrip": false,
      "rstrip": false,
      "normalized": false
    },
    {
      "id": 105,
      "special": true,
      "content": "<s>",
      "single_word": false,
      "lstrip": false,
      "rstrip": false,
      "normalized": false
    }
  ],
  "normalizer": {
    "type": "Sequence",
    "normalizers": [
      {
        "type": "BertNormalizer",
        "clean_text": true,
        "handle_chinese_chars": true,
        "strip_accents": true,
        "lowercase": true
      }
    ]
  },
  "pre_tokenizer": {
    "type": "Sequence",
    "pretokenizers": [
      {
        "type": "BertPreTokenizer"
      }
    ]
  },
  "post_processor": null,
  "decoder": null,
  "model": {
    "type": "BPE",
    "dropout": null,
    "unk_token": "<unk>",
    "continuing_subword_prefix": null,
    "end_of_word_suffix": null,
    "fuse_unk": false,
    "vocab": {
      "<unused_0>": 0,
      "<unused_1>": 1,
      "<unused_2>": 2,
      "<unused_3>": 3,
      "<unused_4>": 4,
      "<unused_5>": 5,
      "<unused_6>": 6,
      "<unused_7>": 7,
      "<unused_8>": 8,
      "<unused_9>": 9,
      "<unused_10>": 10,
      "<unused_11>": 11,
      "<unused_12>": 12,
      "<unused_13>": 13,
      "<unused_14>": 14,
      "<unused_15>": 15,
      "<unused_16>": 16,
      "<unused_17>": 17,
      "<unused_18>": 18,
      "<unused_19>": 19,
      "<unused_20>": 20,
      "<unused_21>": 21,
      "<unused_22>": 22,
      "<unused_23>": 23,
      "<unused_24>": 24,
      "<unused_25>": 25,
      "<unused_26>": 26,
      "<unused_27>": 27,
      "<unused_28>": 28,
      "<unused_29>": 29,
      "<unused_30>": 30,
      "<unused_31>": 31,
      "<unused_32>": 32,
      "<unused_33>": 33,
      "<unused_34>": 34,
      "<unused_35>": 35,
      "<unused_36>": 36,
      "<unused_37>": 37,
      "<unused_38>": 38,
      "<unused_39>": 39,
      "<unused_40>": 40,
      "<unused_41>": 41,
      "<unused_42>": 42,
      "<unused_43>": 43,
      "<unused_44>": 44,
      "<unused_45>": 45,
      "<unused_46>": 46,
      "<unused_47>": 47,
      "<unused_48>": 48,
      "<unused_49>": 49,
      "<unused_50>": 50,
      "<unused_51>": 51,
      "<unused_52>": 52,
      "<unused_53>": 53,
      "<unused_54>": 54,
      "<unused_55>": 55,
      "<unused_56>": 56,
      "<unused_57>": 57,
      "<unused_58>": 58,
      "<unused_59>": 59,
      "<unused_60>": 60,
      "<unused_61>": 61,
      "<unused_62>": 62,
      "<unused_63>": 63,
      "<unused_64>": 64,
      "<unused_65>": 65,
      "<unused_66>": 66,
      "<unused_67>": 67,
      "<unused_68>": 68,
      "<unused_69>": 69,
      "<unused_70>": 70,
      "<unused_71>": 71,
      "<unused_72>": 72,
      "<unused_73>": 73,
      "<unused_74>": 74,
      "<unused_75>": 75,
      "<unused_76>": 76,
      "<unused_77>": 77,
      "<unused_78>": 78,
      "<unused_79>": 79,
      "<unused_80>": 80,
      "<unused_81>": 81,
      "<unused_82>": 82,
      "<unused_83>": 83,
      "<unused_84>": 84,
      "<unused_85>": 85,
      "<unused_86>": 86,
      "<unused_87>": 87,
      "<unused_88>": 88,
      "<unused_89>": 89,
      "<unused_90>": 90,
      "<unused_91>": 91,
      "<unused_92>": 92,
      "<unused_93>": 93,
      "<unused_94>": 94,
      "<unused_95>": 95,
      "<unused_96>": 96,
      "<unused_97>": 97,
      "<unused_98>": 98,
      "<unused_99>": 99,
      "<eos>": 100,
      "<bos>": 101,
      "<pad>": 102,
      "<unk>": 103,
      "<cls>": 104,
      "<s>": 105,
      "!": 106,
      "\"": 107,
      "#": 108,
      "$": 109,
      "%": 110,
      "&": 111,
      "'": 112,
      "(": 113,
      ")": 114,
      "*": 115,
      "+": 116,
      ",": 117,
      "-": 118,
      ".": 119,
      "/": 120,
      "0": 121,
      "1": 122,
      "2": 123,
      "3": 124,
      "4": 125,
      "5": 126,
      "6": 127,
      "7": 128,
      "8": 129,
      "9": 130,
      ":": 131,
      ";": 132,
      "<": 133,
      "=": 134,
      ">": 135,
      "?": 136,
      "@": 137,
      "[": 138,
      "\\": 139,
      "]": 140,
      "^": 141,
      "_": 142,
      "`": 143,
      "a": 144,
      "b": 145,
      "c": 146,
      "d": 147,
      "e": 148,
      "f": 149,
      "g": 150,
      "h": 151,
      "i": 152,
      "j": 153,
      "k": 154,
      "l": 155,
      "m": 156,
      "n": 157,
      "o": 158,
      "p": 159,
      "q": 160,
      "r": 161,
      "s": 162,
      "t": 163,
      "u": 164,
      "v": 165,
      "w": 166,
      "x": 167,
      "y": 168,
      "z": 169,
      "{": 170,
      "|": 171,
      "}": 172,
      "~": 173,
      "¡": 174,
      "¢": 175,
      "£": 176,
      "¤": 177,
      "¥": 178,
      "¦": 179,
      "§": 180,
      "¨": 181,
      "©": 182,
      "ª": 183,
      "«": 184,
      "¬": 185,
      "®": 186,
      "¯": 187,
      "°": 188,
      "±": 189,
      "²": 190,
      "³": 191,
      "´": 192,
      "µ": 193,
      "·": 194,
      "¸": 195,
      "¹": 196,
      "º": 197,
      "»": 198,
      "¼": 199,
      "½": 200,
      "¾": 201,
      "¿": 202,
      "×": 203,
      "ß": 204,
      "æ": 205,
      "ð": 206,
      "÷": 207,
      "ø": 208,
      "ı": 209,
      "ĸ": 210,
      "œ": 211,
      "ƒ": 212,
      "ɛ": 213,
      "ɣ": 214,
      "ʼ": 215,
      "ʽ": 216,
      "ˆ": 217,
      "˙": 218,
      "˚": 219,
      "˜": 220,
      "˝": 221,
      "α": 222,
      "β": 223,
      "γ": 224,
      "δ": 225,
      "ε": 226,
      "ζ": 227,
      "η": 228,
      "θ": 229,
      "ι": 230,
      "κ": 231,
      "λ": 232,
      "μ": 233,
      "ν": 234,
      "ξ": 235,
      "ο": 236,
      "π": 237,
      "ρ": 238,
      "σ": 239,
      "τ": 240,
      "υ": 241,
      "φ": 242,
      "χ": 243,
      "ψ": 244,
      "ω": 245,
      "ϒ": 246,
      "ϕ": 247,
      "ϰ": 248,
      "а": 249,
      "и": 250,
      "к": 251,
      "л": 252,
      "м": 253,
      "н": 254,
      "о": 255,
      "р": 256,
      "с": 257,
      "т": 258,
      "ф": 259,
      "х": 260,
      "ר": 261,
      "ᄀ": 262,
      "ᄁ": 263,
      "ᄂ": 264,
      "ᄃ": 265,
      "ᄄ": 266,
      "ᄅ": 267,
      "ᄆ": 268,
      "ᄇ": 269,
      "ᄈ": 270,
      "ᄉ": 271,
      "ᄊ": 272,
      "ᄋ": 273,
      "ᄌ": 274,
      "ᄍ": 275,
      "ᄎ": 276,
      "ᄏ": 277,
      "ᄐ": 278,
      "ᄑ": 279,
      "ᄒ": 280,
      "ᅡ": 281,
      "ᅢ": 282,
      "ᅣ": 283,
      "ᅥ": 284,
      "ᅦ": 285,
      "ᅧ": 286,
      "ᅨ": 287,
      "ᅩ": 288,
      "ᅪ": 289,
      "ᅫ": 290,
      "ᅬ": 291,
      "ᅭ": 292,
      "ᅮ": 293,
      "ᅱ": 294,
      "ᅲ": 295,
      "ᅳ": 296,
      "ᅴ": 297,
      "ᅵ": 298,
      "ᆨ": 299,
      "ᆫ": 300,
      "ᆭ": 301,
      "ᆮ": 302,
      "ᆯ": 303,
      "ᆰ": 304,
      "ᆱ": 305,
      "ᆲ": 306,
      "ᆳ": 307,
      "ᆷ": 308,
      "ᆸ": 309,
      "ᆹ": 310,
      "ᆺ": 311,
      "ᆻ": 312,
      "ᆼ": 313,
      "ᆽ": 314,
      "ᆾ": 315,
      "ᇀ": 316,
      "ᇁ": 317,
      "ᇂ": 318,
      "‐": 319,
      "‑": 320,
      "–": 321,
      "—": 322,
      "―": 323,
      "‘": 324,
      "’": 325,
      "“": 326,
      "”": 327,
      "„": 328,
      "†": 329,
      "•": 330,
      "…": 331,
      "‰": 332,
      "′": 333,
      "″": 334,
      "‹": 335,
      "※": 336,
      "⁀": 337,
      "⁴": 338,
      "₁": 339,
      "₂": 340,
      "₃": 341,
      "€": 342,
      "℃": 343,
      "℉": 344,
      "ℓ": 345,
      "™": 346,
      "⅚": 347,
      "ⅰ": 348,
      "ⅱ": 349,
      "ⅲ": 350,
      "ⅳ": 351,
      "ⅴ": 352,
      "ⅷ": 353,
      "ⅸ": 354,
      "ⅹ": 355,
      "←": 356,
      "↑": 357,
      "→": 358,
      "↓": 359,
      "↔": 360,
      "∀": 361,
      "∂": 362,
      "∇": 363,
      "∈": 364,
      "∑": 365,
      "−": 366,
      "√": 367,
      "∝": 368,
      "∞": 369,
      "∠": 370,
      "∥": 371,
      "∧": 372,
      "∨": 373,
      "∩": 374,
      "∪": 375,
      "∫": 376,
      "∮": 377,
      "∴": 378,
      "∼": 379,
      "≈": 380,
      "≒": 381,
      "≡": 382,
      "≤": 383,
      "≥": 384,
      "≦": 385,
      "≧": 386,
      "⊂": 387,
      "⊃": 388,
      "⊆": 389,
      "⊕": 390,
      "⋅": 391,
      "⌈": 392,
      "⌋": 393,
      "①": 394,
      "②": 395,
      "③": 396,
      "④": 397,
      "⑤": 398,
      "⑥": 399,
      "⑦": 400,
      "⑧": 401,
      "⑨": 402,
      "⑩": 403,
      "⑫": 404,
      "⑬": 405,
      "⑭": 406,
      "⑮": 407,
      "⑵": 408,
      "⑺": 409,
      "⑻": 410,
      "ⓐ": 411,
      "ⓑ": 412,
      "ⓒ": 413,
      "ⓓ": 414,
      "ⓔ": 415,
      "ⓕ": 416,
      "ⓞ": 417,
      "ⓡ": 418,
      "ⓧ": 419,
      "─": 420,
      "│": 421,
      "┃": 422,
      "┌": 423,
      "┎": 424,
      "┏": 425,
      "┒": 426,
      "┓": 427,
      "┗": 428,
      "┛": 429,
      "┳": 430,
      "┼": 431,
      "═": 432,
      "□": 433,
      "▣": 434,
      "▲": 435,
      "△": 436,
      "▵": 437,
      "▶": 438,
      "▼": 439,
      "◀": 440,
      "○": 441,
      "●": 442,
      "★": 443,
      "♣": 444,
      "、": 445,
      "〈": 446,
      "「": 447,
      "」": 448,
      "『": 449,
      "』": 450,
      "〔": 451,
      "〕": 452,
      "あ": 453,
      "か": 454,
      "く": 455,
      "さ": 456,
      "た": 457,
      "な": 458,
      "は": 459,
      "ま": 460,
      "や": 461,
      "ら": 462,
      "わ": 463,
      "・": 464,
      "ㄱ": 465,
      "ㄲ": 466,
      "ㄴ": 467,
      "ㄷ": 468,
      "ㄸ": 469,
      "ㄹ": 470,
      "ㅀ": 471,
      "ㅁ": 472,
      "ㅂ": 473,
      "ㅃ": 474,
      "ㅅ": 475,
      "ㅆ": 476,
      "ㅇ": 477,
      "ㅈ": 478,
      "ㅉ": 479,
      "ㅊ": 480,
      "ㅋ": 481,
      "ㅌ": 482,
      "ㅍ": 483,
      "ㅎ": 484,
      "ㅏ": 485,
      "ㅐ": 486,
      "ㅑ": 487,
      "ㅒ": 488,
      "ㅓ": 489,
      "ㅔ": 490,
      "ㅕ": 491,
      "ㅖ": 492,
      "ㅗ": 493,
      "ㅘ": 494,
      "ㅙ": 495,
      "ㅚ": 496,
      "ㅛ": 497,
      "ㅜ": 498,
      "ㅝ": 499,
      "ㅞ": 500,
      "ㅟ": 501,
      "ㅠ": 502,
      "ㅡ": 503,
      "ㅢ": 504,
      "ㅣ": 505,
      "ㆄ": 506,
      "ㆍ": 507,
      "㉬": 508,
      "㎀": 509,
      "㎂": 510,
      "㎄": 511,
      "㎍": 512,
      "㎎": 513,
      "㎏": 514,
      "㎐": 515,
      "㎑": 516,
      "㎒": 517,
      "㎓": 518,
      "㎕": 519,
      "㎖": 520,
      "㎚": 521,
      "㎛": 522,
      "㎜": 523,
      "㎝": 524,
      "㎟": 525,
      "㎠": 526,
      "㎡": 527,
      "㎣": 528,
      "㎤": 529,
      "㎥": 530,
      "㎩": 531,
      "㎪": 532,
      "㎫": 533,
      "㎬": 534,
      "㎲": 535,
      "㎳": 536,
      "㎶": 537,
      "㎷": 538,
      "㎸": 539,
      "㎼": 540,
      "㎽": 541,
      "㏈": 542,
      "㏖": 543,
      "一": 544,
      "三": 545,
      "主": 546,
      "亮": 547,
      "介": 548,
      "付": 549,
      "体": 550,
      "侶": 551,
      "僚": 552,
      "入": 553,
      "全": 554,
      "冷": 555,
      "凸": 556,
      "凹": 557,
      "出": 558,
      "劣": 559,
      "化": 560,
      "十": 561,
      "占": 562,
      "厚": 563,
      "向": 564,
      "在": 565,
      "坰": 566,
      "媛": 567,
      "子": 568,
      "密": 569,
      "對": 570,
      "小": 571,
      "属": 572,
      "廓": 573,
      "徑": 574,
      "慣": 575,
      "慮": 576,
      "接": 577,
      "揃": 578,
      "擊": 579,
      "景": 580,
      "最": 581,
      "棺": 582,
      "槐": 583,
      "比": 584,
      "气": 585,
      "氣": 586,
      "水": 587,
      "沸": 588,
      "浸": 589,
      "漬": 590,
      "灌": 591,
      "無": 592,
      "煮": 593,
      "燒": 594,
      "爐": 595,
      "琯": 596,
      "環": 597,
      "相": 598,
      "硫": 599,
      "種": 600,
      "竊": 601,
      "竜": 602,
      "粒": 603,
      "細": 604,
      "罐": 605,
      "花": 606,
      "芳": 607,
      "茶": 608,
      "蒸": 609,
      "藥": 610,
      "虜": 611,
      "衝": 612,
      "袖": 613,
      "裝": 614,
      "裡": 615,
      "豈": 616,
      "貫": 617,
      "賊": 618,
      "軀": 619,
      "軸": 620,
      "過": 621,
      "遲": 622,
      "部": 623,
      "關": 624,
      "防": 625,
      "陸": 626,
      "隆": 627,
      "面": 628,
      "香": 629,
      "點": 630,
      "％": 631,
      "＋": 632,
      "，": 633,
      "；": 634,
      "＜": 635,
      "＞": 636,
      "＠": 637,
      "ｎ": 638,
      "｜": 639,
      "in": 640,
      "th": 641,
      "the": 642,
      "on": 643,
      "an": 644,
      "er": 645,
      "ing": 646,
      "re": 647,
      "at": 648,
      "or": 649,
      "en": 650,
      "ed": 651,
      "ti": 652,
      "ro": 653,
      "of": 654,
      "al": 655,
      "is": 656,
      "and": 657,
      "to": 658,
      "st": 659,
      "le": 660,
      "ar": 661,
      "ic": 662,
      "de": 663,
      "ac": 664,
      "for": 665,
      "con": 666,
      "tion": 667,
      "se": 668,
      "co": 669,
      "it": 670,
      "ent": 671,
      "es": 672,
      "ion": 673,
      "me": 674,
      "as": 675,
      "ct": 676,
      "mp": 677,
      "ur": 678,
      "si": 679,
      "pro": 680,
      "un": 681,
      "ation": 682,
      "ter": 683,
      "ly": 684,
      "res": 685,
      "fi": 686,
      "us": 687,
      "ch": 688,
      "mo": 689,
      "lo": 690,
      "po": 691,
      "ve": 692,
      "id": 693,
      "ce": 694,
      "su": 695,
      "pl": 696,
      "wh": 697,
      "form": 698,
      "by": 699,
      "comp": 700,
      "ge": 701,
      "ut": 702,
      "par": 703,
      "be": 704,
      "od": 705,
      "ap": 706,
      "tr": 707,
      "wi": 708,
      "ad": 709,
      "ay": 710,
      "ate": 711,
      "cont": 712,
      "ab": 713,
      "ne": 714,
      "gh": 715,
      "du": 716,
      "per": 717,
      "ding": 718,
      "lu": 719,
      "di": 720,
      "ul": 721,
      "pres": 722,
      "with": 723,
      "li": 724,
      "ving": 725,
      "mb": 726,
      "dis": 727,
      "ma": 728,
      "are": 729,
      "ver": 730,
      "ven": 731,
      "ction": 732,
      "ment": 733,
      "te": 734,
      "ste": 735,
      "ir": 736,
      "ol": 737,
      "ll": 738,
      "prov": 739,
      "pe": 740,
      "ating": 741,
      "fir": 742,
      "tic": 743,
      "min": 744,
      "unit": 745,
      "lect": 746,
      "ri": 747,
      "ich": 748,
      "first": 749,
      "ting": 750,
      "rom": 751,
      "ice": 752,
      "ex": 753,
      "ha": 754,
      "which": 755,
      "por": 756,
      "ans": 757,
      "inc": 758,
      "ure": 759,
      "vention": 760,
      "ity": 761,
      "from": 762,
      "present": 763,
      "fac": 764,
      "meth": 765,
      "invention": 766,
      "one": 767,
      "qu": 768,
      "gn": 769,
      "provid": 770,
      "ho": 771,
      "vice": 772,
      "so": 773,
      "method": 774,
      "cond": 775,
      "ain": 776,
      "pre": 777,
      "el": 778,
      "10": 779,
      "ris": 780,
      "ater": 781,
      "ess": 782,
      "des": 783,
      "ated": 784,
      "cor": 785,
      "second": 786,
      "low": 787,
      "trans": 788,
      "compris": 789,
      "str": 790,
      "inclu": 791,
      "he": 792,
      "age": 793,
      "provided": 794,
      "device": 795,
      "contro": 796,
      "part": 797,
      "up": 798,
      "we": 799,
      "gen": 800,
      "elect": 801,
      "able": 802,
      "out": 803,
      "il": 804,
      "sign": 805,
      "fer": 806,
      "ra": 807,
      "ates": 808,
      "all": 809,
      "sup": 810,
      "lay": 811,
      "ght": 812,
      "termin": 813,
      "tu": 814,
      "conne": 815,
      "using": 816,
      "mber": 817,
      "formed": 818,
      "side": 819,
      "sy": 820,
      "ach": 821,
      "ther": 822,
      "cess": 823,
      "layer": 824,
      "signal": 825,
      "ine": 826,
      "sur": 827,
      "der": 828,
      "ast": 829,
      "face": 830,
      "ted": 831,
      "tive": 832,
      "formation": 833,
      "that": 834,
      "sub": 835,
      "having": 836,
      "um": 837,
      "dat": 838,
      "rel": 839,
      "ase": 840,
      "ens": 841,
      "bo": 842,
      "put": 843,
      "20": 844,
      "can": 845,
      "ial": 846,
      "am": 847,
      "sition": 848,
      "op": 849,
      "information": 850,
      "ser": 851,
      "compo": 852,
      "data": 853,
      "no": 854,
      "ide": 855,
      "connect": 856,
      "ck": 857,
      "ally": 858,
      "gener": 859,
      "end": 860,
      "sti": 861,
      "rece": 862,
      "iz": 863,
      "yl": 864,
      "control": 865,
      "stem": 866,
      "there": 867,
      "sp": 868,
      "process": 869,
      "system": 870,
      "sa": 871,
      "comprises": 872,
      "les": 873,
      "cording": 874,
      "surface": 875,
      "man": 876,
      "ack": 877,
      "fe": 878,
      "portion": 879,
      "bod": 880,
      "hi": 881,
      "includes": 882,
      "duc": 883,
      "recei": 884,
      "inter": 885,
      "sed": 886,
      "ag": 887,
      "pur": 888,
      "do": 889,
      "pi": 890,
      "mit": 891,
      "ural": 892,
      "body": 893,
      "val": 894,
      "und": 895,
      "ugh": 896,
      "fic": 897,
      "mm": 898,
      "relates": 899,
      "according": 900,
      "gro": 901,
      "step": 902,
      "fil": 903,
      "thro": 904,
      "et": 905,
      "ric": 906,
      "pow": 907,
      "char": 908,
      "ere": 909,
      "ard": 910,
      "ang": 911,
      "ant": 912,
      "through": 913,
      "consti": 914,
      "ance": 915,
      "pose": 916,
      "water": 917,
      "air": 918,
      "plural": 919,
      "uring": 920,
      "tution": 921,
      "tor": 922,
      "purpose": 923,
      "imp": 924,
      "30": 925,
      "mic": 926,
      "constitution": 927,
      "bet": 928,
      "parat": 929,
      "least": 930,
      "stru": 931,
      "electro": 932,
      "play": 933,
      "aterial": 934,
      "material": 935,
      "oper": 936,
      "poly": 937,
      "plurality": 938,
      "dri": 939,
      "apparat": 940,
      "port": 941,
      "ween": 942,
      "between": 943,
      "member": 944,
      "apparatus": 945,
      "je": 946,
      "int": 947,
      "car": 948,
      "cur": 949,
      "clo": 950,
      "user": 951,
      "ima": 952,
      "vent": 953,
      "each": 954,
      "rot": 955,
      "where": 956,
      "contain": 957,
      "spe": 958,
      "wor": 959,
      "duct": 960,
      "ke": 961,
      "into": 962,
      "ob": 963,
      "terminal": 964,
      "display": 965,
      "comm": 966,
      "power": 967,
      "more": 968,
      "cy": 969,
      "ator": 970,
      "ph": 971,
      "connected": 972,
      "ci": 973,
      "light": 974,
      "au": 975,
      "ty": 976,
      "determin": 977,
      "fo": 978,
      "has": 979,
      "irc": 980,
      "mer": 981,
      "sion": 982,
      "circ": 983,
      "ence": 984,
      "lower": 985,
      "dire": 986,
      "atter": 987,
      "bas": 988,
      "ous": 989,
      "ary": 990,
      "cap": 991,
      "fix": 992,
      "when": 993,
      "stall": 994,
      "plate": 995,
      "sh": 996,
      "substr": 997,
      "reg": 998,
      "struct": 999,
      "ply": 1000,
      "ved": 1001,
      "ron": 1002,
      "tal": 1003,
      "cell": 1004,
      "upper": 1005,
      "comprising": 1006,
      "ication": 1007,
      "ace": 1008,
      "chan": 1009,
      "gr": 1010,
      "install": 1011,
      "substrate": 1012,
      "image": 1013,
      "ef": 1014,
      "moun": 1015,
      "forming": 1016,
      "fra": 1017,
      "act": 1018,
      "ist": 1019,
      "transmit": 1020,
      "sens": 1021,
      "set": 1022,
      "controll": 1023,
      "other": 1024,
      "lock": 1025,
      "mi": 1026,
      "ati": 1027,
      "sc": 1028,
      "time": 1029,
      "hy": 1030,
      "output": 1031,
      "ass": 1032,
      "composition": 1033,
      "la": 1034,
      "ft": 1035,
      "mul": 1036,
      "high": 1037,
      "work": 1038,
      "ong": 1039,
      "ular": 1040,
      "film": 1041,
      "wherein": 1042,
      "dete": 1043,
      "ight": 1044,
      "11": 1045,
      "position": 1046,
      "input": 1047,
      "line": 1048,
      "ren": 1049,
      "electric": 1050,
      "prevent": 1051,
      "vi": 1052,
      "bi": 1053,
      "ry": 1054,
      "ves": 1055,
      "ject": 1056,
      "col": 1057,
      "based": 1058,
      "wa": 1059,
      "pon": 1060,
      "ble": 1061,
      "requ": 1062,
      "ctive": 1063,
      "red": 1064,
      "structure": 1065,
      "main": 1066,
      "direction": 1067,
      "tical": 1068,
      "40": 1069,
      "including": 1070,
      "respon": 1071,
      "ner": 1072,
      "cent": 1073,
      "frame": 1074,
      "modu": 1075,
      "partic": 1076,
      "ox": 1077,
      "eng": 1078,
      "commun": 1079,
      "supply": 1080,
      "net": 1081,
      "fact": 1082,
      "wo": 1083,
      "lement": 1084,
      "impro": 1085,
      "installed": 1086,
      "manu": 1087,
      "br": 1088,
      "stor": 1089,
      "gas": 1090,
      "50": 1091,
      "12": 1092,
      "use": 1093,
      "sing": 1094,
      "electrode": 1095,
      "temp": 1096,
      "ature": 1097,
      "ite": 1098,
      "valu": 1099,
      "hic": 1100,
      "gu": 1101,
      "sure": 1102,
      "vol": 1103,
      "used": 1104,
      "uter": 1105,
      "uit": 1106,
      "manufact": 1107,
      "less": 1108,
      "enti": 1109,
      "lin": 1110,
      "ring": 1111,
      "ded": 1112,
      "upl": 1113,
      "sto": 1114,
      "arr": 1115,
      "sol": 1116,
      "group": 1117,
      "circuit": 1118,
      "cover": 1119,
      "hyd": 1120,
      "tom": 1121,
      "mix": 1122,
      "support": 1123,
      "bon": 1124,
      "receiving": 1125,
      "operation": 1126,
      "med": 1127,
      "ip": 1128,
      "base": 1129,
      "tain": 1130,
      "loc": 1131,
      "vehic": 1132,
      "heat": 1133,
      "communication": 1134,
      "metal": 1135,
      "weight": 1136,
      "tre": 1137,
      "detect": 1138,
      "est": 1139,
      "af": 1140,
      "open": 1141,
      "block": 1142,
      "temper": 1143,
      "than": 1144,
      "coupl": 1145,
      "such": 1146,
      "appl": 1147,
      "ust": 1148,
      "meas": 1149,
      "100": 1150,
      "sensor": 1151,
      "wire": 1152,
      "type": 1153,
      "ari": 1154,
      "dif": 1155,
      "volt": 1156,
      "vehicle": 1157,
      "ference": 1158,
      "multi": 1159,
      "temperature": 1160,
      "same": 1161,
      "determined": 1162,
      "flow": 1163,
      "element": 1164,
      "unction": 1165,
      "mis": 1166,
      "hing": 1167,
      "select": 1168,
      "not": 1169,
      "lic": 1170,
      "dition": 1171,
      "let": 1172,
      "pho": 1173,
      "bu": 1174,
      "remo": 1175,
      "im": 1176,
      "ducing": 1177,
      "being": 1178,
      "pipe": 1179,
      "ductor": 1180,
      "nu": 1181,
      "rad": 1182,
      "inser": 1183,
      "ium": 1184,
      "king": 1185,
      "posed": 1186,
      "ency": 1187,
      "ility": 1188,
      "hole": 1189,
      "module": 1190,
      "ind": 1191,
      "thereof": 1192,
      "asse": 1193,
      "voltage": 1194,
      "urce": 1195,
      "function": 1196,
      "pan": 1197,
      "dischar": 1198,
      "vel": 1199,
      "polymer": 1200,
      "curren": 1201,
      "ber": 1202,
      "correspon": 1203,
      "emb": 1204,
      "sor": 1205,
      "manufacturing": 1206,
      "sul": 1207,
      "region": 1208,
      "value": 1209,
      "mor": 1210,
      "flu": 1211,
      "nel": 1212,
      "driving": 1213,
      "pressure": 1214,
      "sw": 1215,
      "patter": 1216,
      "pattern": 1217,
      "comb": 1218,
      "ured": 1219,
      "shap": 1220,
      "liqu": 1221,
      "hol": 1222,
      "cle": 1223,
      "ref": 1224,
      "sha": 1225,
      "two": 1226,
      "atic": 1227,
      "state": 1228,
      "processing": 1229,
      "ane": 1230,
      "mol": 1231,
      "itch": 1232,
      "inner": 1233,
      "ca": 1234,
      "containing": 1235,
      "may": 1236,
      "speci": 1237,
      "compound": 1238,
      "pos": 1239,
      "mon": 1240,
      "adj": 1241,
      "anged": 1242,
      "cut": 1243,
      "wn": 1244,
      "current": 1245,
      "ene": 1246,
      "anti": 1247,
      "mission": 1248,
      "if": 1249,
      "ied": 1250,
      "extr": 1251,
      "mag": 1252,
      "outer": 1253,
      "hydro": 1254,
      "space": 1255,
      "resin": 1256,
      "vo": 1257,
      "gan": 1258,
      "ical": 1259,
      "semic": 1260,
      "separ": 1261,
      "effe": 1262,
      "acter": 1263,
      "shaft": 1264,
      "area": 1265,
      "she": 1266,
      "ture": 1267,
      "panel": 1268,
      "vari": 1269,
      "semicon": 1270,
      "semiconductor": 1271,
      "corresponding": 1272,
      "assemb": 1273,
      "liquid": 1274,
      "channel": 1275,
      "cal": 1276,
      "contact": 1277,
      "switch": 1278,
      "whe": 1279,
      "iment": 1280,
      "server": 1281,
      "mode": 1282,
      "organ": 1283,
      "cul": 1284,
      "aly": 1285,
      "om": 1286,
      "transfer": 1287,
      "ides": 1288,
      "che": 1289,
      "number": 1290,
      "content": 1291,
      "over": 1292,
      "conver": 1293,
      "action": 1294,
      "ative": 1295,
      "scre": 1296,
      "tiv": 1297,
      "ward": 1298,
      "memor": 1299,
      "embod": 1300,
      "fin": 1301,
      "arm": 1302,
      "ces": 1303,
      "network": 1304,
      "guide": 1305,
      "prote": 1306,
      "fixed": 1307,
      "source": 1308,
      "housing": 1309,
      "roll": 1310,
      "filter": 1311,
      "ank": 1312,
      "obtain": 1313,
      "ized": 1314,
      "predetermined": 1315,
      "embodiment": 1316,
      "ame": 1317,
      "connection": 1318,
      "nal": 1319,
      "suppor": 1320,
      "means": 1321,
      "generating": 1322,
      "pa": 1323,
      "mal": 1324,
      "tach": 1325,
      "storage": 1326,
      "bit": 1327,
      "memory": 1328,
      "00": 1329,
      "closed": 1330,
      "back": 1331,
      "bot": 1332,
      "cha": 1333,
      "transmission": 1334,
      "thereby": 1335,
      "pack": 1336,
      "ree": 1337,
      "specific": 1338,
      "radi": 1339,
      "fici": 1340,
      "arranged": 1341,
      "alk": 1342,
      "load": 1343,
      "object": 1344,
      "case": 1345,
      "ove": 1346,
      "tri": 1347,
      "ging": 1348,
      "carbon": 1349,
      "ses": 1350,
      "onent": 1351,
      "chamber": 1352,
      "component": 1353,
      "controlling": 1354,
      "pr": 1355,
      "arge": 1356,
      "lution": 1357,
      "sis": 1358,
      "fixing": 1359,
      "cool": 1360,
      "cer": 1361,
      "eld": 1362,
      "capable": 1363,
      "but": 1364,
      "said": 1365,
      "fron": 1366,
      "inside": 1367,
      "ctively": 1368,
      "acid": 1369,
      "ability": 1370,
      "ax": 1371,
      "steps": 1372,
      "ger": 1373,
      "mobi": 1374,
      "front": 1375,
      "dr": 1376,
      "ext": 1377,
      "mount": 1378,
      "motor": 1379,
      "character": 1380,
      "duce": 1381,
      "particular": 1382,
      "active": 1383,
      "astic": 1384,
      "bar": 1385,
      "mobile": 1386,
      "ably": 1387,
      "parts": 1388,
      "13": 1389,
      "ick": 1390,
      "micro": 1391,
      "optical": 1392,
      "amp": 1393,
      "after": 1394,
      "disposed": 1395,
      "led": 1396,
      "door": 1397,
      "14": 1398,
      "combin": 1399,
      "generated": 1400,
      "provides": 1401,
      "batter": 1402,
      "ers": 1403,
      "wall": 1404,
      "gate": 1405,
      "wt": 1406,
      "electron": 1407,
      "opening": 1408,
      "product": 1409,
      "also": 1410,
      "insul": 1411,
      "fur": 1412,
      "service": 1413,
      "vir": 1414,
      "pass": 1415,
      "order": 1416,
      "peri": 1417,
      "mar": 1418,
      "ile": 1419,
      "incre": 1420,
      "effici": 1421,
      "fol": 1422,
      "coupled": 1423,
      "then": 1424,
      "photo": 1425,
      "fig": 1426,
      "respe": 1427,
      "cre": 1428,
      "ts": 1429,
      "selected": 1430,
      "battery": 1431,
      "valve": 1432,
      "fl": 1433,
      "oxide": 1434,
      "point": 1435,
      "while": 1436,
      "providing": 1437,
      "duced": 1438,
      "pu": 1439,
      "ping": 1440,
      "section": 1441,
      "adjust": 1442,
      "both": 1443,
      "organic": 1444,
      "resist": 1445,
      "sl": 1446,
      "emit": 1447,
      "gra": 1448,
      "perform": 1449,
      "inte": 1450,
      "ze": 1451,
      "15": 1452,
      "amount": 1453,
      "eas": 1454,
      "sheet": 1455,
      "cry": 1456,
      "wireless": 1457,
      "silic": 1458,
      "equ": 1459,
      "config": 1460,
      "non": 1461,
      "ying": 1462,
      "ling": 1463,
      "controller": 1464,
      "head": 1465,
      "fu": 1466,
      "ak": 1467,
      "frequ": 1468,
      "conduc": 1469,
      "izing": 1470,
      "heating": 1471,
      "200": 1472,
      "adh": 1473,
      "ange": 1474,
      "board": 1475,
      "connecting": 1476,
      "transmitting": 1477,
      "shape": 1478,
      "tur": 1479,
      "110": 1480,
      "was": 1481,
      "60": 1482,
      "agent": 1483,
      "pul": 1484,
      "down": 1485,
      "sho": 1486,
      "duction": 1487,
      "differ": 1488,
      "received": 1489,
      "ness": 1490,
      "gy": 1491,
      "shi": 1492,
      "disclosed": 1493,
      "reference": 1494,
      "cyl": 1495,
      "22": 1496,
      "na": 1497,
      "force": 1498,
      "formul": 1499,
      "without": 1500,
      "rotation": 1501,
      "ss": 1502,
      "attach": 1503,
      "improve": 1504,
      "mounted": 1505,
      "solution": 1506,
      "ia": 1507,
      "assembly": 1508,
      "calcul": 1509,
      "frequency": 1510,
      "compres": 1511,
      "ning": 1512,
      "this": 1513,
      "ily": 1514,
      "fore": 1515,
      "inder": 1516,
      "tim": 1517,
      "preventing": 1518,
      "itor": 1519,
      "ped": 1520,
      "moving": 1521,
      "cr": 1522,
      "pare": 1523,
      "have": 1524,
      "cu": 1525,
      "mess": 1526,
      "condition": 1527,
      "treat": 1528,
      "hor": 1529,
      "read": 1530,
      "ending": 1531,
      "tank": 1532,
      "mat": 1533,
      "magne": 1534,
      "ano": 1535,
      "gl": 1536,
      "request": 1537,
      "coating": 1538,
      "supporting": 1539,
      "bottom": 1540,
      "ies": 1541,
      "exter": 1542,
      "path": 1543,
      "ension": 1544,
      "electronic": 1545,
      "lex": 1546,
      "ching": 1547,
      "ud": 1548,
      "fied": 1549,
      "autom": 1550,
      "discharge": 1551,
      "long": 1552,
      "ird": 1553,
      "off": 1554,
      "level": 1555,
      "syn": 1556,
      "conductive": 1557,
      "fuel": 1558,
      "pri": 1559,
      "centr": 1560,
      "screen": 1561,
      "rear": 1562,
      "key": 1563,
      "fluid": 1564,
      "cooling": 1565,
      "ener": 1566,
      "change": 1567,
      "table": 1568,
      "particularly": 1569,
      "inserted": 1570,
      "grap": 1571,
      "cl": 1572,
      "third": 1573,
      "oil": 1574,
      "tube": 1575,
      "provide": 1576,
      "producing": 1577,
      "120": 1578,
      "ult": 1579,
      "effect": 1580,
      "container": 1581,
      "lowing": 1582,
      "div": 1583,
      "ili": 1584,
      "bro": 1585,
      "fication": 1586,
      "treatment": 1587,
      "top": 1588,
      "powder": 1589,
      "pol": 1590,
      "ise": 1591,
      "protr": 1592,
      "formula": 1593,
      "que": 1594,
      "station": 1595,
      "hand": 1596,
      "easily": 1597,
      "jection": 1598,
      "sele": 1599,
      "targe": 1600,
      "groove": 1601,
      "ray": 1602,
      "pha": 1603,
      "during": 1604,
      "integr": 1605,
      "detecting": 1606,
      "link": 1607,
      "move": 1608,
      "win": 1609,
      "speed": 1610,
      "tivity": 1611,
      "prepar": 1612,
      "identi": 1613,
      "application": 1614,
      "reduce": 1615,
      "istor": 1616,
      "suppl": 1617,
      "magnetic": 1618,
      "sible": 1619,
      "outside": 1620,
      "collect": 1621,
      "automatic": 1622,
      "21": 1623,
      "message": 1624,
      "field": 1625,
      "beam": 1626,
      "center": 1627,
      "vic": 1628,
      "amin": 1629,
      "addition": 1630,
      "pair": 1631,
      "ength": 1632,
      "ink": 1633,
      "maint": 1634,
      "ush": 1635,
      "adhes": 1636,
      "carri": 1637,
      "mach": 1638,
      "ameter": 1639,
      "aring": 1640,
      "external": 1641,
      "cam": 1642,
      "seal": 1643,
      "vide": 1644,
      "signals": 1645,
      "video": 1646,
      "ties": 1647,
      "test": 1648,
      "color": 1649,
      "different": 1650,
      "usion": 1651,
      "applied": 1652,
      "operating": 1653,
      "ive": 1654,
      "stre": 1655,
      "target": 1656,
      "ization": 1657,
      "feed": 1658,
      "fiber": 1659,
      "16": 1660,
      "asing": 1661,
      "com": 1662,
      "storing": 1663,
      "sequ": 1664,
      "ign": 1665,
      "ms": 1666,
      "lamp": 1667,
      "dio": 1668,
      "various": 1669,
      "cri": 1670,
      "emitting": 1671,
      "made": 1672,
      "ption": 1673,
      "whether": 1674,
      "analy": 1675,
      "steel": 1676,
      "ently": 1677,
      "band": 1678,
      "access": 1679,
      "sal": 1680,
      "absor": 1681,
      "sen": 1682,
      "iding": 1683,
      "go": 1684,
      "agement": 1685,
      "rate": 1686,
      "under": 1687,
      "jo": 1688,
      "represent": 1689,
      "lt": 1690,
      "ress": 1691,
      "measuring": 1692,
      "dep": 1693,
      "chang": 1694,
      "xel": 1695,
      "tra": 1696,
      "pixel": 1697,
      "ges": 1698,
      "ital": 1699,
      "alkyl": 1700,
      "performing": 1701,
      "along": 1702,
      "clean": 1703,
      "size": 1704,
      "mixture": 1705,
      "ru": 1706,
      "cro": 1707,
      "pump": 1708,
      "sensing": 1709,
      "pie": 1710,
      "stored": 1711,
      "about": 1712,
      "uch": 1713,
      "determining": 1714,
      "progra": 1715,
      "ror": 1716,
      "glass": 1717,
      "rotating": 1718,
      "cast": 1719,
      "vices": 1720,
      "cylinder": 1721,
      "location": 1722,
      "cat": 1723,
      "dig": 1724,
      "phone": 1725,
      "box": 1726,
      "aced": 1727,
      "coding": 1728,
      "possible": 1729,
      "multip": 1730,
      "pad": 1731,
      "zing": 1732,
      "further": 1733,
      "gear": 1734,
      "configured": 1735,
      "equip": 1736,
      "energy": 1737,
      "dry": 1738,
      "acting": 1739,
      "within": 1740,
      "silicon": 1741,
      "fill": 1742,
      "vis": 1743,
      "supplying": 1744,
      "stal": 1745,
      "core": 1746,
      "capac": 1747,
      "ground": 1748,
      "rod": 1749,
      "code": 1750,
      "located": 1751,
      "site": 1752,
      "ster": 1753,
      "pper": 1754,
      "ten": 1755,
      "angle": 1756,
      "direct": 1757,
      "engine": 1758,
      "crystal": 1759,
      "its": 1760,
      "chemic": 1761,
      "sel": 1762,
      "fr": 1763,
      "right": 1764,
      "receives": 1765,
      "reducing": 1766,
      "excell": 1767,
      "coupling": 1768,
      "os": 1769,
      "maintain": 1770,
      "management": 1771,
      "vertical": 1772,
      "phase": 1773,
      "70": 1774,
      "elastic": 1775,
      "izon": 1776,
      "18": 1777,
      "cells": 1778,
      "excellent": 1779,
      "result": 1780,
      "horizon": 1781,
      "sk": 1782,
      "ends": 1783,
      "aper": 1784,
      "insulating": 1785,
      "tance": 1786,
      "wave": 1787,
      "round": 1788,
      "digital": 1789,
      "aging": 1790,
      "nit": 1791,
      "pin": 1792,
      "flo": 1793,
      "measure": 1794,
      "ously": 1795,
      "proper": 1796,
      "machine": 1797,
      "mold": 1798,
      "ish": 1799,
      "generation": 1800,
      "tut": 1801,
      "log": 1802,
      "bed": 1803,
      "drive": 1804,
      "add": 1805,
      "due": 1806,
      "ged": 1807,
      "resistance": 1808,
      "way": 1809,
      "real": 1810,
      "ful": 1811,
      "ask": 1812,
      "efficiency": 1813,
      "detection": 1814,
      "130": 1815,
      "ot": 1816,
      "arch": 1817,
      "sm": 1818,
      "gre": 1819,
      "waste": 1820,
      "axis": 1821,
      "transmitted": 1822,
      "raw": 1823,
      "mes": 1824,
      "bl": 1825,
      "coil": 1826,
      "prin": 1827,
      "ta": 1828,
      "coun": 1829,
      "sides": 1830,
      "nano": 1831,
      "distri": 1832,
      "chemical": 1833,
      "aser": 1834,
      "extract": 1835,
      "cataly": 1836,
      "cost": 1837,
      "stream": 1838,
      "zz": 1839,
      "chip": 1840,
      "adhesive": 1841,
      "wheel": 1842,
      "obtained": 1843,
      "apply": 1844,
      "vac": 1845,
      "mixing": 1846,
      "mple": 1847,
      "removing": 1848,
      "devices": 1849,
      "oxy": 1850,
      "attached": 1851,
      "camer": 1852,
      "transistor": 1853,
      "fab": 1854,
      "tho": 1855,
      "300": 1856,
      "improved": 1857,
      "mounting": 1858,
      "inal": 1859,
      "call": 1860,
      "ential": 1861,
      "fabric": 1862,
      "particles": 1863,
      "setting": 1864,
      "uni": 1865,
      "hibit": 1866,
      "cutting": 1867,
      "materials": 1868,
      "exp": 1869,
      "nor": 1870,
      "edge": 1871,
      "oc": 1872,
      "interface": 1873,
      "reso": 1874,
      "length": 1875,
      "units": 1876,
      "reaction": 1877,
      "laser": 1878,
      "eral": 1879,
      "24": 1880,
      "istic": 1881,
      "computer": 1882,
      "ylene": 1883,
      "touch": 1884,
      "thick": 1885,
      "conve": 1886,
      "enable": 1887,
      "inlet": 1888,
      "cogn": 1889,
      "like": 1890,
      "distance": 1891,
      "mechan": 1892,
      "art": 1893,
      "25": 1894,
      "ye": 1895,
      "wid": 1896,
      "thin": 1897,
      "range": 1898,
      "medium": 1899,
      "exe": 1900,
      "exha": 1901,
      "parti": 1902,
      "cord": 1903,
      "response": 1904,
      "her": 1905,
      "lens": 1906,
      "rati": 1907,
      "processor": 1908,
      "holes": 1909,
      "ug": 1910,
      "increase": 1911,
      "ori": 1912,
      "supplied": 1913,
      "nozz": 1914,
      "stand": 1915,
      "minim": 1916,
      "wafer": 1917,
      "exhaust": 1918,
      "file": 1919,
      "camera": 1920,
      "fier": 1921,
      "recogn": 1922,
      "hydrogen": 1923,
      "ched": 1924,
      "generator": 1925,
      "contin": 1926,
      "monitor": 1927,
      "ared": 1928,
      "gment": 1929,
      "multiple": 1930,
      "divid": 1931,
      "period": 1932,
      "preparing": 1933,
      "rail": 1934,
      "allow": 1935,
      "anten": 1936,
      "program": 1937,
      "32": 1938,
      "even": 1939,
      "amic": 1940,
      "ratio": 1941,
      "motion": 1942,
      "indic": 1943,
      "production": 1944,
      "continu": 1945,
      "ok": 1946,
      "movement": 1947,
      "sive": 1948,
      "ality": 1949,
      "rotary": 1950,
      "improving": 1951,
      "eth": 1952,
      "cing": 1953,
      "performed": 1954,
      "rip": 1955,
      "small": 1956,
      "onment": 1957,
      "fast": 1958,
      "envir": 1959,
      "environment": 1960,
      "sound": 1961,
      "tically": 1962,
      "actu": 1963,
      "ced": 1964,
      "food": 1965,
      "rein": 1966,
      "mn": 1967,
      "switching": 1968,
      "da": 1969,
      "bra": 1970,
      "three": 1971,
      "ii": 1972,
      "cli": 1973,
      "cel": 1974,
      "xim": 1975,
      "composed": 1976,
      "only": 1977,
      "methods": 1978,
      "include": 1979,
      "carrier": 1980,
      "ease": 1981,
      "vacu": 1982,
      "vibr": 1983,
      "card": 1984,
      "check": 1985,
      "any": 1986,
      "among": 1987,
      "drain": 1988,
      "treating": 1989,
      "following": 1990,
      "catalyst": 1991,
      "hum": 1992,
      "spring": 1993,
      "transmits": 1994,
      "ishing": 1995,
      "ister": 1996,
      "ening": 1997,
      "dic": 1998,
      "struction": 1999,
      "safe": 2000,
      "horizontal": 2001,
      "via": 2002,
      "deg": 2003,
      "corre": 2004,
      "lines": 2005,
      "plastic": 2006,
      "specifically": 2007,
      "ize": 2008,
      "turn": 2009,
      "plas": 2010,
      "deri": 2011,
      "applying": 2012,
      "paren": 2013,
      "injection": 2014,
      "bio": 2015,
      "who": 2016,
      "alle": 2017,
      "ended": 2018,
      "place": 2019,
      "new": 2020,
      "subst": 2021,
      "internal": 2022,
      "pic": 2023,
      "rele": 2024,
      "soci": 2025,
      "roller": 2026,
      "wr": 2027,
      "wel": 2028,
      "ately": 2029,
      "width": 2030,
      "iti": 2031,
      "son": 2032,
      "outlet": 2033,
      "measurement": 2034,
      "characteristic": 2035,
      "free": 2036,
      "refri": 2037,
      "refriger": 2038,
      "apor": 2039,
      "disease": 2040,
      "ton": 2041,
      "hard": 2042,
      "design": 2043,
      "four": 2044,
      "vapor": 2045,
      "node": 2046,
      "31": 2047,
      "dow": 2048,
      "shor": 2049,
      "nozzle": 2050,
      "sitive": 2051,
      "lif": 2052,
      "substi": 2053,
      "lumin": 2054,
      "combined": 2055,
      "generates": 2056,
      "window": 2057,
      "antenna": 2058,
      "broad": 2059,
      "respectively": 2060,
      "alo": 2061,
      "vacuum": 2062,
      "associ": 2063,
      "modul": 2064,
      "driver": 2065,
      "screw": 2066,
      "mask": 2067,
      "tech": 2068,
      "skin": 2069,
      "shaped": 2070,
      "word": 2071,
      "ition": 2072,
      "pharm": 2073,
      "ism": 2074,
      "address": 2075,
      "defin": 2076,
      "ps": 2077,
      "quality": 2078,
      "solid": 2079,
      "elements": 2080,
      "spray": 2081,
      "thickness": 2082,
      "ni": 2083,
      "xy": 2084,
      "error": 2085,
      "washing": 2086,
      "oth": 2087,
      "inject": 2088,
      "mono": 2089,
      "lead": 2090,
      "ible": 2091,
      "ctor": 2092,
      "single": 2093,
      "hot": 2094,
      "thus": 2095,
      "initi": 2096,
      "related": 2097,
      "23": 2098,
      "ball": 2099,
      "cross": 2100,
      "circum": 2101,
      "contains": 2102,
      "ures": 2103,
      "ffer": 2104,
      "rub": 2105,
      "ages": 2106,
      "secondary": 2107,
      "adjusting": 2108,
      "tool": 2109,
      "web": 2110,
      "plasma": 2111,
      "pot": 2112,
      "transparen": 2113,
      "piece": 2114,
      "packet": 2115,
      "electrically": 2116,
      "mark": 2117,
      "stren": 2118,
      "faces": 2119,
      "streng": 2120,
      "pressing": 2121,
      "placed": 2122,
      "aceu": 2123,
      "wing": 2124,
      "concentr": 2125,
      "absorb": 2126,
      "connector": 2127,
      "functional": 2128,
      "drying": 2129,
      "prepare": 2130,
      "80": 2131,
      "search": 2132,
      "pharmaceu": 2133,
      "media": 2134,
      "tuted": 2135,
      "equipment": 2136,
      "noise": 2137,
      "cleaning": 2138,
      "acket": 2139,
      "mixed": 2140,
      "descri": 2141,
      "synthe": 2142,
      "simul": 2143,
      "enh": 2144,
      "map": 2145,
      "cable": 2146,
      "lamin": 2147,
      "bal": 2148,
      "liver": 2149,
      "reduced": 2150,
      "cep": 2151,
      "til": 2152,
      "activ": 2153,
      "making": 2154,
      "paper": 2155,
      "members": 2156,
      "above": 2157,
      "bur": 2158,
      "protru": 2159,
      "periph": 2160,
      "flex": 2161,
      "diameter": 2162,
      "buffer": 2163,
      "broadcast": 2164,
      "zed": 2165,
      "portions": 2166,
      "bla": 2167,
      "central": 2168,
      "cos": 2169,
      "ys": 2170,
      "adjac": 2171,
      "140": 2172,
      "bus": 2173,
      "paralle": 2174,
      "cus": 2175,
      "solvent": 2176,
      "left": 2177,
      "need": 2178,
      "generate": 2179,
      "protrusion": 2180,
      "predic": 2181,
      "consis": 2182,
      "array": 2183,
      "dust": 2184,
      "acqu": 2185,
      "included": 2186,
      "adver": 2187,
      "interval": 2188,
      "atom": 2189,
      "ision": 2190,
      "molding": 2191,
      "protein": 2192,
      "sealing": 2193,
      "reflect": 2194,
      "acted": 2195,
      "thermal": 2196,
      "compounds": 2197,
      "strength": 2198,
      "ape": 2199,
      "lection": 2200,
      "composite": 2201,
      "contents": 2202,
      "mov": 2203,
      "adjacent": 2204,
      "outputting": 2205,
      "command": 2206,
      "components": 2207,
      "automatically": 2208,
      "consisting": 2209,
      "separated": 2210,
      "performance": 2211,
      "integrated": 2212,
      "vibration": 2213,
      "dim": 2214,
      "ering": 2215,
      "voice": 2216,
      "sat": 2217,
      "holder": 2218,
      "well": 2219,
      "parallel": 2220,
      "dimension": 2221,
      "rubber": 2222,
      "transparent": 2223,
      "detected": 2224,
      "closing": 2225,
      "vie": 2226,
      "lot": 2227,
      "cial": 2228,
      "characterized": 2229,
      "pc": 2230,
      "large": 2231,
      "room": 2232,
      "dia": 2233,
      "bin": 2234,
      "150": 2235,
      "cting": 2236,
      "ryl": 2237,
      "ased": 2238,
      "actor": 2239,
      "controls": 2240,
      "ired": 2241,
      "tex": 2242,
      "adding": 2243,
      "adverti": 2244,
      "electrodes": 2245,
      "mole": 2246,
      "extending": 2247,
      "fa": 2248,
      "sin": 2249,
      "ba": 2250,
      "phen": 2251,
      "ior": 2252,
      "height": 2253,
      "bracket": 2254,
      "salt": 2255,
      "scan": 2256,
      "collecting": 2257,
      "discharging": 2258,
      "plan": 2259,
      "around": 2260,
      "relative": 2261,
      "mod": 2262,
      "associated": 2263,
      "toward": 2264,
      "displaying": 2265,
      "buil": 2266,
      "ents": 2267,
      "alu": 2268,
      "plant": 2269,
      "chron": 2270,
      "acryl": 2271,
      "stage": 2272,
      "selectively": 2273,
      "person": 2274,
      "ensity": 2275,
      "crete": 2276,
      "dielectric": 2277,
      "verage": 2278,
      "17": 2279,
      "charging": 2280,
      "cd": 2281,
      "conven": 2282,
      "insertion": 2283,
      "mass": 2284,
      "inhibit": 2285,
      "alumin": 2286,
      "conveni": 2287,
      "audio": 2288,
      "normal": 2289,
      "recording": 2290,
      "pect": 2291,
      "prefer": 2292,
      "layers": 2293,
      "produced": 2294,
      "longit": 2295,
      "cau": 2296,
      "respect": 2297,
      "reinfor": 2298,
      "stack": 2299,
      "atch": 2300,
      "bearing": 2301,
      "datab": 2302,
      "maxim": 2303,
      "ual": 2304,
      "another": 2305,
      "seat": 2306,
      "mart": 2307,
      "polar": 2308,
      "database": 2309,
      "longitud": 2310,
      "nat": 2311,
      "dc": 2312,
      "electrical": 2313,
      "ester": 2314,
      "sec": 2315,
      "fit": 2316,
      "brid": 2317,
      "receiver": 2318,
      "magnet": 2319,
      "locking": 2320,
      "stant": 2321,
      "radiation": 2322,
      "tration": 2323,
      "virtu": 2324,
      "authen": 2325,
      "particle": 2326,
      "receive": 2327,
      "authentic": 2328,
      "ampli": 2329,
      "deliver": 2330,
      "charge": 2331,
      "sequence": 2332,
      "tub": 2333,
      "men": 2334,
      "parameter": 2335,
      "iting": 2336,
      "met": 2337,
      "clock": 2338,
      "calculating": 2339,
      "oxid": 2340,
      "radio": 2341,
      "commod": 2342,
      "disper": 2343,
      "ations": 2344,
      "ash": 2345,
      "bre": 2346,
      "passage": 2347,
      "align": 2348,
      "proble": 2349,
      "90": 2350,
      "joint": 2351,
      "therefore": 2352,
      "variable": 2353,
      "thermo": 2354,
      "stores": 2355,
      "day": 2356,
      "pist": 2357,
      "linear": 2358,
      "piston": 2359,
      "virtual": 2360,
      "smart": 2361,
      "substituted": 2362,
      "loy": 2363,
      "positioned": 2364,
      "sof": 2365,
      "pes": 2366,
      "uniform": 2367,
      "uses": 2368,
      "phosp": 2369,
      "depend": 2370,
      "medi": 2371,
      "accur": 2372,
      "ear": 2373,
      "game": 2374,
      "acc": 2375,
      "consu": 2376,
      "remote": 2377,
      "tele": 2378,
      "intro": 2379,
      "here": 2380,
      "ep": 2381,
      "communic": 2382,
      "repe": 2383,
      "measured": 2384,
      "av": 2385,
      "210": 2386,
      "register": 2387,
      "400": 2388,
      "electroly": 2389,
      "circul": 2390,
      "aux": 2391,
      "graph": 2392,
      "eve": 2393,
      "movable": 2394,
      "concrete": 2395,
      "26": 2396,
      "py": 2397,
      "bol": 2398,
      "rotat": 2399,
      "estim": 2400,
      "colu": 2401,
      "auxili": 2402,
      "basis": 2403,
      "imm": 2404,
      "axial": 2405,
      "outputs": 2406,
      "auxiliary": 2407,
      "comple": 2408,
      "dex": 2409,
      "column": 2410,
      "stop": 2411,
      "bution": 2412,
      "detach": 2413,
      "zo": 2414,
      "uration": 2415,
      "redi": 2416,
      "handle": 2417,
      "gi": 2418,
      "safety": 2419,
      "effectively": 2420,
      "execut": 2421,
      "ingredi": 2422,
      "monitoring": 2423,
      "heater": 2424,
      "verse": 2425,
      "fying": 2426,
      "metic": 2427,
      "accommod": 2428,
      "activity": 2429,
      "longitudinal": 2430,
      "portable": 2431,
      "forms": 2432,
      "sli": 2433,
      "reli": 2434,
      "model": 2435,
      "000": 2436,
      "hold": 2437,
      "tun": 2438,
      "fine": 2439,
      "desi": 2440,
      "again": 2441,
      "gin": 2442,
      "distribution": 2443,
      "synchron": 2444,
      "artic": 2445,
      "flexible": 2446,
      "surfaces": 2447,
      "prepared": 2448,
      "hydra": 2449,
      "capacitor": 2450,
      "inputted": 2451,
      "plates": 2452,
      "velo": 2453,
      "sample": 2454,
      "limit": 2455,
      "row": 2456,
      "loading": 2457,
      "mil": 2458,
      "selection": 2459,
      "difference": 2460,
      "gap": 2461,
      "disk": 2462,
      "gene": 2463,
      "simp": 2464,
      "controlled": 2465,
      "pene": 2466,
      "mbr": 2467,
      "oxygen": 2468,
      "internet": 2469,
      "exchang": 2470,
      "adv": 2471,
      "short": 2472,
      "construction": 2473,
      "cesses": 2474,
      "membr": 2475,
      "been": 2476,
      "ute": 2477,
      "compositions": 2478,
      "increasing": 2479,
      "meter": 2480,
      "pay": 2481,
      "close": 2482,
      "oppos": 2483,
      "separating": 2484,
      "adap": 2485,
      "assi": 2486,
      "opposite": 2487,
      "pulse": 2488,
      "cket": 2489,
      "accord": 2490,
      "welding": 2491,
      "vector": 2492,
      "zer": 2493,
      "make": 2494,
      "blade": 2495,
      "condens": 2496,
      "ulic": 2497,
      "plane": 2498,
      "since": 2499,
      "suction": 2500,
      "described": 2501,
      "coated": 2502,
      "images": 2503,
      "anch": 2504,
      "spac": 2505,
      "hydraulic": 2506,
      "compressor": 2507,
      "hinge": 2508,
      "extended": 2509,
      "ferment": 2510,
      "rotor": 2511,
      "etching": 2512,
      "lor": 2513,
      "inyl": 2514,
      "brake": 2515,
      "resi": 2516,
      "insulation": 2517,
      "accordance": 2518,
      "dimensional": 2519,
      "resource": 2520,
      "press": 2521,
      "soft": 2522,
      "lar": 2523,
      "index": 2524,
      "client": 2525,
      "copolymer": 2526,
      "fan": 2527,
      "cav": 2528,
      "view": 2529,
      "selecting": 2530,
      "methyl": 2531,
      "rice": 2532,
      "volu": 2533,
      "hollow": 2534,
      "delay": 2535,
      "diagn": 2536,
      "combus": 2537,
      "track": 2538,
      "conversion": 2539,
      "produce": 2540,
      "compens": 2541,
      "solar": 2542,
      "natural": 2543,
      "sil": 2544,
      "inspe": 2545,
      "values": 2546,
      "flat": 2547,
      "blocks": 2548,
      "ery": 2549,
      "analysis": 2550,
      "opened": 2551,
      "prim": 2552,
      "converting": 2553,
      "belt": 2554,
      "ill": 2555,
      "ason": 2556,
      "mid": 2557,
      "ware": 2558,
      "metr": 2559,
      "phys": 2560,
      "their": 2561,
      "34": 2562,
      "converter": 2563,
      "holding": 2564,
      "gar": 2565,
      "constant": 2566,
      "fect": 2567,
      "represented": 2568,
      "cyc": 2569,
      "post": 2570,
      "membrane": 2571,
      "advertise": 2572,
      "self": 2573,
      "ceramic": 2574,
      "depos": 2575,
      "printing": 2576,
      "rix": 2577,
      "covering": 2578,
      "ficial": 2579,
      "human": 2580,
      "bonding": 2581,
      "advertisement": 2582,
      "pharmaceutical": 2583,
      "19": 2584,
      "clamp": 2585,
      "useful": 2586,
      "bility": 2587,
      "list": 2588,
      "discharged": 2589,
      "printed": 2590,
      "ship": 2591,
      "terminals": 2592,
      "volume": 2593,
      "strip": 2594,
      "fire": 2595,
      "supported": 2596,
      "matrix": 2597,
      "isting": 2598,
      "ethylene": 2599,
      "convey": 2600,
      "foam": 2601,
      "tane": 2602,
      "500": 2603,
      "properties": 2604,
      "examp": 2605,
      "steam": 2606,
      "smo": 2607,
      "modi": 2608,
      "caused": 2609,
      "authentication": 2610,
      "embodiments": 2611,
      "draw": 2612,
      "subject": 2613,
      "average": 2614,
      "higher": 2615,
      "tle": 2616,
      "toge": 2617,
      "cause": 2618,
      "together": 2619,
      "projection": 2620,
      "cosmetic": 2621,
      "separation": 2622,
      "102": 2623,
      "die": 2624,
      "prop": 2625,
      "mechanism": 2626,
      "ghting": 2627,
      "nut": 2628,
      "monomer": 2629,
      "vinyl": 2630,
      "displayed": 2631,
      "lever": 2632,
      "exposed": 2633,
      "project": 2634,
      "total": 2635,
      "groups": 2636,
      "chain": 2637,
      "35": 2638,
      "bag": 2639,
      "manner": 2640,
      "rotated": 2641,
      "characteristics": 2642,
      "nucle": 2643,
      "aluminum": 2644,
      "reinforcing": 2645,
      "concentration": 2646,
      "confir": 2647,
      "occur": 2648,
      "event": 2649,
      "package": 2650,
      "independ": 2651,
      "some": 2652,
      "dro": 2653,
      "tili": 2654,
      "preferably": 2655,
      "working": 2656,
      "additional": 2657,
      "ically": 2658,
      "regul": 2659,
      "products": 2660,
      "fing": 2661,
      "intermedi": 2662,
      "tis": 2663,
      "simultane": 2664,
      "secur": 2665,
      "expres": 2666,
      "transferring": 2667,
      "combustion": 2668,
      "inclin": 2669,
      "remain": 2670,
      "develo": 2671,
      "indric": 2672,
      "fluor": 2673,
      "good": 2674,
      "common": 2675,
      "cylindric": 2676,
      "combination": 2677,
      "before": 2678,
      "desired": 2679,
      "cancer": 2680,
      "moved": 2681,
      "lith": 2682,
      "unding": 2683,
      "extracting": 2684,
      "aque": 2685,
      "fla": 2686,
      "passing": 2687,
      "actuator": 2688,
      "certain": 2689,
      "defined": 2690,
      "directly": 2691,
      "initial": 2692,
      "identification": 2693,
      "cylindrical": 2694,
      "enz": 2695,
      "obtaining": 2696,
      "distribut": 2697,
      "fourth": 2698,
      "quanti": 2699,
      "diode": 2700,
      "encoding": 2701,
      "42": 2702,
      "alloy": 2703,
      "wind": 2704,
      "therein": 2705,
      "protection": 2706,
      "complex": 2707,
      "diseases": 2708,
      "star": 2709,
      "dy": 2710,
      "pt": 2711,
      "cular": 2712,
      "exchange": 2713,
      "security": 2714,
      "ants": 2715,
      "leg": 2716,
      "zone": 2717,
      "arn": 2718,
      "prevention": 2719,
      "rap": 2720,
      "auto": 2721,
      "uble": 2722,
      "ko": 2723,
      "din": 2724,
      "deriv": 2725,
      "example": 2726,
      "arning": 2727,
      "frames": 2728,
      "physical": 2729,
      "grad": 2730,
      "tide": 2731,
      "ultr": 2732,
      "disclo": 2733,
      "robot": 2734,
      "bor": 2735,
      "floor": 2736,
      "convention": 2737,
      "does": 2738,
      "vertically": 2739,
      "installation": 2740,
      "zation": 2741,
      "220": 2742,
      "preparation": 2743,
      "road": 2744,
      "wiring": 2745,
      "required": 2746,
      "bolt": 2747,
      "proof": 2748,
      "suit": 2749,
      "sus": 2750,
      "manufactured": 2751,
      "clu": 2752,
      "catho": 2753,
      "chlor": 2754,
      "operated": 2755,
      "performs": 2756,
      "simple": 2757,
      "primary": 2758,
      "reception": 2759,
      "option": 2760,
      "processes": 2761,
      "expo": 2762,
      "hal": 2763,
      "diff": 2764,
      "porous": 2765,
      "page": 2766,
      "ig": 2767,
      "separate": 2768,
      "achi": 2769,
      "produc": 2770,
      "gly": 2771,
      "itu": 2772,
      "copper": 2773,
      "celer": 2774,
      "vessel": 2775,
      "necess": 2776,
      "stability": 2777,
      "implement": 2778,
      "evapor": 2779,
      "peripheral": 2780,
      "isol": 2781,
      "configuration": 2782,
      "tape": 2783,
      "will": 2784,
      "enhan": 2785,
      "aged": 2786,
      "dual": 2787,
      "lithium": 2788,
      "enco": 2789,
      "aspect": 2790,
      "mel": 2791,
      "refrigerant": 2792,
      "cathode": 2793,
      "accep": 2794,
      "drum": 2795,
      "groo": 2796,
      "flowing": 2797,
      "inserting": 2798,
      "alter": 2799,
      "sliding": 2800,
      "installing": 2801,
      "reactor": 2802,
      "building": 2803,
      "effective": 2804,
      "winding": 2805,
      "33": 2806,
      "tomer": 2807,
      "detector": 2808,
      "respective": 2809,
      "remove": 2810,
      "ele": 2811,
      "join": 2812,
      "contained": 2813,
      "construct": 2814,
      "super": 2815,
      "button": 2816,
      "against": 2817,
      "release": 2818,
      "factor": 2819,
      "ue": 2820,
      "divided": 2821,
      "enab": 2822,
      "individ": 2823,
      "his": 2824,
      "amino": 2825,
      "mir": 2826,
      "fastening": 2827,
      "ists": 2828,
      "aqueous": 2829,
      "ordin": 2830,
      "num": 2831,
      "iso": 2832,
      "moist": 2833,
      "limin": 2834,
      "rf": 2835,
      "mage": 2836,
      "maintaining": 2837,
      "c1": 2838,
      "grooves": 2839,
      "pati": 2840,
      "conventional": 2841,
      "damage": 2842,
      "forward": 2843,
      "urces": 2844,
      "appro": 2845,
      "loss": 2846,
      "lighting": 2847,
      "simultaneously": 2848,
      "41": 2849,
      "relay": 2850,
      "scri": 2851,
      "sensitive": 2852,
      "driven": 2853,
      "neg": 2854,
      "nitro": 2855,
      "intermediate": 2856,
      "store": 2857,
      "leak": 2858,
      "kno": 2859,
      "°c": 2860,
      "double": 2861,
      "absorbing": 2862,
      "spaced": 2863,
      "bacter": 2864,
      "blocking": 2865,
      "ingredient": 2866,
      "compression": 2867,
      "conditions": 2868,
      "reduction": 2869,
      "ole": 2870,
      "entially": 2871,
      "iron": 2872,
      "barri": 2873,
      "ali": 2874,
      "stat": 2875,
      "local": 2876,
      "ds": 2877,
      "impact": 2878,
      "ga": 2879,
      "strain": 2880,
      "tan": 2881,
      "removed": 2882,
      "yo": 2883,
      "transport": 2884,
      "sle": 2885,
      "property": 2886,
      "relation": 2887,
      "equipped": 2888,
      "segment": 2889,
      "partition": 2890,
      "negative": 2891,
      "processed": 2892,
      "general": 2893,
      "comprise": 2894,
      "picture": 2895,
      "run": 2896,
      "changing": 2897,
      "28": 2898,
      "101": 2899,
      "bent": 2900,
      "graphic": 2901,
      "them": 2902,
      "coll": 2903,
      "payment": 2904,
      "plac": 2905,
      "novel": 2906,
      "systems": 2907,
      "tire": 2908,
      "puri": 2909,
      "lap": 2910,
      "protective": 2911,
      "diagno": 2912,
      "ually": 2913,
      "circumfer": 2914,
      "cup": 2915,
      "traf": 2916,
      "positive": 2917,
      "necessary": 2918,
      "solu": 2919,
      "deco": 2920,
      "inver": 2921,
      "illumin": 2922,
      "impur": 2923,
      "kes": 2924,
      "calculated": 2925,
      "barrier": 2926,
      "exchanger": 2927,
      "onto": 2928,
      "foreign": 2929,
      "continuously": 2930,
      "alco": 2931,
      "infr": 2932,
      "grow": 2933,
      "anging": 2934,
      "density": 2935,
      "den": 2936,
      "heal": 2937,
      "infrared": 2938,
      "lid": 2939,
      "scal": 2940,
      "electrolyte": 2941,
      "utili": 2942,
      "changed": 2943,
      "symb": 2944,
      "ident": 2945,
      "efficient": 2946,
      "elev": 2947,
      "degree": 2948,
      "allowing": 2949,
      "start": 2950,
      "supplies": 2951,
      "article": 2952,
      "recognition": 2953,
      "nitri": 2954,
      "patterns": 2955,
      "symbol": 2956,
      "lea": 2957,
      "print": 2958,
      "finger": 2959,
      "filtering": 2960,
      "expand": 2961,
      "pep": 2962,
      "drug": 2963,
      "altern": 2964,
      "host": 2965,
      "wavel": 2966,
      "wavelength": 2967,
      "most": 2968,
      "equal": 2969,
      "seed": 2970,
      "later": 2971,
      "plat": 2972,
      "logical": 2973,
      "decoding": 2974,
      "substanti": 2975,
      "inorganic": 2976,
      "shift": 2977,
      "carry": 2978,
      "gol": 2979,
      "penetr": 2980,
      "cavity": 2981,
      "increased": 2982,
      "ments": 2983,
      "asses": 2984,
      "home": 2985,
      "analo": 2986,
      "uting": 2987,
      "apart": 2988,
      "tooth": 2989,
      "regions": 2990,
      "romatic": 2991,
      "circumferential": 2992,
      "very": 2993,
      "abili": 2994,
      "flange": 2995,
      "rotatably": 2996,
      "plug": 2997,
      "ilit": 2998,
      "existing": 2999,
      "continuous": 3000,
      "combining": 3001,
      "compar": 3002,
      "accordingly": 3003,
      "tag": 3004,
      "techni": 3005,
      "iling": 3006,
      "suitable": 3007,
      "cycle": 3008,
      "bic": 3009,
      "analyzing": 3010,
      "pain": 3011,
      "supports": 3012,
      "determine": 3013,
      "tension": 3014,
      "mirror": 3015,
      "correction": 3016,
      "coordin": 3017,
      "hair": 3018,
      "disc": 3019,
      "reser": 3020,
      "casing": 3021,
      "travel": 3022,
      "guiding": 3023,
      "compressed": 3024,
      "problem": 3025,
      "determines": 3026,
      "logy": 3027,
      "upd": 3028,
      "life": 3029,
      "aker": 3030,
      "traffic": 3031,
      "mechanical": 3032,
      "iring": 3033,
      "alcohol": 3034,
      "synthetic": 3035,
      "placement": 3036,
      "mption": 3037,
      "conductor": 3038,
      "displays": 3039,
      "ultra": 3040,
      "users": 3041,
      "torque": 3042,
      "maximum": 3043,
      "push": 3044,
      "112": 3045,
      "cold": 3046,
      "integrally": 3047,
      "furn": 3048,
      "uld": 3049,
      "erals": 3050,
      "facing": 3051,
      "thread": 3052,
      "yarn": 3053,
      "acceler": 3054,
      "ake": 3055,
      "added": 3056,
      "enabling": 3057,
      "amplifier": 3058,
      "kore": 3059,
      "steering": 3060,
      "turb": 3061,
      "cise": 3062,
      "prediction": 3063,
      "pixels": 3064,
      "damp": 3065,
      "wear": 3066,
      "sea": 3067,
      "land": 3068,
      "moisture": 3069,
      "train": 3070,
      "36": 3071,
      "ld": 3072,
      "efficiently": 3073,
      "3d": 3074,
      "nitrogen": 3075,
      "moves": 3076,
      "comparing": 3077,
      "ifying": 3078,
      "ire": 3079,
      "recover": 3080,
      "substantially": 3081,
      "circular": 3082,
      "classi": 3083,
      "deposition": 3084,
      "feeding": 3085,
      "represents": 3086,
      "expression": 3087,
      "cellu": 3088,
      "capacity": 3089,
      "dle": 3090,
      "lling": 3091,
      "binding": 3092,
      "cc": 3093,
      "extracted": 3094,
      "growth": 3095,
      "rolling": 3096,
      "proto": 3097,
      "heter": 3098,
      "points": 3099,
      "soil": 3100,
      "analog": 3101,
      "anode": 3102,
      "blo": 3103,
      "arrange": 3104,
      "consumption": 3105,
      "filled": 3106,
      "52": 3107,
      "inclined": 3108,
      "slo": 3109,
      "quick": 3110,
      "oking": 3111,
      "wer": 3112,
      "static": 3113,
      "rest": 3114,
      "amine": 3115,
      "furnace": 3116,
      "rounding": 3117,
      "elimin": 3118,
      "subscri": 3119,
      "ited": 3120,
      "104": 3121,
      "satis": 3122,
      "brush": 3123,
      "rotational": 3124,
      "tran": 3125,
      "thane": 3126,
      "enables": 3127,
      "indoor": 3128,
      "angular": 3129,
      "dop": 3130,
      "heated": 3131,
      "molecular": 3132,
      "aromatic": 3133,
      "cand": 3134,
      "health": 3135,
      "urs": 3136,
      "resul": 3137,
      "circumference": 3138,
      "eno": 3139,
      "telephone": 3140,
      "entire": 3141,
      "binder": 3142,
      "transform": 3143,
      "they": 3144,
      "nitride": 3145,
      "house": 3146,
      "facilit": 3147,
      "overlap": 3148,
      "kind": 3149,
      "tray": 3150,
      "istration": 3151,
      "uplink": 3152,
      "green": 3153,
      "black": 3154,
      "detects": 3155,
      "sterili": 3156,
      "addi": 3157,
      "counter": 3158,
      "below": 3159,
      "rapid": 3160,
      "independently": 3161,
      "utch": 3162,
      "loop": 3163,
      "emp": 3164,
      "mus": 3165,
      "polishing": 3166,
      "modified": 3167,
      "thres": 3168,
      "injecting": 3169,
      "epo": 3170,
      "ened": 3171,
      "probe": 3172,
      "hetero": 3173,
      "protruding": 3174,
      "irradi": 3175,
      "decre": 3176,
      "times": 3177,
      "optionally": 3178,
      "depth": 3179,
      "surrounding": 3180,
      "fric": 3181,
      "stabili": 3182,
      "fies": 3183,
      "bending": 3184,
      "umul": 3185,
      "medic": 3186,
      "these": 3187,
      "gency": 3188,
      "gt": 3189,
      "cursor": 3190,
      "evalu": 3191,
      "friction": 3192,
      "reson": 3193,
      "izer": 3194,
      "domain": 3195,
      "bb": 3196,
      "samp": 3197,
      "sets": 3198,
      "standard": 3199,
      "transferred": 3200,
      "indicating": 3201,
      "middle": 3202,
      "turning": 3203,
      "slu": 3204,
      "protocol": 3205,
      "greater": 3206,
      "upon": 3207,
      "sched": 3208,
      "shell": 3209,
      "bound": 3210,
      "ities": 3211,
      "assembling": 3212,
      "derived": 3213,
      "blood": 3214,
      "drop": 3215,
      "160": 3216,
      "ket": 3217,
      "atoms": 3218,
      "broadcasting": 3219,
      "ju": 3220,
      "personal": 3221,
      "matching": 3222,
      "count": 3223,
      "mos": 3224,
      "downward": 3225,
      "promo": 3226,
      "slid": 3227,
      "filling": 3228,
      "magn": 3229,
      "dec": 3230,
      "managing": 3231,
      "ances": 3232,
      "defect": 3233,
      "omic": 3234,
      "threshold": 3235,
      "shut": 3236,
      "ished": 3237,
      "numerals": 3238,
      "optim": 3239,
      "polyester": 3240,
      "namic": 3241,
      "ultrason": 3242,
      "glo": 3243,
      "111": 3244,
      "ret": 3245,
      "docu": 3246,
      "rib": 3247,
      "clutch": 3248,
      "remaining": 3249,
      "adsor": 3250,
      "phosphor": 3251,
      "gel": 3252,
      "nm": 3253,
      "manufacture": 3254,
      "dra": 3255,
      "smooth": 3256,
      "hel": 3257,
      "shock": 3258,
      "because": 3259,
      "conveyor": 3260,
      "effects": 3261,
      "ller": 3262,
      "ff": 3263,
      "uck": 3264,
      "halo": 3265,
      "urethane": 3266,
      "tip": 3267,
      "text": 3268,
      "51": 3269,
      "aer": 3270,
      "channels": 3271,
      "ultrasonic": 3272,
      "rup": 3273,
      "learning": 3274,
      "treated": 3275,
      "jud": 3276,
      "wound": 3277,
      "male": 3278,
      "pas": 3279,
      "gon": 3280,
      "dge": 3281,
      "placing": 3282,
      "ory": 3283,
      "recess": 3284,
      "easy": 3285,
      "patient": 3286,
      "previ": 3287,
      "conditioner": 3288,
      "leakage": 3289,
      "separat": 3290,
      "ansion": 3291,
      "individual": 3292,
      "exhibit": 3293,
      "transaction": 3294,
      "expansion": 3295,
      "radial": 3296,
      "molded": 3297,
      "ub": 3298,
      "reliability": 3299,
      "inspection": 3300,
      "lip": 3301,
      "prior": 3302,
      "curved": 3303,
      "spect": 3304,
      "stain": 3305,
      "convenience": 3306,
      "protect": 3307,
      "humid": 3308,
      "230": 3309,
      "plating": 3310,
      "ker": 3311,
      "interference": 3312,
      "spraying": 3313,
      "minimize": 3314,
      "contamin": 3315,
      "separator": 3316,
      "45": 3317,
      "dent": 3318,
      "slot": 3319,
      "rench": 3320,
      "near": 3321,
      "ail": 3322,
      "return": 3323,
      "rotate": 3324,
      "connects": 3325,
      "titan": 3326,
      "timing": 3327,
      "soluble": 3328,
      "stable": 3329,
      "upward": 3330,
      "partially": 3331,
      "book": 3332,
      "candid": 3333,
      "regular": 3334,
      "secure": 3335,
      "aryl": 3336,
      "jig": 3337,
      "feature": 3338,
      "allows": 3339,
      "complete": 3340,
      "retain": 3341,
      "tally": 3342,
      "01": 3343,
      "attaching": 3344,
      "laminated": 3345,
      "hybrid": 3346,
      "curing": 3347,
      "precursor": 3348,
      "confirm": 3349,
      "grip": 3350,
      "abl": 3351,
      "sn": 3352,
      "dynamic": 3353,
      "impl": 3354,
      "introduced": 3355,
      "stopper": 3356,
      "delivery": 3357,
      "sue": 3358,
      "accumul": 3359,
      "alignment": 3360,
      "electromagnetic": 3361,
      "lue": 3362,
      "mesh": 3363,
      "prevented": 3364,
      "admin": 3365,
      "compared": 3366,
      "cill": 3367,
      "sequentially": 3368,
      "costs": 3369,
      "transmitter": 3370,
      "shiel": 3371,
      "assign": 3372,
      "ushing": 3373,
      "pick": 3374,
      "stric": 3375,
      "alarm": 3376,
      "susp": 3377,
      "amide": 3378,
      "pm": 3379,
      "sludge": 3380,
      "stator": 3381,
      "olefin": 3382,
      "sensors": 3383,
      "prevents": 3384,
      "spo": 3385,
      "cons": 3386,
      "wide": 3387,
      "bodies": 3388,
      "slide": 3389,
      "mut": 3390,
      "lifting": 3391,
      "epoxy": 3392,
      "tempor": 3393,
      "basic": 3394,
      "boxyl": 3395,
      "igh": 3396,
      "oscill": 3397,
      "downlink": 3398,
      "anim": 3399,
      "27": 3400,
      "dur": 3401,
      "arrangement": 3402,
      "needle": 3403,
      "dried": 3404,
      "reci": 3405,
      "arti": 3406,
      "pread": 3407,
      "circulation": 3408,
      "metric": 3409,
      "absorption": 3410,
      "acy": 3411,
      "accurately": 3412,
      "310": 3413,
      "emer": 3414,
      "enhance": 3415,
      "photoresist": 3416,
      "bridge": 3417,
      "determination": 3418,
      "many": 3419,
      "extension": 3420,
      "contacting": 3421,
      "har": 3422,
      "loaded": 3423,
      "def": 3424,
      "molten": 3425,
      "dioxide": 3426,
      "customer": 3427,
      "adjustment": 3428,
      "refrigerator": 3429,
      "herein": 3430,
      "subscriber": 3431,
      "embed": 3432,
      "bric": 3433,
      "floating": 3434,
      "stra": 3435,
      "hydrox": 3436,
      "filler": 3437,
      "hydroxy": 3438,
      "reflection": 3439,
      "acro": 3440,
      "fall": 3441,
      "lat": 3442,
      "izes": 3443,
      "logic": 3444,
      "bul": 3445,
      "presence": 3446,
      "transition": 3447,
      "ler": 3448,
      "tight": 3449,
      "advant": 3450,
      "cyclo": 3451,
      "reverse": 3452,
      "substance": 3453,
      "hook": 3454,
      "cti": 3455,
      "sty": 3456,
      "appe": 3457,
      "item": 3458,
      "satur": 3459,
      "vation": 3460,
      "rand": 3461,
      "ath": 3462,
      "inputting": 3463,
      "techno": 3464,
      "ered": 3465,
      "instruction": 3466,
      "reading": 3467,
      "refr": 3468,
      "spread": 3469,
      "areas": 3470,
      "lcd": 3471,
      "collected": 3472,
      "correct": 3473,
      "pressur": 3474,
      "profile": 3475,
      "packing": 3476,
      "foot": 3477,
      "assembled": 3478,
      "exposure": 3479,
      "medical": 3480,
      "fish": 3481,
      "ison": 3482,
      "establ": 3483,
      "pipes": 3484,
      "series": 3485,
      "ions": 3486,
      "idge": 3487,
      "acet": 3488,
      "cooking": 3489,
      "shielding": 3490,
      "insert": 3491,
      "functions": 3492,
      "preset": 3493,
      "record": 3494,
      "converted": 3495,
      "fibers": 3496,
      "deter": 3497,
      "spacer": 3498,
      "tail": 3499,
      "ley": 3500,
      "parking": 3501,
      "wood": 3502,
      "intake": 3503,
      "arily": 3504,
      "acceptable": 3505,
      "fat": 3506,
      "pcb": 3507,
      "uth": 3508,
      "cho": 3509,
      "fri": 3510,
      "thermoplastic": 3511,
      "ports": 3512,
      "zes": 3513,
      "eye": 3514,
      "lateral": 3515,
      "stress": 3516,
      "fitting": 3517,
      "checking": 3518,
      "earth": 3519,
      "durability": 3520,
      "year": 3521,
      "periphery": 3522,
      "44": 3523,
      "random": 3524,
      "gal": 3525,
      "surround": 3526,
      "carbonate": 3527,
      "adhesion": 3528,
      "stably": 3529,
      "r1": 3530,
      "trench": 3531,
      "interior": 3532,
      "were": 3533,
      "blue": 3534,
      "walls": 3535,
      "activated": 3536,
      "immun": 3537,
      "drawing": 3538,
      "paste": 3539,
      "noti": 3540,
      "changes": 3541,
      "peptide": 3542,
      "emergency": 3543,
      "jet": 3544,
      "duces": 3545,
      "infl": 3546,
      "rotates": 3547,
      "contr": 3548,
      "hours": 3549,
      "bonded": 3550,
      "communicating": 3551,
      "status": 3552,
      "acrylate": 3553,
      "facility": 3554,
      "titanium": 3555,
      "molecu": 3556,
      "fai": 3557,
      "recor": 3558,
      "document": 3559,
      "fy": 3560,
      "greg": 3561,
      "master": 3562,
      "stir": 3563,
      "uv": 3564,
      "melting": 3565,
      "situ": 3566,
      "avail": 3567,
      "conductivity": 3568,
      "speaker": 3569,
      "atory": 3570,
      "productivity": 3571,
      "offer": 3572,
      "feedback": 3573,
      "pivo": 3574,
      "collection": 3575,
      "ral": 3576,
      "engaged": 3577,
      "derivative": 3578,
      "intensity": 3579,
      "disclosure": 3580,
      "turbine": 3581,
      "refle": 3582,
      "structures": 3583,
      "cm": 3584,
      "ification": 3585,
      "multiplex": 3586,
      "artificial": 3587,
      "pieces": 3588,
      "impurities": 3589,
      "chi": 3590,
      "cyan": 3591,
      "photograp": 3592,
      "modules": 3593,
      "silica": 3594,
      "rs": 3595,
      "103": 3596,
      "adjusted": 3597,
      "failu": 3598,
      "pun": 3599,
      "socket": 3600,
      "directions": 3601,
      "ginal": 3602,
      "balance": 3603,
      "odor": 3604,
      "smaller": 3605,
      "tro": 3606,
      "sulf": 3607,
      "animal": 3608,
      "acquiring": 3609,
      "cation": 3610,
      "atures": 3611,
      "execu": 3612,
      "restric": 3613,
      "acrylic": 3614,
      "modulation": 3615,
      "percent": 3616,
      "cab": 3617,
      "communications": 3618,
      "technology": 3619,
      "achieve": 3620,
      "vio": 3621,
      "whose": 3622,
      "solder": 3623,
      "ether": 3624,
      "volati": 3625,
      "suc": 3626,
      "diffusion": 3627,
      "pend": 3628,
      "rect": 3629,
      "ned": 3630,
      "sever": 3631,
      "sett": 3632,
      "purch": 3633,
      "tures": 3634,
      "amm": 3635,
      "intervals": 3636,
      "aggreg": 3637,
      "protecting": 3638,
      "disp": 3639,
      "simil": 3640,
      "objects": 3641,
      "cyclic": 3642,
      "grain": 3643,
      "starting": 3644,
      "phenyl": 3645,
      "quickly": 3646,
      "econ": 3647,
      "pole": 3648,
      "get": 3649,
      "dye": 3650,
      "sense": 3651,
      "dividing": 3652,
      "constitut": 3653,
      "sinter": 3654,
      "polymerization": 3655,
      "original": 3656,
      "metall": 3657,
      "pressed": 3658,
      "slab": 3659,
      "xt": 3660,
      "ventil": 3661,
      "cartr": 3662,
      "fluo": 3663,
      "wet": 3664,
      "tissue": 3665,
      "inverter": 3666,
      "similar": 3667,
      "relatively": 3668,
      "106": 3669,
      "follow": 3670,
      "sun": 3671,
      "dissol": 3672,
      "imaging": 3673,
      "protruded": 3674,
      "encry": 3675,
      "scanning": 3676,
      "anchor": 3677,
      "problems": 3678,
      "emission": 3679,
      "additive": 3680,
      "suf": 3681,
      "string": 3682,
      "ceed": 3683,
      "ques": 3684,
      "flows": 3685,
      "sleeve": 3686,
      "candidate": 3687,
      "stacked": 3688,
      "az": 3689,
      "electricity": 3690,
      "matter": 3691,
      "folding": 3692,
      "failure": 3693,
      "calculation": 3694,
      "sod": 3695,
      "rti": 3696,
      "gain": 3697,
      "conduct": 3698,
      "hydrocarbon": 3699,
      "removal": 3700,
      "oney": 3701,
      "latch": 3702,
      "conca": 3703,
      "operate": 3704,
      "flame": 3705,
      "potential": 3706,
      "spher": 3707,
      "enance": 3708,
      "etc": 3709,
      "sulfur": 3710,
      "bone": 3711,
      "maintenance": 3712,
      "38": 3713,
      "next": 3714,
      "peop": 3715,
      "violet": 3716,
      "photographing": 3717,
      "cessive": 3718,
      "vit": 3719,
      "synchronization": 3720,
      "icular": 3721,
      "shield": 3722,
      "halogen": 3723,
      "format": 3724,
      "saturated": 3725,
      "identifier": 3726,
      "propylene": 3727,
      "ptor": 3728,
      "people": 3729,
      "culture": 3730,
      "converts": 3731,
      "software": 3732,
      "parameters": 3733,
      "cas": 3734,
      "crystall": 3735,
      "pharmaceutically": 3736,
      "repair": 3737,
      "ination": 3738,
      "spl": 3739,
      "casting": 3740,
      "oxidation": 3741,
      "turing": 3742,
      "abnormal": 3743,
      "final": 3744,
      "resources": 3745,
      "pping": 3746,
      "suffici": 3747,
      "bank": 3748,
      "conveying": 3749,
      "execution": 3750,
      "microorgan": 3751,
      "technique": 3752,
      "pub": 3753,
      "vor": 3754,
      "bran": 3755,
      "volatile": 3756,
      "cn": 3757,
      "ided": 3758,
      "exer": 3759,
      "sand": 3760,
      "ining": 3761,
      "collector": 3762,
      "inhibitor": 3763,
      "horizontally": 3764,
      "outputted": 3765,
      "illumination": 3766,
      "reflective": 3767,
      "carrying": 3768,
      "bel": 3769,
      "emul": 3770,
      "atmo": 3771,
      "substrates": 3772,
      "positions": 3773,
      "agon": 3774,
      "perpend": 3775,
      "perpendicular": 3776,
      "orient": 3777,
      "metallic": 3778,
      "gent": 3779,
      "coefficient": 3780,
      "virus": 3781,
      "600": 3782,
      "aa": 3783,
      "gation": 3784,
      "sent": 3785,
      "lift": 3786,
      "dest": 3787,
      "accommodating": 3788,
      "simplif": 3789,
      "comparison": 3790,
      "embedded": 3791,
      "woven": 3792,
      "pen": 3793,
      "late": 3794,
      "bond": 3795,
      "fluores": 3796,
      "inflow": 3797,
      "sac": 3798,
      "fraction": 3799,
      "public": 3800,
      "folded": 3801,
      "makes": 3802,
      "fermented": 3803,
      "reinforce": 3804,
      "break": 3805,
      "oli": 3806,
      "2o": 3807,
      "comes": 3808,
      "detachably": 3809,
      "platform": 3810,
      "cartridge": 3811,
      "white": 3812,
      "valent": 3813,
      "aph": 3814,
      "golf": 3815,
      "ei": 3816,
      "phosph": 3817,
      "partial": 3818,
      "conveniently": 3819,
      "gins": 3820,
      "mg": 3821,
      "show": 3822,
      "now": 3823,
      "perme": 3824,
      "deformation": 3825,
      "bright": 3826,
      "anger": 3827,
      "carried": 3828,
      "branch": 3829,
      "ament": 3830,
      "pal": 3831,
      "turned": 3832,
      "cement": 3833,
      "half": 3834,
      "ultraviolet": 3835,
      "corner": 3836,
      "tunnel": 3837,
      "boil": 3838,
      "stic": 3839,
      "pill": 3840,
      "rack": 3841,
      "tak": 3842,
      "selects": 3843,
      "engaging": 3844,
      "pigment": 3845,
      "lubric": 3846,
      "compensation": 3847,
      "advantage": 3848,
      "carboxyl": 3849,
      "emitted": 3850,
      "linked": 3851,
      "operator": 3852,
      "charged": 3853,
      "workpiece": 3854,
      "identifying": 3855,
      "cleaner": 3856,
      "friend": 3857,
      "s2": 3858,
      "scale": 3859,
      "quantity": 3860,
      "mally": 3861,
      "recovery": 3862,
      "arance": 3863,
      "wires": 3864,
      "minimizing": 3865,
      "coal": 3866,
      "rain": 3867,
      "reach": 3868,
      "whole": 3869,
      "deposited": 3870,
      "hex": 3871,
      "pulver": 3872,
      "cei": 3873,
      "r2": 3874,
      "ras": 3875,
      "regard": 3876,
      "planar": 3877,
      "larger": 3878,
      "fid": 3879,
      "recipro": 3880,
      "iii": 3881,
      "write": 3882,
      "cium": 3883,
      "crack": 3884,
      "tap": 3885,
      "iner": 3886,
      "yi": 3887,
      "utes": 3888,
      "squ": 3889,
      "perman": 3890,
      "decoder": 3891,
      "dm": 3892,
      "122": 3893,
      "bars": 3894,
      "fitted": 3895,
      "passes": 3896,
      "photograph": 3897,
      "uniformly": 3898,
      "multimedia": 3899,
      "damag": 3900,
      "war": 3901,
      "offset": 3902,
      "tribut": 3903,
      "company": 3904,
      "outdoor": 3905,
      "registration": 3906,
      "polyethylene": 3907,
      "resh": 3908,
      "dispersion": 3909,
      "gg": 3910,
      "disorder": 3911,
      "121": 3912,
      "indicator": 3913,
      "linking": 3914,
      "positioning": 3915,
      "sodium": 3916,
      "degrad": 3917,
      "320": 3918,
      "old": 3919,
      "grin": 3920,
      "encoded": 3921,
      "try": 3922,
      "zinc": 3923,
      "crystalline": 3924,
      "cush": 3925,
      "gger": 3926,
      "reflected": 3927,
      "pit": 3928,
      "injected": 3929,
      "available": 3930,
      "clamping": 3931,
      "either": 3932,
      "ences": 3933,
      "waterproof": 3934,
      "rope": 3935,
      "enzy": 3936,
      "corro": 3937,
      "bath": 3938,
      "sole": 3939,
      "105": 3940,
      "sensed": 3941,
      "induction": 3942,
      "reduces": 3943,
      "vision": 3944,
      "porting": 3945,
      "resistant": 3946,
      "spin": 3947,
      "proced": 3948,
      "hose": 3949,
      "calcium": 3950,
      "consists": 3951,
      "apeu": 3952,
      "rotatable": 3953,
      "adapted": 3954,
      "cushion": 3955,
      "sphere": 3956,
      "recorded": 3957,
      "maintained": 3958,
      "tv": 3959,
      "tracking": 3960,
      "ager": 3961,
      "bean": 3962,
      "extraction": 3963,
      "semi": 3964,
      "concave": 3965,
      "rapidly": 3966,
      "types": 3967,
      "diagnosis": 3968,
      "residual": 3969,
      "wl": 3970,
      "tox": 3971,
      "division": 3972,
      "arrow": 3973,
      "ginseng": 3974,
      "ung": 3975,
      "occurs": 3976,
      "come": 3977,
      "found": 3978,
      "mming": 3979,
      "improves": 3980,
      "extracts": 3981,
      "sider": 3982,
      "therapeu": 3983,
      "pd": 3984,
      "slur": 3985,
      "lique": 3986,
      "rectangular": 3987,
      "name": 3988,
      "enoid": 3989,
      "neigh": 3990,
      "atives": 3991,
      "dispens": 3992,
      "62": 3993,
      "mand": 3994,
      "protrusions": 3995,
      "testing": 3996,
      "last": 3997,
      "atively": 3998,
      "route": 3999,
      "55": 4000,
      "ato": 4001,
      "arching": 4002,
      "grinding": 4003,
      "boundary": 4004,
      "170": 4005,
      "schedul": 4006,
      "flux": 4007,
      "instru": 4008,
      "menu": 4009,
      "implant": 4010,
      "packaging": 4011,
      "consider": 4012,
      "cla": 4013,
      "incident": 4014,
      "resolution": 4015,
      "hub": 4016,
      "searching": 4017,
      "rollers": 4018,
      "43": 4019,
      "receptor": 4020,
      "cali": 4021,
      "infe": 4022,
      "coming": 4023,
      "slurry": 4024,
      "alg": 4025,
      "arc": 4026,
      "resistor": 4027,
      "compart": 4028,
      "nodes": 4029,
      "ogen": 4030,
      "interposed": 4031,
      "inflamm": 4032,
      "yield": 4033,
      "tw": 4034,
      "transcei": 4035,
      "stud": 4036,
      "several": 4037,
      "condenser": 4038,
      "rene": 4039,
      "tin": 4040,
      "executing": 4041,
      "mail": 4042,
      "operations": 4043,
      "sio": 4044,
      "minimum": 4045,
      "lumines": 4046,
      "114": 4047,
      "cros": 4048,
      "250": 4049,
      "straight": 4050,
      "etch": 4051,
      "silver": 4052,
      "tile": 4053,
      "ks": 4054,
      "ones": 4055,
      "melt": 4056,
      "magnes": 4057,
      "ammon": 4058,
      "kinds": 4059,
      "angu": 4060,
      "registered": 4061,
      "neighbor": 4062,
      "spir": 4063,
      "stone": 4064,
      "distributed": 4065,
      "had": 4066,
      "nick": 4067,
      "attachment": 4068,
      "pillar": 4069,
      "reacting": 4070,
      "sealed": 4071,
      "running": 4072,
      "sco": 4073,
      "chuck": 4074,
      "serial": 4075,
      "iness": 4076,
      "grid": 4077,
      "unique": 4078,
      "reflecting": 4079,
      "chloride": 4080,
      "brightness": 4081,
      "bead": 4082,
      "lac": 4083,
      "dd": 4084,
      "abras": 4085,
      "interest": 4086,
      "langu": 4087,
      "reciproc": 4088,
      "thal": 4089,
      "far": 4090,
      "soy": 4091,
      "calculates": 4092,
      "interlayer": 4093,
      "thm": 4094,
      "tubes": 4095,
      "solenoid": 4096,
      "extru": 4097,
      "lose": 4098,
      "computing": 4099,
      "sensi": 4100,
      "bits": 4101,
      "benz": 4102,
      "ethyl": 4103,
      "polyurethane": 4104,
      "alkoxy": 4105,
      "algori": 4106,
      "pedal": 4107,
      "enhanced": 4108,
      "separately": 4109,
      "antibody": 4110,
      "piezo": 4111,
      "economic": 4112,
      "adhered": 4113,
      "structural": 4114,
      "alpha": 4115,
      "damper": 4116,
      "rfid": 4117,
      "displacement": 4118,
      "preci": 4119,
      "bs": 4120,
      "elong": 4121,
      "session": 4122,
      "surfact": 4123,
      "nickel": 4124,
      "differential": 4125,
      "bump": 4126,
      "take": 4127,
      "sate": 4128,
      "ific": 4129,
      "ier": 4130,
      "discloses": 4131,
      "ines": 4132,
      "kee": 4133,
      "results": 4134,
      "don": 4135,
      "cloth": 4136,
      "recognizing": 4137,
      "simply": 4138,
      "ann": 4139,
      "correcting": 4140,
      "boo": 4141,
      "agents": 4142,
      "hydr": 4143,
      "covers": 4144,
      "05": 4145,
      "interrup": 4146,
      "currence": 4147,
      "braking": 4148,
      "chair": 4149,
      "180": 4150,
      "mapping": 4151,
      "wash": 4152,
      "backward": 4153,
      "54": 4154,
      "thereon": 4155,
      "header": 4156,
      "avo": 4157,
      "repeated": 4158,
      "chrom": 4159,
      "suspension": 4160,
      "nation": 4161,
      "oh": 4162,
      "recyc": 4163,
      "suck": 4164,
      "ases": 4165,
      "coordinate": 4166,
      "eling": 4167,
      "cially": 4168,
      "ety": 4169,
      "rig": 4170,
      "precise": 4171,
      "van": 4172,
      "ters": 4173,
      "appropri": 4174,
      "automobile": 4175,
      "att": 4176,
      "depending": 4177,
      "strong": 4178,
      "gran": 4179,
      "traveling": 4180,
      "wise": 4181,
      "held": 4182,
      "arranging": 4183,
      "mill": 4184,
      "visual": 4185,
      "auth": 4186,
      "friendly": 4187,
      "alkali": 4188,
      "account": 4189,
      "tingu": 4190,
      "situation": 4191,
      "blower": 4192,
      "develop": 4193,
      "harm": 4194,
      "amb": 4195,
      "waves": 4196,
      "photosensitive": 4197,
      "films": 4198,
      "isolation": 4199,
      "magnesium": 4200,
      "mu": 4201,
      "transformer": 4202,
      "sink": 4203,
      "panels": 4204,
      "completely": 4205,
      "rays": 4206,
      "manager": 4207,
      "permanent": 4208,
      "stimul": 4209,
      "narrow": 4210,
      "operates": 4211,
      "achie": 4212,
      "peak": 4213,
      "convex": 4214,
      "evaporator": 4215,
      "reinforcement": 4216,
      "gri": 4217,
      "constituting": 4218,
      "cultiv": 4219,
      "240": 4220,
      "services": 4221,
      "passeng": 4222,
      "applications": 4223,
      "bing": 4224,
      "slope": 4225,
      "serving": 4226,
      "activation": 4227,
      "correspond": 4228,
      "sum": 4229,
      "actual": 4230,
      "penetrating": 4231,
      "retard": 4232,
      "derivatives": 4233,
      "language": 4234,
      "signific": 4235,
      "geo": 4236,
      "sections": 4237,
      "junction": 4238,
      "fluorescent": 4239,
      "coolant": 4240,
      "wastewater": 4241,
      "ionic": 4242,
      "six": 4243,
      "increases": 4244,
      "elevator": 4245,
      "s1": 4246,
      "roof": 4247,
      "ken": 4248,
      "voir": 4249,
      "reservoir": 4250,
      "defining": 4251,
      "comprised": 4252,
      "db": 4253,
      "inhibiting": 4254,
      "additionally": 4255,
      "centric": 4256,
      "occurrence": 4257,
      "enhancing": 4258,
      "wea": 4259,
      "projected": 4260,
      "stirring": 4261,
      "destination": 4262,
      "introducing": 4263,
      "stro": 4264,
      "finishing": 4265,
      "corrosion": 4266,
      "acle": 4267,
      "beams": 4268,
      "styrene": 4269,
      "ec": 4270,
      "46": 4271,
      "therapeutic": 4272,
      "until": 4273,
      "reactive": 4274,
      "minutes": 4275,
      "neut": 4276,
      "collision": 4277,
      "instrument": 4278,
      "fruit": 4279,
      "depositing": 4280,
      "locked": 4281,
      "s20": 4282,
      "shif": 4283,
      "fluoro": 4284,
      "integer": 4285,
      "writing": 4286,
      "sources": 4287,
      "joined": 4288,
      "focus": 4289,
      "given": 4290,
      "measures": 4291,
      "printer": 4292,
      "bac": 4293,
      "cru": 4294,
      "silicone": 4295,
      "paint": 4296,
      "ild": 4297,
      "gest": 4298,
      "thi": 4299,
      "directed": 4300,
      "accident": 4301,
      "designed": 4302,
      "recti": 4303,
      "signaling": 4304,
      "algorithm": 4305,
      "radical": 4306,
      "rais": 4307,
      "curable": 4308,
      "evaluation": 4309,
      "significant": 4310,
      "variation": 4311,
      "trigger": 4312,
      "compartment": 4313,
      "contacts": 4314,
      "synthesi": 4315,
      "meat": 4316,
      "ben": 4317,
      "therefor": 4318,
      "korean": 4319,
      "29": 4320,
      "match": 4321,
      "joining": 4322,
      "shoe": 4323,
      "lox": 4324,
      "primer": 4325,
      "fly": 4326,
      "usage": 4327,
      "wrap": 4328,
      "acceleration": 4329,
      "viscos": 4330,
      "shorten": 4331,
      "facilitate": 4332,
      "viscosity": 4333,
      "spat": 4334,
      "circuits": 4335,
      "1a": 4336,
      "pitch": 4337,
      "rolled": 4338,
      "accuracy": 4339,
      "cutter": 4340,
      "fth": 4341,
      "navi": 4342,
      "exterior": 4343,
      "pads": 4344,
      "fingerprint": 4345,
      "heav": 4346,
      "circulating": 4347,
      "heavy": 4348,
      "foil": 4349,
      "substances": 4350,
      "glu": 4351,
      "surfactant": 4352,
      "adi": 4353,
      "releasing": 4354,
      "rigid": 4355,
      "s3": 4356,
      "stock": 4357,
      "insulator": 4358,
      "care": 4359,
      "goods": 4360,
      "omen": 4361,
      "annular": 4362,
      "glycol": 4363,
      "transfers": 4364,
      "procedure": 4365,
      "ple": 4366,
      "ventilation": 4367,
      "poll": 4368,
      "burner": 4369,
      "gam": 4370,
      "deck": 4371,
      "expect": 4372,
      "sheets": 4373,
      "satell": 4374,
      "phenomen": 4375,
      "amor": 4376,
      "pulley": 4377,
      "flash": 4378,
      "san": 4379,
      "ancy": 4380,
      "salts": 4381,
      "108": 4382,
      "fusion": 4383,
      "retaining": 4384,
      "sten": 4385,
      "presi": 4386,
      "extend": 4387,
      "sile": 4388,
      "built": 4389,
      "unsaturated": 4390,
      "edges": 4391,
      "fold": 4392,
      "stri": 4393,
      "vehicles": 4394,
      "transistors": 4395,
      "precipit": 4396,
      "identified": 4397,
      "clip": 4398,
      "coup": 4399,
      "states": 4400,
      "stere": 4401,
      "influ": 4402,
      "itude": 4403,
      "bacteria": 4404,
      "blowing": 4405,
      "specification": 4406,
      "scatter": 4407,
      "inducing": 4408,
      "dna": 4409,
      "spatial": 4410,
      "piezoelectric": 4411,
      "child": 4412,
      "espe": 4413,
      "previously": 4414,
      "cit": 4415,
      "imped": 4416,
      "extends": 4417,
      "especially": 4418,
      "edi": 4419,
      "exclu": 4420,
      "regardless": 4421,
      "purified": 4422,
      "202": 4423,
      "tubular": 4424,
      "laminate": 4425,
      "training": 4426,
      "encoder": 4427,
      "amorpho": 4428,
      "advance": 4429,
      "gover": 4430,
      "fermentation": 4431,
      "exercise": 4432,
      "regulating": 4433,
      "gps": 4434,
      "constructed": 4435,
      "isocyan": 4436,
      "split": 4437,
      "gram": 4438,
      "amorphous": 4439,
      "sufficient": 4440,
      "lowering": 4441,
      "task": 4442,
      "pilot": 4443,
      "executed": 4444,
      "53": 4445,
      "saving": 4446,
      "environmental": 4447,
      "wheels": 4448,
      "pins": 4449,
      "cellulose": 4450,
      "neck": 4451,
      "deterior": 4452,
      "provider": 4453,
      "61": 4454,
      "my": 4455,
      "items": 4456,
      "fabricating": 4457,
      "ense": 4458,
      "tured": 4459,
      "branched": 4460,
      "entr": 4461,
      "appearance": 4462,
      "graphene": 4463,
      "issu": 4464,
      "onic": 4465,
      "decor": 4466,
      "contacted": 4467,
      "say": 4468,
      "online": 4469,
      "stopping": 4470,
      "48": 4471,
      "gm": 4472,
      "imide": 4473,
      "blades": 4474,
      "37": 4475,
      "inputs": 4476,
      "specified": 4477,
      "fed": 4478,
      "exposing": 4479,
      "fee": 4480,
      "compressing": 4481,
      "aling": 4482,
      "sugar": 4483,
      "korea": 4484,
      "induced": 4485,
      "microwave": 4486,
      "graphy": 4487,
      "pris": 4488,
      "sche": 4489,
      "rum": 4490,
      "ceiling": 4491,
      "mas": 4492,
      "blast": 4493,
      "fifth": 4494,
      "business": 4495,
      "95": 4496,
      "lla": 4497,
      "gateway": 4498,
      "beverage": 4499,
      "reflector": 4500,
      "ino": 4501,
      "absorbent": 4502,
      "pet": 4503,
      "constructing": 4504,
      "smoothly": 4505,
      "nas": 4506,
      "player": 4507,
      "square": 4508,
      "fc": 4509,
      "ns": 4510,
      "ee": 4511,
      "aw": 4512,
      "fixture": 4513,
      "kg": 4514,
      "ites": 4515,
      "posing": 4516,
      "estimating": 4517,
      "2a": 4518,
      "histor": 4519,
      "neutral": 4520,
      "stead": 4521,
      "rial": 4522,
      "cept": 4523,
      "satellite": 4524,
      "highly": 4525,
      "navigation": 4526,
      "phenomenon": 4527,
      "gonal": 4528,
      "ingredients": 4529,
      "irradiating": 4530,
      "ban": 4531,
      "indust": 4532,
      "switches": 4533,
      "purifying": 4534,
      "atmosphere": 4535,
      "outward": 4536,
      "synthesis": 4537,
      "refer": 4538,
      "cellular": 4539,
      "pyr": 4540,
      "kit": 4541,
      "phil": 4542,
      "spind": 4543,
      "sip": 4544,
      "impedance": 4545,
      "degre": 4546,
      "silox": 4547,
      "cooled": 4548,
      "damaged": 4549,
      "kim": 4550,
      "pile": 4551,
      "chips": 4552,
      "thereto": 4553,
      "capsu": 4554,
      "firm": 4555,
      "anese": 4556,
      "exceed": 4557,
      "risk": 4558,
      "elastically": 4559,
      "ensure": 4560,
      "lli": 4561,
      "reinforced": 4562,
      "crimin": 4563,
      "nanoparticles": 4564,
      "tice": 4565,
      "requests": 4566,
      "finan": 4567,
      "author": 4568,
      "ule": 4569,
      "shel": 4570,
      "shared": 4571,
      "vary": 4572,
      "till": 4573,
      "putting": 4574,
      "molecule": 4575,
      "acous": 4576,
      "iter": 4577,
      "devi": 4578,
      "every": 4579,
      "entrance": 4580,
      "sampling": 4581,
      "layered": 4582,
      "taste": 4583,
      "packets": 4584,
      "cp": 4585,
      "bacterial": 4586,
      "designated": 4587,
      "party": 4588,
      "ators": 4589,
      "bid": 4590,
      "doped": 4591,
      "2d": 4592,
      "slag": 4593,
      "dispersed": 4594,
      "passed": 4595,
      "ipul": 4596,
      "isms": 4597,
      "sidewall": 4598,
      "stret": 4599,
      "would": 4600,
      "manipul": 4601,
      "capsul": 4602,
      "background": 4603,
      "requested": 4604,
      "pull": 4605,
      "price": 4606,
      "nucleo": 4607,
      "allocated": 4608,
      "yel": 4609,
      "65": 4610,
      "cac": 4611,
      "password": 4612,
      "financial": 4613,
      "kin": 4614,
      "tensile": 4615,
      "hopper": 4616,
      "known": 4617,
      "teeth": 4618,
      "transverse": 4619,
      "slip": 4620,
      "boiler": 4621,
      "prob": 4622,
      "phenol": 4623,
      "acquired": 4624,
      "fastened": 4625,
      "harmful": 4626,
      "fuse": 4627,
      "limited": 4628,
      "enzyme": 4629,
      "toxic": 4630,
      "ull": 4631,
      "supporter": 4632,
      "prog": 4633,
      "valid": 4634,
      "swing": 4635,
      "radiating": 4636,
      "completed": 4637,
      "vas": 4638,
      "capacit": 4639,
      "bandwidth": 4640,
      "75": 4641,
      "causing": 4642,
      "cabine": 4643,
      "pv": 4644,
      "bicy": 4645,
      "solve": 4646,
      "nutri": 4647,
      "spindle": 4648,
      "tree": 4649,
      "bias": 4650,
      "selective": 4651,
      "symbols": 4652,
      "ech": 4653,
      "suppressing": 4654,
      "ibility": 4655,
      "requesting": 4656,
      "amplif": 4657,
      "applic": 4658,
      "special": 4659,
      "oph": 4660,
      "s4": 4661,
      "wee": 4662,
      "away": 4663,
      "enyl": 4664,
      "becomes": 4665,
      "pedest": 4666,
      "medicine": 4667,
      "siloxane": 4668,
      "eject": 4669,
      "disorders": 4670,
      "secre": 4671,
      "generally": 4672,
      "covered": 4673,
      "cour": 4674,
      "money": 4675,
      "attribut": 4676,
      "elasticity": 4677,
      "113": 4678,
      "recombin": 4679,
      "tar": 4680,
      "applies": 4681,
      "humidity": 4682,
      "cabinet": 4683,
      "spiral": 4684,
      "tes": 4685,
      "proxim": 4686,
      "national": 4687,
      "priority": 4688,
      "0001": 4689,
      "consumer": 4690,
      "phy": 4691,
      "calibr": 4692,
      "enter": 4693,
      "machining": 4694,
      "safely": 4695,
      "silane": 4696,
      "anne": 4697,
      "development": 4698,
      "ito": 4699,
      "len": 4700,
      "microorganism": 4701,
      "crank": 4702,
      "oven": 4703,
      "invol": 4704,
      "201": 4705,
      "music": 4706,
      "perfor": 4707,
      "capacitance": 4708,
      "recombinant": 4709,
      "homo": 4710,
      "resonance": 4711,
      "slider": 4712,
      "backlight": 4713,
      "previous": 4714,
      "foc": 4715,
      "sending": 4716,
      "cpu": 4717,
      "acoustic": 4718,
      "sect": 4719,
      "r3": 4720,
      "reader": 4721,
      "securing": 4722,
      "lan": 4723,
      "expected": 4724,
      "ram": 4725,
      "ensive": 4726,
      "fragment": 4727,
      "penetration": 4728,
      "etary": 4729,
      "axially": 4730,
      "keeping": 4731,
      "senses": 4732,
      "speech": 4733,
      "spectrum": 4734,
      "allocation": 4735,
      "scr": 4736,
      "refractive": 4737,
      "expanded": 4738,
      "degrees": 4739,
      "conditioning": 4740,
      "filtration": 4741,
      "sterilizing": 4742,
      "ignition": 4743,
      "appropriate": 4744,
      "uted": 4745,
      "plants": 4746,
      "nucleic": 4747,
      "features": 4748,
      "cluster": 4749,
      "encapsul": 4750,
      "compati": 4751,
      "toi": 4752,
      "pel": 4753,
      "cook": 4754,
      "report": 4755,
      "tea": 4756,
      "remark": 4757,
      "permit": 4758,
      "vity": 4759,
      "opti": 4760,
      "slit": 4761,
      "drawn": 4762,
      "toilet": 4763,
      "discrimin": 4764,
      "full": 4765,
      "simplify": 4766,
      "reset": 4767,
      "subsequ": 4768,
      "ow": 4769,
      "engagement": 4770,
      "hood": 4771,
      "elas": 4772,
      "cured": 4773,
      "assigned": 4774,
      "term": 4775,
      "messages": 4776,
      "warning": 4777,
      "commer": 4778,
      "veloc": 4779,
      "velocity": 4780,
      "emulsion": 4781,
      "corresponds": 4782,
      "oligo": 4783,
      "700": 4784,
      "detail": 4785,
      "oy": 4786,
      "indication": 4787,
      "fatty": 4788,
      "bush": 4789,
      "history": 4790,
      "elastomer": 4791,
      "leaf": 4792,
      "ortho": 4793,
      "colo": 4794,
      "levels": 4795,
      "isocyanate": 4796,
      "numbers": 4797,
      "demand": 4798,
      "estimated": 4799,
      "purification": 4800,
      "across": 4801,
      "ata": 4802,
      "update": 4803,
      "vege": 4804,
      "assist": 4805,
      "spot": 4806,
      "vegetable": 4807,
      "mmy": 4808,
      "sla": 4809,
      "diaph": 4810,
      "successive": 4811,
      "sym": 4812,
      "great": 4813,
      "detachable": 4814,
      "implemented": 4815,
      "diaphra": 4816,
      "transceiver": 4817,
      "moreover": 4818,
      "sting": 4819,
      "hydroxyl": 4820,
      "react": 4821,
      "fet": 4822,
      "guides": 4823,
      "sensitivity": 4824,
      "eliminating": 4825,
      "rim": 4826,
      "eu": 4827,
      "distor": 4828,
      "aligned": 4829,
      "polarizing": 4830,
      "developing": 4831,
      "idal": 4832,
      "intelli": 4833,
      "conducting": 4834,
      "hyper": 4835,
      "govern": 4836,
      "sette": 4837,
      "usb": 4838,
      "sharing": 4839,
      "philic": 4840,
      "tour": 4841,
      "articles": 4842,
      "impurity": 4843,
      "openings": 4844,
      "intra": 4845,
      "taking": 4846,
      "accommodated": 4847,
      "resulting": 4848,
      "infection": 4849,
      "released": 4850,
      "bage": 4851,
      "prope": 4852,
      "crush": 4853,
      "liner": 4854,
      "aggregate": 4855,
      "rough": 4856,
      "concer": 4857,
      "acids": 4858,
      "cassette": 4859,
      "phosphate": 4860,
      "neighboring": 4861,
      "injector": 4862,
      "56": 4863,
      "whereby": 4864,
      "s30": 4865,
      "iv": 4866,
      "season": 4867,
      "improvement": 4868,
      "coat": 4869,
      "inflammatory": 4870,
      "crushing": 4871,
      "izable": 4872,
      "mixer": 4873,
      "tides": 4874,
      "uty": 4875,
      "dummy": 4876,
      "subframe": 4877,
      "microb": 4878,
      "gun": 4879,
      "rin": 4880,
      "rods": 4881,
      "purchase": 4882,
      "obje": 4883,
      "fault": 4884,
      "isolated": 4885,
      "gir": 4886,
      "tant": 4887,
      "projecting": 4888,
      "acon": 4889,
      "marker": 4890,
      "dispos": 4891,
      "stainless": 4892,
      "filters": 4893,
      "words": 4894,
      "television": 4895,
      "abs": 4896,
      "welded": 4897,
      "stations": 4898,
      "recognized": 4899,
      "liquefied": 4900,
      "radially": 4901,
      "bottle": 4902,
      "you": 4903,
      "purity": 4904,
      "cs": 4905,
      "optimal": 4906,
      "carb": 4907,
      "rh": 4908,
      "pne": 4909,
      "accurate": 4910,
      "taken": 4911,
      "recomm": 4912,
      "cof": 4913,
      "reproducing": 4914,
      "passenger": 4915,
      "ids": 4916,
      "repeating": 4917,
      "keep": 4918,
      "ducer": 4919,
      "nan": 4920,
      "hanging": 4921,
      "certi": 4922,
      "ient": 4923,
      "hanger": 4924,
      "techn": 4925,
      "require": 4926,
      "cloud": 4927,
      "files": 4928,
      "confirming": 4929,
      "rink": 4930,
      "luminescent": 4931,
      "atten": 4932,
      "defects": 4933,
      "independent": 4934,
      "administer": 4935,
      "umb": 4936,
      "initiator": 4937,
      "bri": 4938,
      "aperture": 4939,
      "clear": 4940,
      "techniques": 4941,
      "simulation": 4942,
      "pollution": 4943,
      "bypass": 4944,
      "catalytic": 4945,
      "compensating": 4946,
      "etched": 4947,
      "marine": 4948,
      "impe": 4949,
      "ond": 4950,
      "female": 4951,
      "industrial": 4952,
      "critical": 4953,
      "notification": 4954,
      "mean": 4955,
      "beta": 4956,
      "microphone": 4957,
      "created": 4958,
      "freely": 4959,
      "antigen": 4960,
      "patterned": 4961,
      "apy": 4962,
      "damping": 4963,
      "carboxylic": 4964,
      "sic": 4965,
      "ml": 4966,
      "polysilicon": 4967,
      "sustain": 4968,
      "washer": 4969,
      "coupler": 4970,
      "government": 4971,
      "diaphragm": 4972,
      "64": 4973,
      "oral": 4974,
      "visible": 4975,
      "reality": 4976,
      "410": 4977,
      "centri": 4978,
      "occup": 4979,
      "vate": 4980,
      "cache": 4981,
      "buried": 4982,
      "communicate": 4983,
      "fresh": 4984,
      "hardware": 4985,
      "macro": 4986,
      "polymeric": 4987,
      "official": 4988,
      "waveguide": 4989,
      "president": 4990,
      "impre": 4991,
      "entity": 4992,
      "electrostatic": 4993,
      "impregn": 4994,
      "bly": 4995,
      "distill": 4996,
      "esday": 4997,
      "pocket": 4998,
      "see": 4999,
      "ported": 5000,
      "instead": 5001,
      "timer": 5002,
      "matched": 5003,
      "nh": 5004,
      "those": 5005,
      "ferro": 5006,
      "bob": 5007,
      "ways": 5008,
      "irradiation": 5009,
      "immer": 5010,
      "centrifu": 5011,
      "called": 5012,
      "99": 5013,
      "reproduction": 5014,
      "biological": 5015,
      "scheduling": 5016,
      "amplifying": 5017,
      "adsorption": 5018,
      "cence": 5019,
      "pumping": 5020,
      "decrease": 5021,
      "iot": 5022,
      "idle": 5023,
      "sew": 5024,
      "zero": 5025,
      "arbit": 5026,
      "thermally": 5027,
      "zole": 5028,
      "transporting": 5029,
      "class": 5030,
      "belong": 5031,
      "pneum": 5032,
      "saw": 5033,
      "rails": 5034,
      "s10": 5035,
      "app": 5036,
      "drainage": 5037,
      "absorber": 5038,
      "anges": 5039,
      "oscillator": 5040,
      "otro": 5041,
      "filtered": 5042,
      "estimation": 5043,
      "relationship": 5044,
      "manual": 5045,
      "encryp": 5046,
      "creating": 5047,
      "vd": 5048,
      "nuclear": 5049,
      "bicycle": 5050,
      "entry": 5051,
      "diagnosing": 5052,
      "mac": 5053,
      "query": 5054,
      "gue": 5055,
      "blank": 5056,
      "ostic": 5057,
      "falling": 5058,
      "cred": 5059,
      "retri": 5060,
      "particip": 5061,
      "wal": 5062,
      "defe": 5063,
      "aster": 5064,
      "contamination": 5065,
      "intr": 5066,
      "assis": 5067,
      "incor": 5068,
      "though": 5069,
      "microbial": 5070,
      "mineral": 5071,
      "spherical": 5072,
      "condu": 5073,
      "guard": 5074,
      "seating": 5075,
      "distributing": 5076,
      "scheme": 5077,
      "fluorine": 5078,
      "maximize": 5079,
      "3a": 5080,
      "itary": 5081,
      "ae": 5082,
      "fishing": 5083,
      "couple": 5084,
      "adder": 5085,
      "voltages": 5086,
      "131": 5087,
      "world": 5088,
      "paths": 5089,
      "regulator": 5090,
      "root": 5091,
      "132": 5092,
      "jor": 5093,
      "osco": 5094,
      "alkylene": 5095,
      "feeder": 5096,
      "72": 5097,
      "rock": 5098,
      "organo": 5099,
      "recovering": 5100,
      "adaptive": 5101,
      "emplo": 5102,
      "phatic": 5103,
      "approach": 5104,
      "330": 5105,
      "closure": 5106,
      "sintering": 5107,
      "technical": 5108,
      "beacon": 5109,
      "stroke": 5110,
      "itive": 5111,
      "spaces": 5112,
      "chambers": 5113,
      "luminance": 5114,
      "underground": 5115,
      "aliphatic": 5116,
      "impeller": 5117,
      "asy": 5118,
      "attack": 5119,
      "perior": 5120,
      "warm": 5121,
      "superior": 5122,
      "kill": 5123,
      "blow": 5124,
      "flower": 5125,
      "excav": 5126,
      "aking": 5127,
      "produces": 5128,
      "utilizing": 5129,
      "barrel": 5130,
      "capsule": 5131,
      "viewing": 5132,
      "bobbin": 5133,
      "polymers": 5134,
      "eccentric": 5135,
      "polypropylene": 5136,
      "closely": 5137,
      "reel": 5138,
      "north": 5139,
      "origin": 5140,
      "objective": 5141,
      "laund": 5142,
      "immedi": 5143,
      "evaporation": 5144,
      "photographed": 5145,
      "dish": 5146,
      "putter": 5147,
      "stick": 5148,
      "constituted": 5149,
      "deep": 5150,
      "correlation": 5151,
      "116": 5152,
      "ading": 5153,
      "directional": 5154,
      "recessed": 5155,
      "lig": 5156,
      "charger": 5157,
      "multilayer": 5158,
      "segments": 5159,
      "compact": 5160,
      "1000": 5161,
      "convert": 5162,
      "days": 5163,
      "diagnostic": 5164,
      "replacement": 5165,
      "tower": 5166,
      "illus": 5167,
      "tum": 5168,
      "shelf": 5169,
      "exhibits": 5170,
      "kimchi": 5171,
      "promoting": 5172,
      "115": 5173,
      "anol": 5174,
      "activating": 5175,
      "pp": 5176,
      "instant": 5177,
      "dehydr": 5178,
      "samples": 5179,
      "significantly": 5180,
      "sau": 5181,
      "trap": 5182,
      "foaming": 5183,
      "pushing": 5184,
      "exists": 5185,
      "arbitr": 5186,
      "reciprocating": 5187,
      "appli": 5188,
      "nail": 5189,
      "drill": 5190,
      "precisely": 5191,
      "rich": 5192,
      "predicting": 5193,
      "swe": 5194,
      "immune": 5195,
      "switched": 5196,
      "indicates": 5197,
      "hull": 5198,
      "guided": 5199,
      "alloc": 5200,
      "dissolved": 5201,
      "shafts": 5202,
      "olite": 5203,
      "polic": 5204,
      "pivot": 5205,
      "ares": 5206,
      "arding": 5207,
      "bill": 5208,
      "laundry": 5209,
      "pulling": 5210,
      "pickup": 5211,
      "bacillus": 5212,
      "pneumatic": 5213,
      "major": 5214,
      "fabricated": 5215,
      "temporary": 5216,
      "weather": 5217,
      "jack": 5218,
      "lets": 5219,
      "isition": 5220,
      "agit": 5221,
      "hardness": 5222,
      "coordinates": 5223,
      "flavor": 5224,
      "modulator": 5225,
      "ught": 5226,
      "colors": 5227,
      "rule": 5228,
      "lies": 5229,
      "bis": 5230,
      "ch2": 5231,
      "much": 5232,
      "modulated": 5233,
      "programm": 5234,
      "starch": 5235,
      "culturing": 5236,
      "administration": 5237,
      "planetary": 5238,
      "dissip": 5239,
      "kne": 5240,
      "polyamide": 5241,
      "thr": 5242,
      "impor": 5243,
      "acquisition": 5244,
      "shown": 5245,
      "deviation": 5246,
      "hydroxide": 5247,
      "pores": 5248,
      "deterioration": 5249,
      "tilt": 5250,
      "unsubstituted": 5251,
      "beha": 5252,
      "sacchar": 5253,
      "fun": 5254,
      "sewage": 5255,
      "mpl": 5256,
      "label": 5257,
      "radius": 5258,
      "distortion": 5259,
      "fields": 5260,
      "acetate": 5261,
      "transl": 5262,
      "ama": 5263,
      "rpm": 5264,
      "milk": 5265,
      "coffee": 5266,
      "follows": 5267,
      "thes": 5268,
      "nucleotide": 5269,
      "exist": 5270,
      "unger": 5271,
      "hydroly": 5272,
      "electrolytic": 5273,
      "buoy": 5274,
      "obser": 5275,
      "representing": 5276,
      "slave": 5277,
      "exit": 5278,
      "unnecessary": 5279,
      "fibro": 5280,
      "therapy": 5281,
      "jap": 5282,
      "curve": 5283,
      "except": 5284,
      "downstream": 5285,
      "patch": 5286,
      "arms": 5287,
      "hardening": 5288,
      "balan": 5289,
      "waveform": 5290,
      "month": 5291,
      "calculate": 5292,
      "seawater": 5293,
      "alternately": 5294,
      "incorpor": 5295,
      "legs": 5296,
      "strand": 5297,
      "124": 5298,
      "context": 5299,
      "decoded": 5300,
      "once": 5301,
      "codes": 5302,
      "polyolefin": 5303,
      "maintains": 5304,
      "a1": 5305,
      "ings": 5306,
      "brow": 5307,
      "resultant": 5308,
      "cate": 5309,
      "cooler": 5310,
      "overlapping": 5311,
      "supp": 5312,
      "render": 5313,
      "freezing": 5314,
      "annealing": 5315,
      "supplement": 5316,
      "blin": 5317,
      "nozzles": 5318,
      "iden": 5319,
      "knob": 5320,
      "laminating": 5321,
      "204": 5322,
      "radiator": 5323,
      "conduit": 5324,
      "bble": 5325,
      "growing": 5326,
      "tung": 5327,
      "mouse": 5328,
      "vers": 5329,
      "explo": 5330,
      "800": 5331,
      "identify": 5332,
      "ozone": 5333,
      "valves": 5334,
      "expose": 5335,
      "texture": 5336,
      "boiling": 5337,
      "spreading": 5338,
      "anion": 5339,
      "glut": 5340,
      "encryption": 5341,
      "tumor": 5342,
      "police": 5343,
      "remarkably": 5344,
      "retardant": 5345,
      "ina": 5346,
      "ires": 5347,
      "avoid": 5348,
      "cine": 5349,
      "yellow": 5350,
      "characters": 5351,
      "drives": 5352,
      "compares": 5353,
      "individually": 5354,
      "10a": 5355,
      "suppress": 5356,
      "phthal": 5357,
      "schedule": 5358,
      "manif": 5359,
      "mpa": 5360,
      "still": 5361,
      "replacing": 5362,
      "lane": 5363,
      "inclination": 5364,
      "settlement": 5365,
      "microcomputer": 5366,
      "global": 5367,
      "symmetr": 5368,
      "crystalli": 5369,
      "interaction": 5370,
      "gears": 5371,
      "85": 5372,
      "tetra": 5373,
      "adapter": 5374,
      "aero": 5375,
      "behavi": 5376,
      "plunger": 5377,
      "therebetween": 5378,
      "pressurizing": 5379,
      "irection": 5380,
      "c2": 5381,
      "graphite": 5382,
      "repeatedly": 5383,
      "cin": 5384,
      "eric": 5385,
      "differenti": 5386,
      "rite": 5387,
      "sector": 5388,
      "cargo": 5389,
      "preser": 5390,
      "massage": 5391,
      "modif": 5392,
      "lium": 5393,
      "cnn": 5394,
      "gluco": 5395,
      "accommodation": 5396,
      "inward": 5397,
      "trip": 5398,
      "custom": 5399,
      "ctivity": 5400,
      "quan": 5401,
      "own": 5402,
      "preferred": 5403,
      "clothes": 5404,
      "gold": 5405,
      "patterning": 5406,
      "tungsten": 5407,
      "capturing": 5408,
      "solving": 5409,
      "inspecting": 5410,
      "taper": 5411,
      "sized": 5412,
      "tuent": 5413,
      "bluetooth": 5414,
      "keyboard": 5415,
      "retrie": 5416,
      "tone": 5417,
      "bund": 5418,
      "conj": 5419,
      "bubb": 5420,
      "polyol": 5421,
      "hydrophilic": 5422,
      "adhering": 5423,
      "quantum": 5424,
      "csi": 5425,
      "proteins": 5426,
      "overall": 5427,
      "dispersing": 5428,
      "zn": 5429,
      "thermoelectric": 5430,
      "fixes": 5431,
      "mortar": 5432,
      "tft": 5433,
      "strap": 5434,
      "sibility": 5435,
      "realize": 5436,
      "chro": 5437,
      "former": 5438,
      "loads": 5439,
      "oxidant": 5440,
      "aid": 5441,
      "predicted": 5442,
      "judging": 5443,
      "flag": 5444,
      "polycarbonate": 5445,
      "addres": 5446,
      "exempl": 5447,
      "exemplary": 5448,
      "irradiated": 5449,
      "ious": 5450,
      "ventive": 5451,
      "inductor": 5452,
      "bubble": 5453,
      "rug": 5454,
      "towards": 5455,
      "nb": 5456,
      "classification": 5457,
      "captured": 5458,
      "spinning": 5459,
      "dental": 5460,
      "rever": 5461,
      "sauce": 5462,
      "pepper": 5463,
      "checks": 5464,
      "oo": 5465,
      "ske": 5466,
      "claim": 5467,
      "tread": 5468,
      "tax": 5469,
      "roast": 5470,
      "diffic": 5471,
      "molecules": 5472,
      "credit": 5473,
      "c6": 5474,
      "yoke": 5475,
      "gravity": 5476,
      "transformed": 5477,
      "orthogonal": 5478,
      "residue": 5479,
      "overlapped": 5480,
      "resis": 5481,
      "worker": 5482,
      "confirmed": 5483,
      "counting": 5484,
      "obtains": 5485,
      "varying": 5486,
      "rna": 5487,
      "temporarily": 5488,
      "sintered": 5489,
      "achieved": 5490,
      "delivering": 5491,
      "212": 5492,
      "question": 5493,
      "clic": 5494,
      "furthermore": 5495,
      "agric": 5496,
      "comfor": 5497,
      "spro": 5498,
      "unity": 5499,
      "proportion": 5500,
      "fully": 5501,
      "filament": 5502,
      "motive": 5503,
      "exchanging": 5504,
      "entering": 5505,
      "sorting": 5506,
      "carriers": 5507,
      "transportation": 5508,
      "convenient": 5509,
      "cra": 5510,
      "gau": 5511,
      "south": 5512,
      "adjustable": 5513,
      "standby": 5514,
      "cies": 5515,
      "71": 5516,
      "give": 5517,
      "ified": 5518,
      "mang": 5519,
      "deodor": 5520,
      "ira": 5521,
      "help": 5522,
      "implementing": 5523,
      "blind": 5524,
      "polyvinyl": 5525,
      "hydri": 5526,
      "smartphone": 5527,
      "pore": 5528,
      "knit": 5529,
      "keyword": 5530,
      "ammonium": 5531,
      "bad": 5532,
      "metals": 5533,
      "curv": 5534,
      "decision": 5535,
      "r4": 5536,
      "alkal": 5537,
      "pop": 5538,
      "thanol": 5539,
      "verification": 5540,
      "guid": 5541,
      "magnets": 5542,
      "manifold": 5543,
      "behavior": 5544,
      "inve": 5545,
      "itself": 5546,
      "template": 5547,
      "screening": 5548,
      "leading": 5549,
      "recycling": 5550,
      "discharges": 5551,
      "keys": 5552,
      "coils": 5553,
      "polarization": 5554,
      "identical": 5555,
      "brain": 5556,
      "manganese": 5557,
      "crossing": 5558,
      "extrusion": 5559,
      "aligning": 5560,
      "scroll": 5561,
      "synchronous": 5562,
      "alt": 5563,
      "meters": 5564,
      "asph": 5565,
      "policy": 5566,
      "conjug": 5567,
      "chassis": 5568,
      "expanding": 5569,
      "zeolite": 5570,
      "fixedly": 5571,
      "stamp": 5572,
      "tives": 5573,
      "optimum": 5574,
      "sputter": 5575,
      "leaves": 5576,
      "distal": 5577,
      "aff": 5578,
      "delivered": 5579,
      "therefrom": 5580,
      "antibacterial": 5581,
      "garbage": 5582,
      "girder": 5583,
      "jaw": 5584,
      "pouch": 5585,
      "tilting": 5586,
      "ian": 5587,
      "wrink": 5588,
      "icon": 5589,
      "hydropho": 5590,
      "needed": 5591,
      "mouth": 5592,
      "standing": 5593,
      "glycer": 5594,
      "searched": 5595,
      "lowered": 5596,
      "antennas": 5597,
      "flight": 5598,
      "ppm": 5599,
      "pulverizing": 5600,
      "litho": 5601,
      "early": 5602,
      "oriented": 5603,
      "ng": 5604,
      "recognize": 5605,
      "expressed": 5606,
      "m2": 5607,
      "intended": 5608,
      "stabilizer": 5609,
      "irectional": 5610,
      "clay": 5611,
      "ki": 5612,
      "insect": 5613,
      "immuno": 5614,
      "polyimide": 5615,
      "occurring": 5616,
      "anted": 5617,
      "variety": 5618,
      "know": 5619,
      "soybean": 5620,
      "airbag": 5621,
      "polymerizable": 5622,
      "osis": 5623,
      "ulder": 5624,
      "formulation": 5625,
      "pression": 5626,
      "vities": 5627,
      "emitter": 5628,
      "abol": 5629,
      "advertising": 5630,
      "garlic": 5631,
      "marking": 5632,
      "stages": 5633,
      "fastener": 5634,
      "bes": 5635,
      "mell": 5636,
      "fermenting": 5637,
      "opens": 5638,
      "magneti": 5639,
      "stacking": 5640,
      "dead": 5641,
      "particul": 5642,
      "amplification": 5643,
      "ribs": 5644,
      "create": 5645,
      "eco": 5646,
      "replace": 5647,
      "dough": 5648,
      "egg": 5649,
      "immediately": 5650,
      "edu": 5651,
      "attenu": 5652,
      "defective": 5653,
      "001": 5654,
      "greatly": 5655,
      "dissolving": 5656,
      "iraq": 5657,
      "ethanol": 5658,
      "angles": 5659,
      "bore": 5660,
      "sectional": 5661,
      "rainwater": 5662,
      "volution": 5663,
      "manage": 5664,
      "projections": 5665,
      "4a": 5666,
      "pure": 5667,
      "successively": 5668,
      "minute": 5669,
      "excessive": 5670,
      "gasket": 5671,
      "dl": 5672,
      "shoulder": 5673,
      "actuating": 5674,
      "movably": 5675,
      "holo": 5676,
      "reservation": 5677,
      "gamma": 5678,
      "handling": 5679,
      "carbide": 5680,
      "mutually": 5681,
      "unk": 5682,
      "nonwoven": 5683,
      "slots": 5684,
      "s40": 5685,
      "writ": 5686,
      "scattering": 5687,
      "bands": 5688,
      "nanotube": 5689,
      "arri": 5690,
      "operational": 5691,
      "silicate": 5692,
      "followed": 5693,
      "wiper": 5694,
      "ready": 5695,
      "dele": 5696,
      "abrasion": 5697,
      "establish": 5698,
      "matic": 5699,
      "float": 5700,
      "hydride": 5701,
      "sizes": 5702,
      "capability": 5703,
      "minimized": 5704,
      "could": 5705,
      "living": 5706,
      "servo": 5707,
      "extingu": 5708,
      "accumulated": 5709,
      "posture": 5710,
      "secured": 5711,
      "approv": 5712,
      "shopping": 5713,
      "shows": 5714,
      "prec": 5715,
      "established": 5716,
      "lit": 5717,
      "hit": 5718,
      "11a": 5719,
      "ligand": 5720,
      "epit": 5721,
      "job": 5722,
      "adium": 5723,
      "curvature": 5724,
      "12a": 5725,
      "degradation": 5726,
      "58": 5727,
      "punch": 5728,
      "presses": 5729,
      "fam": 5730,
      "charcoal": 5731,
      "cyto": 5732,
      "seated": 5733,
      "workability": 5734,
      "ogenic": 5735,
      "lattice": 5736,
      "simpli": 5737,
      "shapes": 5738,
      "sequences": 5739,
      "attribute": 5740,
      "analyzed": 5741,
      "leds": 5742,
      "abor": 5743,
      "swi": 5744,
      "prac": 5745,
      "hydrophobic": 5746,
      "boards": 5747,
      "cycloalkyl": 5748,
      "mush": 5749,
      "corrected": 5750,
      "playing": 5751,
      "removes": 5752,
      "condensed": 5753,
      "propag": 5754,
      "calibration": 5755,
      "bubbles": 5756,
      "alkaline": 5757,
      "setup": 5758,
      "detergent": 5759,
      "antibodies": 5760,
      "sends": 5761,
      "shutter": 5762,
      "country": 5763,
      "39": 5764,
      "going": 5765,
      "pw": 5766,
      "s5": 5767,
      "bulk": 5768,
      "regeneration": 5769,
      "manages": 5770,
      "atomic": 5771,
      "worm": 5772,
      "opposed": 5773,
      "oline": 5774,
      "errors": 5775,
      "atm": 5776,
      "biom": 5777,
      "isotro": 5778,
      "updating": 5779,
      "score": 5780,
      "inity": 5781,
      "secu": 5782,
      "surg": 5783,
      "binary": 5784,
      "cake": 5785,
      "orientation": 5786,
      "itri": 5787,
      "ultural": 5788,
      "restoring": 5789,
      "107": 5790,
      "c4": 5791,
      "radar": 5792,
      "wed": 5793,
      "years": 5794,
      "reads": 5795,
      "02": 5796,
      "stiff": 5797,
      "collects": 5798,
      "sr": 5799,
      "alkenyl": 5800,
      "oxidizing": 5801,
      "comparator": 5802,
      "precision": 5803,
      "bind": 5804,
      "inj": 5805,
      "pent": 5806,
      "dispensing": 5807,
      "hosp": 5808,
      "week": 5809,
      "hap": 5810,
      "oscillation": 5811,
      "2o3": 5812,
      "requiring": 5813,
      "emits": 5814,
      "private": 5815,
      "electrochemical": 5816,
      "dot": 5817,
      "representative": 5818,
      "io": 5819,
      "peptides": 5820,
      "focusing": 5821,
      "handover": 5822,
      "uro": 5823,
      "modes": 5824,
      "whit": 5825,
      "interfer": 5826,
      "categ": 5827,
      "currently": 5828,
      "causes": 5829,
      "420": 5830,
      "routing": 5831,
      "accomp": 5832,
      "closes": 5833,
      "resto": 5834,
      "biometric": 5835,
      "wired": 5836,
      "ampl": 5837,
      "ono": 5838,
      "mine": 5839,
      "market": 5840,
      "eg": 5841,
      "links": 5842,
      "stopped": 5843,
      "boron": 5844,
      "united": 5845,
      "affect": 5846,
      "350": 5847,
      "weak": 5848,
      "abut": 5849,
      "flour": 5850,
      "transformation": 5851,
      "corrug": 5852,
      "lives": 5853,
      "complement": 5854,
      "solved": 5855,
      "coag": 5856,
      "stepped": 5857,
      "abrasive": 5858,
      "meet": 5859,
      "recept": 5860,
      "merch": 5861,
      "longer": 5862,
      "night": 5863,
      "sales": 5864,
      "pinion": 5865,
      "allevi": 5866,
      "p2": 5867,
      "instructions": 5868,
      "oxides": 5869,
      "calling": 5870,
      "desc": 5871,
      "finished": 5872,
      "coagul": 5873,
      "normally": 5874,
      "intelligent": 5875,
      "alumina": 5876,
      "oligomer": 5877,
      "restrain": 5878,
      "sprayed": 5879,
      "city": 5880,
      "park": 5881,
      "lyl": 5882,
      "lubricant": 5883,
      "multipl": 5884,
      "ammonia": 5885,
      "mini": 5886,
      "fail": 5887,
      "uniformity": 5888,
      "stationary": 5889,
      "crane": 5890,
      "reed": 5891,
      "association": 5892,
      "resonator": 5893,
      "agricultural": 5894,
      "va": 5895,
      "interlea": 5896,
      "juice": 5897,
      "induce": 5898,
      "pipeline": 5899,
      "relating": 5900,
      "returning": 5901,
      "smoke": 5902,
      "wast": 5903,
      "shrink": 5904,
      "expensive": 5905,
      "icated": 5906,
      "quin": 5907,
      "temperatures": 5908,
      "street": 5909,
      "office": 5910,
      "five": 5911,
      "encrypted": 5912,
      "indicated": 5913,
      "success": 5914,
      "particulate": 5915,
      "pir": 5916,
      "concentrated": 5917,
      "subsequent": 5918,
      "vascular": 5919,
      "coded": 5920,
      "cycl": 5921,
      "shoes": 5922,
      "urea": 5923,
      "remov": 5924,
      "gence": 5925,
      "condensation": 5926,
      "commercial": 5927,
      "sixth": 5928,
      "piping": 5929,
      "species": 5930,
      "inert": 5931,
      "rings": 5932,
      "colored": 5933,
      "mention": 5934,
      "sterilization": 5935,
      "lenses": 5936,
      "lifer": 5937,
      "surve": 5938,
      "cultivation": 5939,
      "shifting": 5940,
      "ferrite": 5941,
      "deformed": 5942,
      "125": 5943,
      "classifying": 5944,
      "copy": 5945,
      "ledge": 5946,
      "sulfon": 5947,
      "microorganisms": 5948,
      "elongated": 5949,
      "exceeds": 5950,
      "simplifying": 5951,
      "obst": 5952,
      "probability": 5953,
      "decreasing": 5954,
      "limiting": 5955,
      "charges": 5956,
      "streams": 5957,
      "firmly": 5958,
      "what": 5959,
      "examin": 5960,
      "secret": 5961,
      "pairs": 5962,
      "accessing": 5963,
      "education": 5964,
      "deflection": 5965,
      "211": 5966,
      "fro": 5967,
      "modem": 5968,
      "glasses": 5969,
      "additives": 5970,
      "retr": 5971,
      "checked": 5972,
      "dehy": 5973,
      "experi": 5974,
      "description": 5975,
      "passi": 5976,
      "encies": 5977,
      "multiplexing": 5978,
      "amplitude": 5979,
      "adjusts": 5980,
      "inverse": 5981,
      "prescri": 5982,
      "redund": 5983,
      "metad": 5984,
      "seq": 5985,
      "aic": 5986,
      "communicates": 5987,
      "dimethyl": 5988,
      "programming": 5989,
      "66": 5990,
      "zir": 5991,
      "inum": 5992,
      "detached": 5993,
      "inhal": 5994,
      "adiene": 5995,
      "just": 5996,
      "ars": 5997,
      "buck": 5998,
      "heart": 5999,
      "metadata": 6000,
      "exper": 6001,
      "scrap": 6002,
      "dispenser": 6003,
      "2b": 6004,
      "propeller": 6005,
      "centrifugal": 6006,
      "feeling": 6007,
      "gras": 6008,
      "networks": 6009,
      "approxim": 6010,
      "dryer": 6011,
      "distingu": 6012,
      "cage": 6013,
      "toner": 6014,
      "surgical": 6015,
      "ran": 6016,
      "equi": 6017,
      "mobility": 6018,
      "tere": 6019,
      "rolls": 6020,
      "past": 6021,
      "peeling": 6022,
      "hibi": 6023,
      "big": 6024,
      "contrast": 6025,
      "stereo": 6026,
      "1b": 6027,
      "ofdm": 6028,
      "upstream": 6029,
      "executes": 6030,
      "ie": 6031,
      "203": 6032,
      "subjected": 6033,
      "told": 6034,
      "acts": 6035,
      "gases": 6036,
      "reaches": 6037,
      "honey": 6038,
      "prolifer": 6039,
      "mixtures": 6040,
      "zircon": 6041,
      "social": 6042,
      "eliminate": 6043,
      "sacri": 6044,
      "mentioned": 6045,
      "pyro": 6046,
      "elevating": 6047,
      "send": 6048,
      "sta": 6049,
      "vul": 6050,
      "malfunction": 6051,
      "administering": 6052,
      "md": 6053,
      "antic": 6054,
      "modulating": 6055,
      "advan": 6056,
      "sulfate": 6057,
      "tock": 6058,
      "manhole": 6059,
      "capture": 6060,
      "amplified": 6061,
      "surrounds": 6062,
      "written": 6063,
      "cobal": 6064,
      "voltaic": 6065,
      "foundation": 6066,
      "vane": 6067,
      "locations": 6068,
      "asc": 6069,
      "peroxide": 6070,
      "transducer": 6071,
      "receptacle": 6072,
      "replaced": 6073,
      "fertili": 6074,
      "shower": 6075,
      "diam": 6076,
      "rt": 6077,
      "sites": 6078,
      "moment": 6079,
      "programs": 6080,
      "arbitrary": 6081,
      "asphalt": 6082,
      "pulverized": 6083,
      "lactic": 6084,
      "vitamin": 6085,
      "rist": 6086,
      "wearable": 6087,
      "conduction": 6088,
      "grade": 6089,
      "photovoltaic": 6090,
      "breaker": 6091,
      "cylinders": 6092,
      "lc": 6093,
      "spon": 6094,
      "confirmation": 6095,
      "chine": 6096,
      "corrugated": 6097,
      "grill": 6098,
      "worn": 6099,
      "coloring": 6100,
      "operable": 6101,
      "inspect": 6102,
      "als": 6103,
      "manned": 6104,
      "shot": 6105,
      "execute": 6106,
      "gradually": 6107,
      "chinese": 6108,
      "ade": 6109,
      "123": 6110,
      "hinged": 6111,
      "alternating": 6112,
      "carriage": 6113,
      "smell": 6114,
      "aldehy": 6115,
      "mia": 6116,
      "utilized": 6117,
      "appliance": 6118,
      "analyzes": 6119,
      "dip": 6120,
      "monomers": 6121,
      "takes": 6122,
      "vectors": 6123,
      "epitaxial": 6124,
      "polarity": 6125,
      "desk": 6126,
      "duty": 6127,
      "mapped": 6128,
      "gauge": 6129,
      "save": 6130,
      "tte": 6131,
      "amid": 6132,
      "periodically": 6133,
      "spool": 6134,
      "thrust": 6135,
      "kni": 6136,
      "cobalt": 6137,
      "s100": 6138,
      "torsion": 6139,
      "specimen": 6140,
      "condensing": 6141,
      "gripping": 6142,
      "fabrication": 6143,
      "disposable": 6144,
      "tab": 6145,
      "cible": 6146,
      "5g": 6147,
      "pwm": 6148,
      "63": 6149,
      "isted": 6150,
      "phosphorus": 6151,
      "geneous": 6152,
      "pressurized": 6153,
      "shad": 6154,
      "unmanned": 6155,
      "rows": 6156,
      "course": 6157,
      "propyl": 6158,
      "snow": 6159,
      "cosmetics": 6160,
      "containers": 6161,
      "seeds": 6162,
      "azine": 6163,
      "anes": 6164,
      "decomposition": 6165,
      "integration": 6166,
      "updated": 6167,
      "cf": 6168,
      "mushroom": 6169,
      "terephthal": 6170,
      "tee": 6171,
      "plated": 6172,
      "neuro": 6173,
      "pulses": 6174,
      "ringe": 6175,
      "facili": 6176,
      "synthesizing": 6177,
      "c3": 6178,
      "poin": 6179,
      "pier": 6180,
      "facilities": 6181,
      "mother": 6182,
      "gging": 6183,
      "oting": 6184,
      "beans": 6185,
      "wax": 6186,
      "playback": 6187,
      "children": 6188,
      "factors": 6189,
      "metabol": 6190,
      "ore": 6191,
      "tics": 6192,
      "scene": 6193,
      "turbo": 6194,
      "registering": 6195,
      "meta": 6196,
      "him": 6197,
      "columns": 6198,
      "accelerator": 6199,
      "define": 6200,
      "amble": 6201,
      "mous": 6202,
      "neural": 6203,
      "composing": 6204,
      "wirelessly": 6205,
      "erical": 6206,
      "oscopic": 6207,
      "veness": 6208,
      "carbonyl": 6209,
      "paging": 6210,
      "urally": 6211,
      "craft": 6212,
      "interlocking": 6213,
      "multic": 6214,
      "synchronizing": 6215,
      "uneven": 6216,
      "260": 6217,
      "bowl": 6218,
      "resili": 6219,
      "date": 6220,
      "expressing": 6221,
      "fide": 6222,
      "leu": 6223,
      "rising": 6224,
      "cig": 6225,
      "005": 6226,
      "permeable": 6227,
      "summ": 6228,
      "classified": 6229,
      "satisfies": 6230,
      "oro": 6231,
      "crosslinking": 6232,
      "completion": 6233,
      "realizing": 6234,
      "fiers": 6235,
      "sleep": 6236,
      "dyeing": 6237,
      "sputtering": 6238,
      "bolts": 6239,
      "streaming": 6240,
      "whitening": 6241,
      "lng": 6242,
      "dil": 6243,
      "agonal": 6244,
      "inf": 6245,
      "promote": 6246,
      "textile": 6247,
      "tent": 6248,
      "signature": 6249,
      "ify": 6250,
      "editing": 6251,
      "chat": 6252,
      "tery": 6253,
      "deceler": 6254,
      "isomer": 6255,
      "nanof": 6256,
      "diamond": 6257,
      "evaluating": 6258,
      "03": 6259,
      "yes": 6260,
      "quantization": 6261,
      "refresh": 6262,
      "communicated": 6263,
      "modeling": 6264,
      "permeability": 6265,
      "genes": 6266,
      "antimicrobial": 6267,
      "wedge": 6268,
      "forth": 6269,
      "ballast": 6270,
      "sewing": 6271,
      "aldehyde": 6272,
      "watch": 6273,
      "purifier": 6274,
      "perforated": 6275,
      "ised": 6276,
      "sts": 6277,
      "grating": 6278,
      "ai": 6279,
      "grains": 6280,
      "fund": 6281,
      "raised": 6282,
      "μm": 6283,
      "recycled": 6284,
      "influence": 6285,
      "selector": 6286,
      "underwater": 6287,
      "hibition": 6288,
      "vibrating": 6289,
      "pallet": 6290,
      "structured": 6291,
      "shar": 6292,
      "excluding": 6293,
      "modifying": 6294,
      "buy": 6295,
      "configuring": 6296,
      "206": 6297,
      "important": 6298,
      "balls": 6299,
      "punching": 6300,
      "aut": 6301,
      "restricting": 6302,
      "passivation": 6303,
      "version": 6304,
      "should": 6305,
      "facilitating": 6306,
      "340": 6307,
      "302": 6308,
      "protected": 6309,
      "platinum": 6310,
      "affin": 6311,
      "loxy": 6312,
      "danger": 6313,
      "exhibiting": 6314,
      "sweet": 6315,
      "atin": 6316,
      "linearly": 6317,
      "pb": 6318,
      "regarding": 6319,
      "waist": 6320,
      "employ": 6321,
      "5a": 6322,
      "cameras": 6323,
      "exact": 6324,
      "diodes": 6325,
      "aso": 6326,
      "noun": 6327,
      "pse": 6328,
      "generative": 6329,
      "butadiene": 6330,
      "sucking": 6331,
      "certific": 6332,
      "proposed": 6333,
      "spheric": 6334,
      "p1": 6335,
      "integrating": 6336,
      "race": 6337,
      "establishing": 6338,
      "deci": 6339,
      "obes": 6340,
      "escap": 6341,
      "electroluminescent": 6342,
      "modification": 6343,
      "47": 6344,
      "gray": 6345,
      "concentrate": 6346,
      "browser": 6347,
      "showing": 6348,
      "bumper": 6349,
      "l1": 6350,
      "lights": 6351,
      "integral": 6352,
      "fati": 6353,
      "router": 6354,
      "slidably": 6355,
      "interpol": 6356,
      "look": 6357,
      "assemblies": 6358,
      "registers": 6359,
      "anisotro": 6360,
      "brown": 6361,
      "alone": 6362,
      "azole": 6363,
      "nr": 6364,
      "anhydride": 6365,
      "trunk": 6366,
      "82": 6367,
      "nood": 6368,
      "graft": 6369,
      "records": 6370,
      "obesity": 6371,
      "fused": 6372,
      "foldable": 6373,
      "knife": 6374,
      "layout": 6375,
      "ifier": 6376,
      "rates": 6377,
      "raising": 6378,
      "pedestri": 6379,
      "curtain": 6380,
      "progres": 6381,
      "tible": 6382,
      "excit": 6383,
      "agen": 6384,
      "versal": 6385,
      "b1": 6386,
      "peel": 6387,
      "weed": 6388,
      "fatigue": 6389,
      "manipulation": 6390,
      "duration": 6391,
      "howe": 6392,
      "washed": 6393,
      "concerns": 6394,
      "provision": 6395,
      "preamble": 6396,
      "conjugated": 6397,
      "parity": 6398,
      "thermosetting": 6399,
      "walking": 6400,
      "however": 6401,
      "360": 6402,
      "aerosol": 6403,
      "antioxidant": 6404,
      "cases": 6405,
      "envelo": 6406,
      "degradable": 6407,
      "lish": 6408,
      "nyl": 6409,
      "cot": 6410,
      "river": 6411,
      "ecu": 6412,
      "lining": 6413,
      "pushed": 6414,
      "law": 6415,
      "flexibility": 6416,
      "d2d": 6417,
      "ins": 6418,
      "118": 6419,
      "scanner": 6420,
      "empty": 6421,
      "forces": 6422,
      "idents": 6423,
      "drilling": 6424,
      "recognizes": 6425,
      "contaminated": 6426,
      "waiting": 6427,
      "seven": 6428,
      "settling": 6429,
      "peer": 6430,
      "wearing": 6431,
      "rg": 6432,
      "polypeptide": 6433,
      "lamps": 6434,
      "proximity": 6435,
      "oled": 6436,
      "interconnection": 6437,
      "cream": 6438,
      "ons": 6439,
      "rella": 6440,
      "logically": 6441,
      "prelimin": 6442,
      "pyrid": 6443,
      "mt": 6444,
      "cleans": 6445,
      "ticket": 6446,
      "crushed": 6447,
      "nfc": 6448,
      "bundle": 6449,
      "luminous": 6450,
      "guidance": 6451,
      "employing": 6452,
      "german": 6453,
      "142": 6454,
      "customized": 6455,
      "livestock": 6456,
      "drink": 6457,
      "polarizer": 6458,
      "utilization": 6459,
      "drugs": 6460,
      "indi": 6461,
      "military": 6462,
      "190": 6463,
      "estimate": 6464,
      "developer": 6465,
      "broken": 6466,
      "hang": 6467,
      "frequencies": 6468,
      "stu": 6469,
      "multicast": 6470,
      "servers": 6471,
      "repeti": 6472,
      "eting": 6473,
      "ined": 6474,
      "wearer": 6475,
      "dependent": 6476,
      "americ": 6477,
      "news": 6478,
      "pn": 6479,
      "cone": 6480,
      "saccharide": 6481,
      "compatible": 6482,
      "buffering": 6483,
      "roughness": 6484,
      "aerob": 6485,
      "apparatuses": 6486,
      "resins": 6487,
      "deposit": 6488,
      "chlorine": 6489,
      "multiplexer": 6490,
      "insulated": 6491,
      "pil": 6492,
      "embos": 6493,
      "terms": 6494,
      "shear": 6495,
      "wrapping": 6496,
      "passive": 6497,
      "cere": 6498,
      "toxicity": 6499,
      "inqu": 6500,
      "loess": 6501,
      "301": 6502,
      "tablet": 6503,
      "sentence": 6504,
      "cture": 6505,
      "inhibitors": 6506,
      "asound": 6507,
      "prism": 6508,
      "translation": 6509,
      "straw": 6510,
      "repairing": 6511,
      "sacrificial": 6512,
      "ultrasound": 6513,
      "chick": 6514,
      "diesel": 6515,
      "nam": 6516,
      "traction": 6517,
      "dose": 6518,
      "solute": 6519,
      "readable": 6520,
      "lubricating": 6521,
      "lacto": 6522,
      "cigare": 6523,
      "blocked": 6524,
      "ark": 6525,
      "hour": 6526,
      "20a": 6527,
      "princ": 6528,
      "glove": 6529,
      "stabilizing": 6530,
      "abnormality": 6531,
      "brought": 6532,
      "axle": 6533,
      "role": 6534,
      "modular": 6535,
      "a2": 6536,
      "how": 6537,
      "betes": 6538,
      "atmospheric": 6539,
      "absorbed": 6540,
      "diabetes": 6541,
      "distributor": 6542,
      "berry": 6543,
      "sheath": 6544,
      "yeast": 6545,
      "lact": 6546,
      "family": 6547,
      "hab": 6548,
      "accidents": 6549,
      "glucose": 6550,
      "alternatively": 6551,
      "inated": 6552,
      "chemically": 6553,
      "alga": 6554,
      "guar": 6555,
      "74": 6556,
      "lim": 6557,
      "live": 6558,
      "identity": 6559,
      "assium": 6560,
      "vides": 6561,
      "frictional": 6562,
      "flip": 6563,
      "potassium": 6564,
      "nd": 6565,
      "divides": 6566,
      "510": 6567,
      "acknow": 6568,
      "dedicated": 6569,
      "approval": 6570,
      "pat": 6571,
      "t1": 6572,
      "transmittance": 6573,
      "breakage": 6574,
      "s110": 6575,
      "reported": 6576,
      "asi": 6577,
      "throt": 6578,
      "kept": 6579,
      "environmentally": 6580,
      "announ": 6581,
      "tively": 6582,
      "aching": 6583,
      "tility": 6584,
      "rare": 6585,
      "tio": 6586,
      "patients": 6587,
      "progress": 6588,
      "iety": 6589,
      "bamb": 6590,
      "cash": 6591,
      "microprocessor": 6592,
      "crude": 6593,
      "officials": 6594,
      "shadow": 6595,
      "enhancement": 6596,
      "scope": 6597,
      "weld": 6598,
      "lifted": 6599,
      "transparency": 6600,
      "heterocyclic": 6601,
      "economical": 6602,
      "aerobic": 6603,
      "lipid": 6604,
      "certificate": 6605,
      "gs": 6606,
      "rc": 6607,
      "satisfied": 6608,
      "cryp": 6609,
      "tools": 6610,
      "moly": 6611,
      "brackets": 6612,
      "fertilizer": 6613,
      "ender": 6614,
      "boom": 6615,
      "spacing": 6616,
      "inally": 6617,
      "discover": 6618,
      "epi": 6619,
      "iber": 6620,
      "refractor": 6621,
      "sb": 6622,
      "always": 6623,
      "incoming": 6624,
      "lost": 6625,
      "enclosure": 6626,
      "commands": 6627,
      "proceed": 6628,
      "sages": 6629,
      "viral": 6630,
      "little": 6631,
      "farm": 6632,
      "stay": 6633,
      "pointer": 6634,
      "engage": 6635,
      "flap": 6636,
      "bucket": 6637,
      "acidic": 6638,
      "zen": 6639,
      "periodic": 6640,
      "hind": 6641,
      "wich": 6642,
      "augment": 6643,
      "accumulation": 6644,
      "difficult": 6645,
      "attemp": 6646,
      "longitudinally": 6647,
      "emulsi": 6648,
      "toler": 6649,
      "hydrate": 6650,
      "retainer": 6651,
      "gesture": 6652,
      "reporting": 6653,
      "stereoscopic": 6654,
      "coeffici": 6655,
      "bene": 6656,
      "coefficients": 6657,
      "pool": 6658,
      "become": 6659,
      "facial": 6660,
      "corn": 6661,
      "invest": 6662,
      "inst": 6663,
      "turns": 6664,
      "nanoparticle": 6665,
      "prefabricated": 6666,
      "s50": 6667,
      "unloading": 6668,
      "laun": 6669,
      "addresses": 6670,
      "obstacle": 6671,
      "ury": 6672,
      "reacted": 6673,
      "leads": 6674,
      "torch": 6675,
      "rigidity": 6676,
      "says": 6677,
      "receipt": 6678,
      "equivalent": 6679,
      "bil": 6680,
      "sandwich": 6681,
      "coupon": 6682,
      "deciding": 6683,
      "depart": 6684,
      "soundproof": 6685,
      "muscle": 6686,
      "asym": 6687,
      "udo": 6688,
      "141": 6689,
      "optimized": 6690,
      "polarized": 6691,
      "princip": 6692,
      "eti": 6693,
      "naph": 6694,
      "tress": 6695,
      "decorative": 6696,
      "penetrated": 6697,
      "lightweight": 6698,
      "tation": 6699,
      "confirms": 6700,
      "trac": 6701,
      "syringe": 6702,
      "mc": 6703,
      "pine": 6704,
      "silicide": 6705,
      "searches": 6706,
      "fork": 6707,
      "truck": 6708,
      "thio": 6709,
      "bamboo": 6710,
      "keypad": 6711,
      "implantation": 6712,
      "monday": 6713,
      "merchant": 6714,
      "ention": 6715,
      "nonvolatile": 6716,
      "find": 6717,
      "cher": 6718,
      "maximizing": 6719,
      "seller": 6720,
      "animals": 6721,
      "tapered": 6722,
      "outflow": 6723,
      "boss": 6724,
      "slic": 6725,
      "doping": 6726,
      "quart": 6727,
      "promoter": 6728,
      "lithography": 6729,
      "wafers": 6730,
      "airtight": 6731,
      "criter": 6732,
      "occurred": 6733,
      "creates": 6734,
      "lifetime": 6735,
      "allocating": 6736,
      "itrile": 6737,
      "aments": 6738,
      "opposing": 6739,
      "foods": 6740,
      "butyl": 6741,
      "ui": 6742,
      "separates": 6743,
      "metry": 6744,
      "magnitude": 6745,
      "ome": 6746,
      "tie": 6747,
      "interactive": 6748,
      "capacitive": 6749,
      "sufficiently": 6750,
      "quartz": 6751,
      "fluoride": 6752,
      "consecu": 6753,
      "firing": 6754,
      "umbrella": 6755,
      "gestion": 6756,
      "rise": 6757,
      "algae": 6758,
      "3b": 6759,
      "cyclone": 6760,
      "introduction": 6761,
      "started": 6762,
      "rid": 6763,
      "sine": 6764,
      "cathe": 6765,
      "satisfy": 6766,
      "considering": 6767,
      "allowed": 6768,
      "nanofiber": 6769,
      "pseudo": 6770,
      "aim": 6771,
      "projector": 6772,
      "lying": 6773,
      "bell": 6774,
      "simplified": 6775,
      "dopant": 6776,
      "contaminants": 6777,
      "dipping": 6778,
      "emotion": 6779,
      "tuning": 6780,
      "url": 6781,
      "railway": 6782,
      "orif": 6783,
      "arboxyl": 6784,
      "share": 6785,
      "gase": 6786,
      "multifunctional": 6787,
      "note": 6788,
      "obama": 6789,
      "passages": 6790,
      "ht": 6791,
      "900": 6792,
      "batteries": 6793,
      "tuesday": 6794,
      "walk": 6795,
      "suscep": 6796,
      "orifice": 6797,
      "consist": 6798,
      "aspects": 6799,
      "sunlight": 6800,
      "pulled": 6801,
      "analyzer": 6802,
      "leather": 6803,
      "minister": 6804,
      "s120": 6805,
      "absolute": 6806,
      "wheat": 6807,
      "hd": 6808,
      "ranging": 6809,
      "dup": 6810,
      "chicken": 6811,
      "antagon": 6812,
      "million": 6813,
      "methane": 6814,
      "imid": 6815,
      "crucible": 6816,
      "cigarette": 6817,
      "luminescence": 6818,
      "shaping": 6819,
      "biodegradable": 6820,
      "inhibits": 6821,
      "pedestal": 6822,
      "suspended": 6823,
      "painting": 6824,
      "functionality": 6825,
      "surrounded": 6826,
      "substitut": 6827,
      "isolating": 6828,
      "reports": 6829,
      "defines": 6830,
      "impregnated": 6831,
      "clad": 6832,
      "gates": 6833,
      "recommend": 6834,
      "enabled": 6835,
      "extruding": 6836,
      "dial": 6837,
      "cleaned": 6838,
      "slow": 6839,
      "protrude": 6840,
      "irregular": 6841,
      "methacrylate": 6842,
      "vine": 6843,
      "lee": 6844,
      "soap": 6845,
      "basket": 6846,
      "fixation": 6847,
      "breast": 6848,
      "evacu": 6849,
      "sch": 6850,
      "finish": 6851,
      "circuitry": 6852,
      "archite": 6853,
      "comfort": 6854,
      "gradient": 6855,
      "consideration": 6856,
      "sucked": 6857,
      "oste": 6858,
      "universal": 6859,
      "pcr": 6860,
      "hash": 6861,
      "defro": 6862,
      "illary": 6863,
      "latching": 6864,
      "repl": 6865,
      "works": 6866,
      "donor": 6867,
      "molds": 6868,
      "places": 6869,
      "s6": 6870,
      "realized": 6871,
      "advantageous": 6872,
      "relief": 6873,
      "gaseous": 6874,
      "propan": 6875,
      "extre": 6876,
      "applicable": 6877,
      "sation": 6878,
      "enters": 6879,
      "drawer": 6880,
      "126": 6881,
      "monitors": 6882,
      "aircraft": 6883,
      "melted": 6884,
      "throttle": 6885,
      "pollut": 6886,
      "r5": 6887,
      "repeater": 6888,
      "seasoning": 6889,
      "discovery": 6890,
      "iod": 6891,
      "foamed": 6892,
      "refractory": 6893,
      "presented": 6894,
      "mamm": 6895,
      "toothbrush": 6896,
      "decoration": 6897,
      "scratch": 6898,
      "81": 6899,
      "205": 6900,
      "lipo": 6901,
      "veget": 6902,
      "behind": 6903,
      "interrupt": 6904,
      "pedestrian": 6905,
      "club": 6906,
      "rendering": 6907,
      "ancer": 6908,
      "retic": 6909,
      "too": 6910,
      "graphical": 6911,
      "chromium": 6912,
      "hospital": 6913,
      "experience": 6914,
      "methanol": 6915,
      "extruded": 6916,
      "hands": 6917,
      "visually": 6918,
      "resol": 6919,
      "boat": 6920,
      "acquire": 6921,
      "restriction": 6922,
      "ov": 6923,
      "promp": 6924,
      "antibio": 6925,
      "potato": 6926,
      "solubility": 6927,
      "benzo": 6928,
      "pictures": 6929,
      "stry": 6930,
      "tention": 6931,
      "meeting": 6932,
      "collagen": 6933,
      "satisfying": 6934,
      "recovered": 6935,
      "usable": 6936,
      "enlar": 6937,
      "category": 6938,
      "tong": 6939,
      "cis": 6940,
      "jacket": 6941,
      "coverage": 6942,
      "outwardly": 6943,
      "sided": 6944,
      "deflect": 6945,
      "ambient": 6946,
      "hf": 6947,
      "tude": 6948,
      "acetic": 6949,
      "alky": 6950,
      "hz": 6951,
      "finally": 6952,
      "libr": 6953,
      "envelope": 6954,
      "relate": 6955,
      "contribut": 6956,
      "dock": 6957,
      "sund": 6958,
      "optically": 6959,
      "flying": 6960,
      "batch": 6961,
      "span": 6962,
      "international": 6963,
      "equation": 6964,
      "acquires": 6965,
      "zr": 6966,
      "connectors": 6967,
      "acetyl": 6968,
      "circle": 6969,
      "yarns": 6970,
      "combinations": 6971,
      "springs": 6972,
      "wastes": 6973,
      "gery": 6974,
      "breaking": 6975,
      "distillation": 6976,
      "investment": 6977,
      "pap": 6978,
      "women": 6979,
      "134": 6980,
      "s200": 6981,
      "dropping": 6982,
      "complementary": 6983,
      "cables": 6984,
      "molyb": 6985,
      "herb": 6986,
      "naturally": 6987,
      "excitation": 6988,
      "nose": 6989,
      "threaded": 6990,
      "lp": 6991,
      "medicinal": 6992,
      "harve": 6993,
      "beads": 6994,
      "answer": 6995,
      "grown": 6996,
      "parent": 6997,
      "vil": 6998,
      "tivities": 6999,
      "better": 7000,
      "chemicals": 7001,
      "developed": 7002,
      "preference": 7003,
      "harmon": 7004,
      "respir": 7005,
      "protector": 7006,
      "buoyancy": 7007,
      "desir": 7008,
      "drome": 7009,
      "cil": 7010,
      "cores": 7011,
      "cdma": 7012,
      "delayed": 7013,
      "elongation": 7014,
      "matches": 7015,
      "hologram": 7016,
      "kinase": 7017,
      "sprocket": 7018,
      "ferroelectric": 7019,
      "d1": 7020,
      "backup": 7021,
      "death": 7022,
      "syndrome": 7023,
      "evenly": 7024,
      "niture": 7025,
      "protrudes": 7026,
      "reproduced": 7027,
      "quad": 7028,
      "remotely": 7029,
      "nesday": 7030,
      "sud": 7031,
      "managed": 7032,
      "versity": 7033,
      "wednesday": 7034,
      "trace": 7035,
      "programmable": 7036,
      "pdc": 7037,
      "inevit": 7038,
      "needs": 7039,
      "song": 7040,
      "hydrogel": 7041,
      "germanium": 7042,
      "diffusing": 7043,
      "lamination": 7044,
      "450": 7045,
      "pages": 7046,
      "furniture": 7047,
      "haptic": 7048,
      "giving": 7049,
      "terephthalate": 7050,
      "reliable": 7051,
      "conveyed": 7052,
      "bow": 7053,
      "synthesized": 7054,
      "pulp": 7055,
      "burning": 7056,
      "cotton": 7057,
      "combine": 7058,
      "essentially": 7059,
      "tanks": 7060,
      "gripper": 7061,
      "delt": 7062,
      "polysiloxane": 7063,
      "penetrate": 7064,
      "augmented": 7065,
      "rus": 7066,
      "killed": 7067,
      "catheter": 7068,
      "purge": 7069,
      "assemble": 7070,
      "relev": 7071,
      "synchronized": 7072,
      "properly": 7073,
      "zig": 7074,
      "dies": 7075,
      "lime": 7076,
      "sulfide": 7077,
      "china": 7078,
      "hier": 7079,
      "labor": 7080,
      "s130": 7081,
      "diffraction": 7082,
      "modulus": 7083,
      "68": 7084,
      "caller": 7085,
      "mum": 7086,
      "withdraw": 7087,
      "cyano": 7088,
      "extinguishing": 7089,
      "acyl": 7090,
      "6a": 7091,
      "err": 7092,
      "burst": 7093,
      "decided": 7094,
      "absence": 7095,
      "balancing": 7096,
      "cards": 7097,
      "termination": 7098,
      "bulb": 7099,
      "bidirectional": 7100,
      "kine": 7101,
      "indicate": 7102,
      "achieving": 7103,
      "nox": 7104,
      "motors": 7105,
      "buttons": 7106,
      "preliminary": 7107,
      "mist": 7108,
      "burn": 7109,
      "exc": 7110,
      "mattress": 7111,
      "dynamically": 7112,
      "nmos": 7113,
      "earphone": 7114,
      "spacers": 7115,
      "already": 7116,
      "analyze": 7117,
      "hierarch": 7118,
      "bp": 7119,
      "title": 7120,
      "methoxy": 7121,
      "tuents": 7122,
      "bring": 7123,
      "cationic": 7124,
      "substituent": 7125,
      "stimulation": 7126,
      "factory": 7127,
      "anticancer": 7128,
      "ah": 7129,
      "electromagnet": 7130,
      "events": 7131,
      "belonging": 7132,
      "figure": 7133,
      "nf": 7134,
      "capacitors": 7135,
      "similarity": 7136,
      "viol": 7137,
      "vaccine": 7138,
      "resonant": 7139,
      "formulations": 7140,
      "tol": 7141,
      "strut": 7142,
      "mimo": 7143,
      "sd": 7144,
      "suring": 7145,
      "judges": 7146,
      "aro": 7147,
      "quake": 7148,
      "aked": 7149,
      "matters": 7150,
      "demo": 7151,
      "109": 7152,
      "arboxylic": 7153,
      "istan": 7154,
      "resistive": 7155,
      "tac": 7156,
      "seam": 7157,
      "suppressed": 7158,
      "impo": 7159,
      "pulsion": 7160,
      "10b": 7161,
      "duplex": 7162,
      "activities": 7163,
      "elevation": 7164,
      "transforming": 7165,
      "lactobacillus": 7166,
      "grounding": 7167,
      "trad": 7168,
      "operative": 7169,
      "decreased": 7170,
      "filtr": 7171,
      "spokes": 7172,
      "sunday": 7173,
      "nip": 7174,
      "thri": 7175,
      "clearance": 7176,
      "dehumid": 7177,
      "arium": 7178,
      "slee": 7179,
      "laid": 7180,
      "enough": 7181,
      "indu": 7182,
      "utilize": 7183,
      "mall": 7184,
      "chole": 7185,
      "pear": 7186,
      "minimizes": 7187,
      "tm": 7188,
      "automotive": 7189,
      "dam": 7190,
      "vesti": 7191,
      "fibrous": 7192,
      "crystallization": 7193,
      "diver": 7194,
      "returned": 7195,
      "inflammation": 7196,
      "hamm": 7197,
      "aller": 7198,
      "compensate": 7199,
      "adsorbent": 7200,
      "molybden": 7201,
      "mile": 7202,
      "leton": 7203,
      "scen": 7204,
      "monito": 7205,
      "automated": 7206,
      "monitored": 7207,
      "11b": 7208,
      "upwardly": 7209,
      "mutual": 7210,
      "polymerizing": 7211,
      "armature": 7212,
      "download": 7213,
      "repeat": 7214,
      "observation": 7215,
      "dissipation": 7216,
      "diene": 7217,
      "sidewalls": 7218,
      "endo": 7219,
      "hypo": 7220,
      "fragr": 7221,
      "vr": 7222,
      "roasting": 7223,
      "micron": 7224,
      "insti": 7225,
      "axes": 7226,
      "judged": 7227,
      "physio": 7228,
      "dark": 7229,
      "restor": 7230,
      "heterogeneous": 7231,
      "assigning": 7232,
      "autono": 7233,
      "vicinity": 7234,
      "autonomous": 7235,
      "tp": 7236,
      "retention": 7237,
      "tric": 7238,
      "responsive": 7239,
      "molar": 7240,
      "vibrator": 7241,
      "fume": 7242,
      "shutting": 7243,
      "ming": 7244,
      "coke": 7245,
      "uri": 7246,
      "flowed": 7247,
      "pvc": 7248,
      "explosion": 7249,
      "library": 7250,
      "molybdenum": 7251,
      "propagation": 7252,
      "border": 7253,
      "windows": 7254,
      "pellet": 7255,
      "verifying": 7256,
      "inventive": 7257,
      "accessory": 7258,
      "soldering": 7259,
      "304": 7260,
      "crystals": 7261,
      "surge": 7262,
      "151": 7263,
      "simultaneous": 7264,
      "removable": 7265,
      "capillary": 7266,
      "recent": 7267,
      "loo": 7268,
      "sures": 7269,
      "collo": 7270,
      "queue": 7271,
      "oct": 7272,
      "urine": 7273,
      "lows": 7274,
      "folder": 7275,
      "diffuser": 7276,
      "430": 7277,
      "moistur": 7278,
      "likely": 7279,
      "oxidized": 7280,
      "decides": 7281,
      "agency": 7282,
      "industry": 7283,
      "92": 7284,
      "ots": 7285,
      "intest": 7286,
      "tening": 7287,
      "lte": 7288,
      "14a": 7289,
      "98": 7290,
      "inhibition": 7291,
      "ev": 7292,
      "holds": 7293,
      "documents": 7294,
      "extruder": 7295,
      "ors": 7296,
      "tightening": 7297,
      "inevitable": 7298,
      "208": 7299,
      "13a": 7300,
      "inerti": 7301,
      "sio2": 7302,
      "owner": 7303,
      "sealant": 7304,
      "stretch": 7305,
      "did": 7306,
      "vortex": 7307,
      "methylene": 7308,
      "license": 7309,
      "cooker": 7310,
      "reagent": 7311,
      "research": 7312,
      "shop": 7313,
      "onitrile": 7314,
      "tid": 7315,
      "pouring": 7316,
      "trim": 7317,
      "cvd": 7318,
      "sap": 7319,
      "inconvenience": 7320,
      "possibility": 7321,
      "best": 7322,
      "shooting": 7323,
      "spectral": 7324,
      "morph": 7325,
      "electrons": 7326,
      "sale": 7327,
      "gum": 7328,
      "designing": 7329,
      "aqu": 7330,
      "ucle": 7331,
      "predefined": 7332,
      "identifies": 7333,
      "harq": 7334,
      "twisted": 7335,
      "ka": 7336,
      "tru": 7337,
      "anisotropic": 7338,
      "moiety": 7339,
      "spectro": 7340,
      "discrete": 7341,
      "cholester": 7342,
      "73": 7343,
      "gf": 7344,
      "max": 7345,
      "definition": 7346,
      "76": 7347,
      "adop": 7348,
      "affected": 7349,
      "sug": 7350,
      "issuing": 7351,
      "firstly": 7352,
      "benzene": 7353,
      "won": 7354,
      "insu": 7355,
      "onion": 7356,
      "seconds": 7357,
      "subset": 7358,
      "thereafter": 7359,
      "interlocked": 7360,
      "strengthen": 7361,
      "prescribed": 7362,
      "vegetation": 7363,
      "viewer": 7364,
      "island": 7365,
      "study": 7366,
      "ney": 7367,
      "shrinkage": 7368,
      "extreme": 7369,
      "5wt": 7370,
      "highest": 7371,
      "backing": 7372,
      "conductors": 7373,
      "baby": 7374,
      "fut": 7375,
      "hall": 7376,
      "idence": 7377,
      "induc": 7378,
      "itation": 7379,
      "pient": 7380,
      "glyco": 7381,
      "interpre": 7382,
      "fingers": 7383,
      "offering": 7384,
      "ics": 7385,
      "12b": 7386,
      "statement": 7387,
      "blend": 7388,
      "exhausting": 7389,
      "unt": 7390,
      "advantages": 7391,
      "bend": 7392,
      "overlay": 7393,
      "downwardly": 7394,
      "guaran": 7395,
      "pmos": 7396,
      "cuts": 7397,
      "222": 7398,
      "boost": 7399,
      "dome": 7400,
      "sediment": 7401,
      "measurements": 7402,
      "differentiation": 7403,
      "investi": 7404,
      "chromic": 7405,
      "57": 7406,
      "referred": 7407,
      "bear": 7408,
      "deriving": 7409,
      "sudden": 7410,
      "planting": 7411,
      "4b": 7412,
      "mone": 7413,
      "supplier": 7414,
      "arrays": 7415,
      "exclusive": 7416,
      "symp": 7417,
      "usefully": 7418,
      "earthquake": 7419,
      "disaster": 7420,
      "amounts": 7421,
      "concentrating": 7422,
      "learn": 7423,
      "quot": 7424,
      "stops": 7425,
      "chool": 7426,
      "latex": 7427,
      "must": 7428,
      "transmis": 7429,
      "genic": 7430,
      "hr": 7431,
      "soc": 7432,
      "prime": 7433,
      "stabilized": 7434,
      "relevant": 7435,
      "quantit": 7436,
      "esters": 7437,
      "loader": 7438,
      "flood": 7439,
      "titude": 7440,
      "baff": 7441,
      "repell": 7442,
      "varied": 7443,
      "prompt": 7444,
      "mechanically": 7445,
      "luoro": 7446,
      "powders": 7447,
      "m1": 7448,
      "nally": 7449,
      "expl": 7450,
      "presentation": 7451,
      "bushing": 7452,
      "shortening": 7453,
      "fence": 7454,
      "maker": 7455,
      "milling": 7456,
      "distilled": 7457,
      "wrist": 7458,
      "lad": 7459,
      "infect": 7460,
      "margin": 7461,
      "bt": 7462,
      "freeze": 7463,
      "bellows": 7464,
      "delta": 7465,
      "sep": 7466,
      "pyroly": 7467,
      "excre": 7468,
      "135": 7469,
      "thurs": 7470,
      "calls": 7471,
      "proxy": 7472,
      "thursday": 7473,
      "wild": 7474,
      "preheating": 7475,
      "carbox": 7476,
      "nanotubes": 7477,
      "coaxial": 7478,
      "olin": 7479,
      "informing": 7480,
      "rotator": 7481,
      "fabrics": 7482,
      "ejection": 7483,
      "marks": 7484,
      "tuner": 7485,
      "sms": 7486,
      "depression": 7487,
      "joints": 7488,
      "ribbon": 7489,
      "penetrates": 7490,
      "warp": 7491,
      "feel": 7492,
      "ffl": 7493,
      "school": 7494,
      "ensuring": 7495,
      "optic": 7496,
      "selectivity": 7497,
      "contour": 7498,
      "disposing": 7499,
      "regulation": 7500,
      "tightly": 7501,
      "l2": 7502,
      "loan": 7503,
      "currents": 7504,
      "compressive": 7505,
      "sex": 7506,
      "liquor": 7507,
      "illuminating": 7508,
      "chop": 7509,
      "team": 7510,
      "landing": 7511,
      "auction": 7512,
      "frozen": 7513,
      "advanced": 7514,
      "greenhouse": 7515,
      "rectifier": 7516,
      "atching": 7517,
      "activate": 7518,
      "baking": 7519,
      "cracking": 7520,
      "ingot": 7521,
      "forced": 7522,
      "221": 7523,
      "bee": 7524,
      "indium": 7525,
      "ib": 7526,
      "recommendation": 7527,
      "photoelectric": 7528,
      "reflects": 7529,
      "22a": 7530,
      "subtr": 7531,
      "boot": 7532,
      "heteroaryl": 7533,
      "tolerance": 7534,
      "strips": 7535,
      "fins": 7536,
      "sharp": 7537,
      "214": 7538,
      "accumulator": 7539,
      "aggregation": 7540,
      "stretching": 7541,
      "conference": 7542,
      "wake": 7543,
      "s300": 7544,
      "fragments": 7545,
      "v2": 7546,
      "deploy": 7547,
      "collap": 7548,
      "overhead": 7549,
      "resilient": 7550,
      "adher": 7551,
      "hardened": 7552,
      "rgb": 7553,
      "creation": 7554,
      "caption": 7555,
      "doors": 7556,
      "intersection": 7557,
      "49": 7558,
      "sf": 7559,
      "disturb": 7560,
      "exchanged": 7561,
      "biomass": 7562,
      "sters": 7563,
      "notch": 7564,
      "eyes": 7565,
      "skeleton": 7566,
      "antistatic": 7567,
      "our": 7568,
      "detailed": 7569,
      "proliferation": 7570,
      "270": 7571,
      "compatibility": 7572,
      "21a": 7573,
      "conical": 7574,
      "amy": 7575,
      "constrain": 7576,
      "inspected": 7577,
      "thre": 7578,
      "sponge": 7579,
      "ules": 7580,
      "extra": 7581,
      "facilitates": 7582,
      "rectifying": 7583,
      "combines": 7584,
      "anionic": 7585,
      "publ": 7586,
      "152": 7587,
      "transported": 7588,
      "focal": 7589,
      "visco": 7590,
      "contract": 7591,
      "recorder": 7592,
      "splitter": 7593,
      "propulsion": 7594,
      "crosslinked": 7595,
      "520": 7596,
      "insic": 7597,
      "coli": 7598,
      "absorbs": 7599,
      "merged": 7600,
      "primarily": 7601,
      "fusing": 7602,
      "rank": 7603,
      "toy": 7604,
      "aerial": 7605,
      "approximately": 7606,
      "cleansing": 7607,
      "concentric": 7608,
      "heats": 7609,
      "processors": 7610,
      "legal": 7611,
      "econom": 7612,
      "carc": 7613,
      "silk": 7614,
      "ketone": 7615,
      "symptom": 7616,
      "accesses": 7617,
      "ctu": 7618,
      "zirconium": 7619,
      "chito": 7620,
      "eding": 7621,
      "fili": 7622,
      "abutment": 7623,
      "plc": 7624,
      "intermit": 7625,
      "cmp": 7626,
      "drivers": 7627,
      "zones": 7628,
      "ries": 7629,
      "crops": 7630,
      "flic": 7631,
      "wanted": 7632,
      "bacterium": 7633,
      "alleviating": 7634,
      "uling": 7635,
      "piper": 7636,
      "letter": 7637,
      "interfaces": 7638,
      "granular": 7639,
      "buyer": 7640,
      "marked": 7641,
      "spi": 7642,
      "laterally": 7643,
      "fry": 7644,
      "mutant": 7645,
      "redundancy": 7646,
      "refining": 7647,
      "slice": 7648,
      "mediated": 7649,
      "unlocking": 7650,
      "viewed": 7651,
      "halide": 7652,
      "widely": 7653,
      "cracks": 7654,
      "pall": 7655,
      "r6": 7656,
      "bitstream": 7657,
      "existence": 7658,
      "democr": 7659,
      "manually": 7660,
      "escape": 7661,
      "gic": 7662,
      "allo": 7663,
      "irt": 7664,
      "mainly": 7665,
      "aneous": 7666,
      "clon": 7667,
      "discriminating": 7668,
      "conju": 7669,
      "scaf": 7670,
      "candidates": 7671,
      "reactant": 7672,
      "fon": 7673,
      "advertiser": 7674,
      "boiled": 7675,
      "knitting": 7676,
      "clin": 7677,
      "coc": 7678,
      "leaving": 7679,
      "booster": 7680,
      "cardio": 7681,
      "arith": 7682,
      "indicative": 7683,
      "estimates": 7684,
      "eliminated": 7685,
      "jetting": 7686,
      "almost": 7687,
      "ensis": 7688,
      "counts": 7689,
      "passengers": 7690,
      "nutrition": 7691,
      "atur": 7692,
      "ories": 7693,
      "configur": 7694,
      "ceramics": 7695,
      "stit": 7696,
      "laver": 7697,
      "tx": 7698,
      "za": 7699,
      "coin": 7700,
      "adhesi": 7701,
      "shorter": 7702,
      "jump": 7703,
      "pyrro": 7704,
      "crad": 7705,
      "ranges": 7706,
      "inking": 7707,
      "forci": 7708,
      "forcibly": 7709,
      "conjugate": 7710,
      "enses": 7711,
      "fluids": 7712,
      "representation": 7713,
      "clothing": 7714,
      "acel": 7715,
      "masking": 7716,
      "b2": 7717,
      "authenticating": 7718,
      "polyether": 7719,
      "threads": 7720,
      "pyra": 7721,
      "muffl": 7722,
      "binds": 7723,
      "housed": 7724,
      "powered": 7725,
      "133": 7726,
      "encing": 7727,
      "pretreatment": 7728,
      "leader": 7729,
      "temporal": 7730,
      "operatively": 7731,
      "residu": 7732,
      "scheduled": 7733,
      "compensated": 7734,
      "94": 7735,
      "bread": 7736,
      "mpeg": 7737,
      "tested": 7738,
      "bearings": 7739,
      "chloro": 7740,
      "corners": 7741,
      "inciner": 7742,
      "automation": 7743,
      "istics": 7744,
      "vet": 7745,
      "waterproofing": 7746,
      "employed": 7747,
      "sequential": 7748,
      "helical": 7749,
      "getting": 7750,
      "revolution": 7751,
      "cyclohex": 7752,
      "precipitation": 7753,
      "interconnect": 7754,
      "organization": 7755,
      "lottery": 7756,
      "metering": 7757,
      "secting": 7758,
      "h2": 7759,
      "heads": 7760,
      "scattered": 7761,
      "affili": 7762,
      "disposal": 7763,
      "tradition": 7764,
      "restoration": 7765,
      "sque": 7766,
      "preventive": 7767,
      "others": 7768,
      "deb": 7769,
      "remainder": 7770,
      "ever": 7771,
      "inverted": 7772,
      "wants": 7773,
      "esis": 7774,
      "divider": 7775,
      "proximal": 7776,
      "phones": 7777,
      "residues": 7778,
      "ladder": 7779,
      "pric": 7780,
      "polystyrene": 7781,
      "divide": 7782,
      "competi": 7783,
      "fluorinated": 7784,
      "commodity": 7785,
      "conversation": 7786,
      "osd": 7787,
      "topo": 7788,
      "cannot": 7789,
      "fruits": 7790,
      "transcri": 7791,
      "zoom": 7792,
      "nchron": 7793,
      "workers": 7794,
      "pivotally": 7795,
      "programmed": 7796,
      "consumed": 7797,
      "ethernet": 7798,
      "wlan": 7799,
      "selling": 7800,
      "m2m": 7801,
      "nic": 7802,
      "exactly": 7803,
      "although": 7804,
      "subsequently": 7805,
      "powdered": 7806,
      "arrival": 7807,
      "surgery": 7808,
      "starts": 7809,
      "benef": 7810,
      "camp": 7811,
      "delivers": 7812,
      "shifted": 7813,
      "psy": 7814,
      "polygonal": 7815,
      "herbal": 7816,
      "palladium": 7817,
      "84": 7818,
      "preced": 7819,
      "capping": 7820,
      "nuts": 7821,
      "future": 7822,
      "azo": 7823,
      "desirable": 7824,
      "cmos": 7825,
      "tester": 7826,
      "qos": 7827,
      "watering": 7828,
      "polished": 7829,
      "perpendicularly": 7830,
      "fragrance": 7831,
      "hu": 7832,
      "ological": 7833,
      "wine": 7834,
      "express": 7835,
      "revol": 7836,
      "restored": 7837,
      "chitosan": 7838,
      "precast": 7839,
      "models": 7840,
      "knowledge": 7841,
      "descending": 7842,
      "pointed": 7843,
      "muffler": 7844,
      "anting": 7845,
      "condensate": 7846,
      "posts": 7847,
      "correspondence": 7848,
      "herent": 7849,
      "ls": 7850,
      "constituent": 7851,
      "optimizing": 7852,
      "aler": 7853,
      "refrigerating": 7854,
      "dential": 7855,
      "istr": 7856,
      "rules": 7857,
      "hydrogenation": 7858,
      "responding": 7859,
      "nanowire": 7860,
      "7a": 7861,
      "2000": 7862,
      "alternative": 7863,
      "medicament": 7864,
      "ellip": 7865,
      "rights": 7866,
      "agitating": 7867,
      "roid": 7868,
      "domes": 7869,
      "bullet": 7870,
      "excess": 7871,
      "protects": 7872,
      "experiment": 7873,
      "cue": 7874,
      "evaporated": 7875,
      "phases": 7876,
      "clai": 7877,
      "proportional": 7878,
      "sit": 7879,
      "swell": 7880,
      "weft": 7881,
      "intrinsic": 7882,
      "essential": 7883,
      "intention": 7884,
      "shade": 7885,
      "scenari": 7886,
      "complexity": 7887,
      "enically": 7888,
      "plasticizer": 7889,
      "numerical": 7890,
      "verte": 7891,
      "intersecting": 7892,
      "bipolar": 7893,
      "catalysts": 7894,
      "remains": 7895,
      "suggest": 7896,
      "requirements": 7897,
      "paid": 7898,
      "dropped": 7899,
      "contraction": 7900,
      "incorporated": 7901,
      "election": 7902,
      "cultivating": 7903,
      "squee": 7904,
      "nia": 7905,
      "dos": 7906,
      "packed": 7907,
      "ucleo": 7908,
      "stres": 7909,
      "tries": 7910,
      "vegetables": 7911,
      "ionized": 7912,
      "s140": 7913,
      "fem": 7914,
      "cart": 7915,
      "phospho": 7916,
      "insoluble": 7917,
      "decomposing": 7918,
      "months": 7919,
      "inhibitory": 7920,
      "conveyance": 7921,
      "78": 7922,
      "ya": 7923,
      "therethrough": 7924,
      "ago": 7925,
      "t2": 7926,
      "ccd": 7927,
      "decreases": 7928,
      "pdcch": 7929,
      "cid": 7930,
      "dich": 7931,
      "faction": 7932,
      "vivo": 7933,
      "adsorbing": 7934,
      "snap": 7935,
      "heel": 7936,
      "framework": 7937,
      "examination": 7938,
      "attr": 7939,
      "connections": 7940,
      "recesses": 7941,
      "surance": 7942,
      "centering": 7943,
      "issue": 7944,
      "poli": 7945,
      "gyp": 7946,
      "domin": 7947,
      "rotationally": 7948,
      "osity": 7949,
      "sadd": 7950,
      "lowest": 7951,
      "plus": 7952,
      "lung": 7953,
      "polynucleotide": 7954,
      "planes": 7955,
      "em": 7956,
      "effor": 7957,
      "accessed": 7958,
      "popul": 7959,
      "diol": 7960,
      "implementation": 7961,
      "drone": 7962,
      "belongs": 7963,
      "instruct": 7964,
      "subjecting": 7965,
      "dram": 7966,
      "sensiti": 7967,
      "chromato": 7968,
      "controllable": 7969,
      "assistant": 7970,
      "crash": 7971,
      "jour": 7972,
      "tilted": 7973,
      "seedling": 7974,
      "seaweed": 7975,
      "metabolic": 7976,
      "cyber": 7977,
      "garment": 7978,
      "architecture": 7979,
      "hn": 7980,
      "arthri": 7981,
      "copolymers": 7982,
      "pillow": 7983,
      "asynchron": 7984,
      "orbit": 7985,
      "weighted": 7986,
      "gaps": 7987,
      "symmetrical": 7988,
      "arter": 7989,
      "dispers": 7990,
      "hc": 7991,
      "pus": 7992,
      "chargeable": 7993,
      "thing": 7994,
      "drinking": 7995,
      "seventh": 7996,
      "91": 7997,
      "availability": 7998,
      "ats": 7999,
      "partitioning": 8000,
      "cradle": 8001,
      "relax": 8002,
      "flanges": 8003,
      "stiffness": 8004,
      "english": 8005,
      "wrinkle": 8006,
      "miniatur": 8007,
      "dma": 8008,
      "fluctu": 8009,
      "screwed": 8010,
      "excavation": 8011,
      "quen": 8012,
      "enger": 8013,
      "clients": 8014,
      "toe": 8015,
      "tough": 8016,
      "cultured": 8017,
      "circulated": 8018,
      "ejecting": 8019,
      "agree": 8020,
      "variables": 8021,
      "weaving": 8022,
      "diamine": 8023,
      "pig": 8024,
      "micrometers": 8025,
      "accommodate": 8026,
      "baffle": 8027,
      "lengthwise": 8028,
      "insulin": 8029,
      "domestic": 8030,
      "divalent": 8031,
      "iris": 8032,
      "oxidative": 8033,
      "osteo": 8034,
      "promotion": 8035,
      "dehydrating": 8036,
      "oblique": 8037,
      "radiated": 8038,
      "conducted": 8039,
      "adjuster": 8040,
      "sanitary": 8041,
      "mgo": 8042,
      "riding": 8043,
      "deform": 8044,
      "rinsing": 8045,
      "galvan": 8046,
      "trade": 8047,
      "breath": 8048,
      "immersion": 8049,
      "cancell": 8050,
      "crop": 8051,
      "hs": 8052,
      "outermost": 8053,
      "hygi": 8054,
      "deceleration": 8055,
      "assignment": 8056,
      "inserts": 8057,
      "transmissions": 8058,
      "droplet": 8059,
      "injury": 8060,
      "dron": 8061,
      "inexpensive": 8062,
      "402": 8063,
      "nack": 8064,
      "solids": 8065,
      "arthritis": 8066,
      "household": 8067,
      "c5": 8068,
      "nes": 8069,
      "played": 8070,
      "traject": 8071,
      "community": 8072,
      "controllers": 8073,
      "formulas": 8074,
      "trus": 8075,
      "dupl": 8076,
      "30a": 8077,
      "prof": 8078,
      "303": 8079,
      "chrome": 8080,
      "lymp": 8081,
      "broadband": 8082,
      "authorized": 8083,
      "cad": 8084,
      "symmetrically": 8085,
      "poles": 8086,
      "ception": 8087,
      "style": 8088,
      "transceiving": 8089,
      "silyl": 8090,
      "fal": 8091,
      "apartment": 8092,
      "freed": 8093,
      "linker": 8094,
      "utility": 8095,
      "ch3": 8096,
      "suppression": 8097,
      "claimed": 8098,
      "iler": 8099,
      "triangular": 8100,
      "notifying": 8101,
      "nutrient": 8102,
      "omit": 8103,
      "visibility": 8104,
      "decodes": 8105,
      "arithmetic": 8106,
      "wtru": 8107,
      "lier": 8108,
      "117": 8109,
      "aries": 8110,
      "reached": 8111,
      "kneading": 8112,
      "distan": 8113,
      "amplifies": 8114,
      "applicator": 8115,
      "5b": 8116,
      "serves": 8117,
      "seen": 8118,
      "pork": 8119,
      "ops": 8120,
      "settled": 8121,
      "anaerobic": 8122,
      "shore": 8123,
      "simulator": 8124,
      "noodles": 8125,
      "thy": 8126,
      "payload": 8127,
      "susceptor": 8128,
      "ridge": 8129,
      "mems": 8130,
      "magazine": 8131,
      "messenger": 8132,
      "visitor": 8133,
      "purposes": 8134,
      "accumulating": 8135,
      "involves": 8136,
      "moisturizing": 8137,
      "utation": 8138,
      "adds": 8139,
      "311": 8140,
      "lear": 8141,
      "shaking": 8142,
      "overflow": 8143,
      "aluminium": 8144,
      "tracks": 8145,
      "vulcan": 8146,
      "wings": 8147,
      "lon": 8148,
      "preform": 8149,
      "restricted": 8150,
      "egr": 8151,
      "chest": 8152,
      "osmo": 8153,
      "smoking": 8154,
      "adsorbed": 8155,
      "erase": 8156,
      "electrolysis": 8157,
      "detaching": 8158,
      "fluorescence": 8159,
      "deodorizing": 8160,
      "cct": 8161,
      "solutions": 8162,
      "traditional": 8163,
      "icy": 8164,
      "bili": 8165,
      "periods": 8166,
      "stabilization": 8167,
      "rn": 8168,
      "tend": 8169,
      "reason": 8170,
      "baseband": 8171,
      "seals": 8172,
      "gift": 8173,
      "honeycomb": 8174,
      "partly": 8175,
      "inquir": 8176,
      "asis": 8177,
      "dog": 8178,
      "draft": 8179,
      "dres": 8180,
      "screws": 8181,
      "istical": 8182,
      "survi": 8183,
      "phyl": 8184,
      "drag": 8185,
      "x1": 8186,
      "orities": 8187,
      "inocul": 8188,
      "cutoff": 8189,
      "detachment": 8190,
      "mandrel": 8191,
      "thumb": 8192,
      "token": 8193,
      "poor": 8194,
      "foli": 8195,
      "economically": 8196,
      "edible": 8197,
      "bat": 8198,
      "zip": 8199,
      "diary": 8200,
      "stern": 8201,
      "genetic": 8202,
      "sues": 8203,
      "dp": 8204,
      "pyri": 8205,
      "complic": 8206,
      "multiply": 8207,
      "cao": 8208,
      "yle": 8209,
      "evaporating": 8210,
      "appropriately": 8211,
      "zno": 8212,
      "serve": 8213,
      "pher": 8214,
      "energ": 8215,
      "reliably": 8216,
      "labe": 8217,
      "outlets": 8218,
      "benzyl": 8219,
      "hip": 8220,
      "interpolation": 8221,
      "vement": 8222,
      "came": 8223,
      "relie": 8224,
      "asynchronous": 8225,
      "chute": 8226,
      "begin": 8227,
      "faced": 8228,
      "withdrawal": 8229,
      "coar": 8230,
      "interconnected": 8231,
      "colle": 8232,
      "backside": 8233,
      "gallium": 8234,
      "shortened": 8235,
      "overload": 8236,
      "affinity": 8237,
      "differently": 8238,
      "statistical": 8239,
      "buckle": 8240,
      "312": 8241,
      "spare": 8242,
      "ballo": 8243,
      "crankshaft": 8244,
      "dol": 8245,
      "issued": 8246,
      "learner": 8247,
      "inic": 8248,
      "cytes": 8249,
      "partitions": 8250,
      "trouble": 8251,
      "ometer": 8252,
      "sports": 8253,
      "aled": 8254,
      "initialization": 8255,
      "gla": 8256,
      "forging": 8257,
      "saved": 8258,
      "atitis": 8259,
      "scrip": 8260,
      "sterilized": 8261,
      "s12": 8262,
      "impar": 8263,
      "varies": 8264,
      "calculator": 8265,
      "dicarboxylic": 8266,
      "twisting": 8267,
      "claims": 8268,
      "disab": 8269,
      "elap": 8270,
      "encodes": 8271,
      "embossing": 8272,
      "bomb": 8273,
      "bonds": 8274,
      "semicirc": 8275,
      "followings": 8276,
      "few": 8277,
      "billing": 8278,
      "leveling": 8279,
      "japanese": 8280,
      "perfume": 8281,
      "syrup": 8282,
      "woman": 8283,
      "fru": 8284,
      "enced": 8285,
      "coinc": 8286,
      "ression": 8287,
      "tissues": 8288,
      "graphics": 8289,
      "dissipating": 8290,
      "x2": 8291,
      "daily": 8292,
      "favor": 8293,
      "sync": 8294,
      "ws": 8295,
      "feet": 8296,
      "affe": 8297,
      "breakdown": 8298,
      "asymmetric": 8299,
      "gypsum": 8300,
      "demodulation": 8301,
      "polycrystalline": 8302,
      "describes": 8303,
      "completing": 8304,
      "authority": 8305,
      "court": 8306,
      "buffers": 8307,
      "diluted": 8308,
      "promptly": 8309,
      "shuttle": 8310,
      "conveyer": 8311,
      "intelligence": 8312,
      "rearward": 8313,
      "oscillating": 8314,
      "insurance": 8315,
      "reforming": 8316,
      "odd": 8317,
      "ramb": 8318,
      "subsi": 8319,
      "magneto": 8320,
      "multiplexed": 8321,
      "thesis": 8322,
      "irr": 8323,
      "rather": 8324,
      "modifier": 8325,
      "accelerating": 8326,
      "outline": 8327,
      "photon": 8328,
      "wavelengths": 8329,
      "administered": 8330,
      "s60": 8331,
[...]
