{
  "version": "1.0",
  "truncation": null,
  "padding": null,
  "added_tokens": [
    {
      "id": 0,
      "special": true,
      "content": "<unused_0>",
      "single_word": false,
      "lstrip": false,
      "rstrip": false,
      "normalized": false
    },
    {
      "id": 1,
      "special": true,
      "content": "<unused_1>",
      "single_word": false,
      "lstrip": false,
      "rstrip": false,
      "normalized": false
    },
    {
      "id": 2,
      "special": true,
      "content": "<unused_2>",
      "single_word": false,
      "lstrip": false,
      "rstrip": false,
      "normalized": false
    },
    {
      "id": 3,
      "special": true,
      "content": "<unused_3>",
      "single_word": false,
      "lstrip": false,
      "rstrip": false,
      "normalized": false
    },
    {
      "id": 4,
      "special": true,
      "content": "<unused_4>",
      "single_word": false,
      "lstrip": false,
      "rstrip": false,
      "normalized": false
    },
    {
      "id": 5,
      "special": true,
      "content": "<unused_5>",
      "single_word": false,
      "lstrip": false,
      "rstrip": false,
      "normalized": false
    },
    {
      "id": 6,
      "special": true,
      "content": "<unused_6>",
      "single_word": false,
      "lstrip": false,
      "rstrip": false,
      "normalized": false
    },
    {
      "id": 7,
      "special": true,
      "content": "<unused_7>",
      "single_word": false,
      "lstrip": false,
      "rstrip": false,
      "normalized": false
    },
    {
      "id": 8,
      "special": true,
      "content": "<unused_8>",
      "single_word": false,
      "lstrip": false,
      "rstrip": false,
      "normalized": false
    },
    {
      "id": 9,
      "special": true,
      "content": "<unused_9>",
      "single_word": false,
      "lstrip": false,
      "rstrip": false,
      "normalized": false
    },
    {
      "id": 10,
      "special": true,
      "content": "<unused_10>",
      "single_word": false,
      "lstrip": false,
      "rstrip": false,
      "normalized": false
    },
    {
      "id": 11,
      "special": true,
      "content": "<unused_11>",
      "single_word": false,
      "lstrip": false,
      "rstrip": false,
      "normalized": false
    },
    {
      "id": 12,
      "special": true,
      "content": "<unused_12>",
      "single_word": false,
      "lstrip": false,
      "rstrip": false,
      "normalized": false
    },
    {
      "id": 13,
      "special": true,
      "content": "<unused_13>",
      "single_word": false,
      "lstrip": false,
      "rstrip": false,
      "normalized": false
    },
    {
      "id": 14,
      "special": true,
      "content": "<unused_14>",
      "single_word": false,
      "lstrip": false,
      "rstrip": false,
      "normalized": false
    },
    {
      "id": 15,
      "special": true,
      "content": "<unused_15>",
      "single_word": false,
      "lstrip": false,
      "rstrip": false,
      "normalized": false
    },
    {
      "id": 16,
      "special": true,
      "content": "<unused_16>",
      "single_word": false,
      "lstrip": false,
      "rstrip": false,
      "normalized": false
    },
    {
      "id": 17,
      "special": true,
      "content": "<unused_17>",
      "single_word": false,
      "lstrip": false,
      "rstrip": false,
      "normalized": false
    },
    {
      "id": 18,
      "special": true,
      "content": "<unused_18>",
      "single_word": false,
      "lstrip": false,
      "rstrip": false,
      "normalized": false
    },
    {
      "id": 19,
      "special": true,
      "content": "<unused_19>",
      "single_word": false,
      "lstrip": false,
      "rstrip": false,
      "normalized": false
    },
    {
      "id": 20,
      "special": true,
      "content": "<unused_20>",
      "single_word": false,
      "lstrip": false,
      "rstrip": false,
      "normalized": false
    },
    {
      "id": 21,
      "special": true,
      "content": "<unused_21>",
      "single_word": false,
      "lstrip": false,
      "rstrip": false,
      "normalized": false
    },
    {
      "id": 22,
      "special": true,
      "content": "<unused_22>",
      "single_word": false,
      "lstrip": false,
      "rstrip": false,
      "normalized": false
    },
    {
      "id": 23,
      "special": true,
      "content": "<unused_23>",
      "single_word": false,
      "lstrip": false,
      "rstrip": false,
      "normalized": false
    },
    {
      "id": 24,
      "special": true,
      "content": "<unused_24>",
      "single_word": false,
      "lstrip": false,
      "rstrip": false,
      "normalized": false
    },
    {
      "id": 25,
      "special": true,
      "content": "<unused_25>",
      "single_word": false,
      "lstrip": false,
      "rstrip": false,
      "normalized": false
    },
    {
      "id": 26,
      "special": true,
      "content": "<unused_26>",
      "single_word": false,
      "lstrip": false,
      "rstrip": false,
      "normalized": false
    },
    {
      "id": 27,
      "special": true,
      "content": "<unused_27>",
      "single_word": false,
      "lstrip": false,
      "rstrip": false,
      "normalized": false
    },
    {
      "id": 28,
      "special": true,
      "content": "<unused_28>",
      "single_word": false,
      "lstrip": false,
      "rstrip": false,
      "normalized": false
    },
    {
      "id": 29,
      "special": true,
      "content": "<unused_29>",
      "single_word": false,
      "lstrip": false,
      "rstrip": false,
      "normalized": false
    },
    {
      "id": 30,
      "special": true,
      "content": "<unused_30>",
      "single_word": false,
      "lstrip": false,
      "rstrip": false,
      "normalized": false
    },
    {
      "id": 31,
      "special": true,
      "content": "<unused_31>",
      "single_word": false,
      "lstrip": false,
      "rstrip": false,
      "normalized": false
    },
    {
      "id": 32,
      "special": true,
      "content": "<unused_32>",
      "single_word": false,
      "lstrip": false,
      "rstrip": false,
      "normalized": false
    },
    {
      "id": 33,
      "special": true,
      "content": "<unused_33>",
      "single_word": false,
      "lstrip": false,
      "rstrip": false,
      "normalized": false
    },
    {
      "id": 34,
      "special": true,
      "content": "<unused_34>",
      "single_word": false,
      "lstrip": false,
      "rstrip": false,
      "normalized": false
    },
    {
      "id": 35,
      "special": true,
      "content": "<unused_35>",
      "single_word": false,
      "lstrip": false,
      "rstrip": false,
      "normalized": false
    },
    {
      "id": 36,
      "special": true,
      "content": "<unused_36>",
      "single_word": false,
      "lstrip": false,
      "rstrip": false,
      "normalized": false
    },
    {
      "id": 37,
      "special": true,
      "content": "<unused_37>",
      "single_word": false,
      "lstrip": false,
      "rstrip": false,
      "normalized": false
    },
    {
      "id": 38,
      "special": true,
      "content": "<unused_38>",
      "single_word": false,
      "lstrip": false,
      "rstrip": false,
      "normalized": false
    },
    {
      "id": 39,
      "special": true,
      "content": "<unused_39>",
      "single_word": false,
      "lstrip": false,
      "rstrip": false,
      "normalized": false
    },
    {
      "id": 40,
      "special": true,
      "content": "<unused_40>",
      "single_word": false,
      "lstrip": false,
      "rstrip": false,
      "normalized": false
    },
    {
      "id": 41,
      "special": true,
      "content": "<unused_41>",
      "single_word": false,
      "lstrip": false,
      "rstrip": false,
      "normalized": false
    },
    {
      "id": 42,
      "special": true,
      "content": "<unused_42>",
      "single_word": false,
      "lstrip": false,
      "rstrip": false,
      "normalized": false
    },
    {
      "id": 43,
      "special": true,
      "content": "<unused_43>",
      "single_word": false,
      "lstrip": false,
      "rstrip": false,
      "normalized": false
    },
    {
      "id": 44,
      "special": true,
      "content": "<unused_44>",
      "single_word": false,
      "lstrip": false,
      "rstrip": false,
      "normalized": false
    },
    {
      "id": 45,
      "special": true,
      "content": "<unused_45>",
      "single_word": false,
      "lstrip": false,
      "rstrip": false,
      "normalized": false
    },
    {
      "id": 46,
      "special": true,
      "content": "<unused_46>",
      "single_word": false,
      "lstrip": false,
      "rstrip": false,
      "normalized": false
    },
    {
      "id": 47,
      "special": true,
      "content": "<unused_47>",
      "single_word": false,
      "lstrip": false,
      "rstrip": false,
      "normalized": false
    },
    {
      "id": 48,
      "special": true,
      "content": "<unused_48>",
      "single_word": false,
      "lstrip": false,
      "rstrip": false,
      "normalized": false
    },
    {
      "id": 49,
      "special": true,
      "content": "<unused_49>",
      "single_word": false,
      "lstrip": false,
      "rstrip": false,
      "normalized": false
    },
    {
      "id": 50,
      "special": true,
      "content": "<unused_50>",
      "single_word": false,
      "lstrip": false,
      "rstrip": false,
      "normalized": false
    },
    {
      "id": 51,
      "special": true,
      "content": "<unused_51>",
      "single_word": false,
      "lstrip": false,
      "rstrip": false,
      "normalized": false
    },
    {
      "id": 52,
      "special": true,
      "content": "<unused_52>",
      "single_word": false,
      "lstrip": false,
      "rstrip": false,
      "normalized": false
    },
    {
      "id": 53,
      "special": true,
      "content": "<unused_53>",
      "single_word": false,
      "lstrip": false,
      "rstrip": false,
      "normalized": false
    },
    {
      "id": 54,
      "special": true,
      "content": "<unused_54>",
      "single_word": false,
      "lstrip": false,
      "rstrip": false,
      "normalized": false
    },
    {
      "id": 55,
      "special": true,
      "content": "<unused_55>",
      "single_word": false,
      "lstrip": false,
      "rstrip": false,
      "normalized": false
    },
    {
      "id": 56,
      "special": true,
      "content": "<unused_56>",
      "single_word": false,
      "lstrip": false,
      "rstrip": false,
      "normalized": false
    },
    {
      "id": 57,
      "special": true,
      "content": "<unused_57>",
      "single_word": false,
      "lstrip": false,
      "rstrip": false,
      "normalized": false
    },
    {
      "id": 58,
      "special": true,
      "content": "<unused_58>",
      "single_word": false,
      "lstrip": false,
      "rstrip": false,
      "normalized": false
    },
    {
      "id": 59,
      "special": true,
      "content": "<unused_59>",
      "single_word": false,
      "lstrip": false,
      "rstrip": false,
      "normalized": false
    },
    {
      "id": 60,
      "special": true,
      "content": "<unused_60>",
      "single_word": false,
      "lstrip": false,
      "rstrip": false,
      "normalized": false
    },
    {
      "id": 61,
      "special": true,
      "content": "<unused_61>",
      "single_word": false,
      "lstrip": false,
      "rstrip": false,
      "normalized": false
    },
    {
      "id": 62,
      "special": true,
      "content": "<unused_62>",
      "single_word": false,
      "lstrip": false,
      "rstrip": false,
      "normalized": false
    },
    {
      "id": 63,
      "special": true,
      "content": "<unused_63>",
      "single_word": false,
      "lstrip": false,
      "rstrip": false,
      "normalized": false
    },
    {
      "id": 64,
      "special": true,
      "content": "<unused_64>",
      "single_word": false,
      "lstrip": false,
      "rstrip": false,
      "normalized": false
    },
    {
      "id": 65,
      "special": true,
      "content": "<unused_65>",
      "single_word": false,
      "lstrip": false,
      "rstrip": false,
      "normalized": false
    },
    {
      "id": 66,
      "special": true,
      "content": "<unused_66>",
      "single_word": false,
      "lstrip": false,
      "rstrip": false,
      "normalized": false
    },
    {
      "id": 67,
      "special": true,
      "content": "<unused_67>",
      "single_word": false,
      "lstrip": false,
      "rstrip": false,
      "normalized": false
    },
    {
      "id": 68,
      "special": true,
      "content": "<unused_68>",
      "single_word": false,
      "lstrip": false,
      "rstrip": false,
      "normalized": false
    },
    {
      "id": 69,
      "special": true,
      "content": "<unused_69>",
      "single_word": false,
      "lstrip": false,
      "rstrip": false,
      "normalized": false
    },
    {
      "id": 70,
      "special": true,
      "content": "<unused_70>",
      "single_word": false,
      "lstrip": false,
      "rstrip": false,
      "normalized": false
    },
    {
      "id": 71,
      "special": true,
      "content": "<unused_71>",
      "single_word": false,
      "lstrip": false,
      "rstrip": false,
      "normalized": false
    },
    {
      "id": 72,
      "special": true,
      "content": "<unused_72>",
      "single_word": false,
      "lstrip": false,
      "rstrip": false,
      "normalized": false
    },
    {
      "id": 73,
      "special": true,
      "content": "<unused_73>",
      "single_word": false,
      "lstrip": false,
      "rstrip": false,
      "normalized": false
    },
    {
      "id": 74,
      "special": true,
      "content": "<unused_74>",
      "single_word": false,
      "lstrip": false,
      "rstrip": false,
      "normalized": false
    },
    {
      "id": 75,
      "special": true,
      "content": "<unused_75>",
      "single_word": false,
      "lstrip": false,
      "rstrip": false,
      "normalized": false
    },
    {
      "id": 76,
      "special": true,
      "content": "<unused_76>",
      "single_word": false,
      "lstrip": false,
      "rstrip": false,
      "normalized": false
    },
    {
      "id": 77,
      "special": true,
      "content": "<unused_77>",
      "single_word": false,
      "lstrip": false,
      "rstrip": false,
      "normalized": false
    },
    {
      "id": 78,
      "special": true,
      "content": "<unused_78>",
      "single_word": false,
      "lstrip": false,
      "rstrip": false,
      "normalized": false
    },
    {
      "id": 79,
      "special": true,
      "content": "<unused_79>",
      "single_word": false,
      "lstrip": false,
      "rstrip": false,
      "normalized": false
    },
    {
      "id": 80,
      "special": true,
      "content": "<unused_80>",
      "single_word": false,
      "lstrip": false,
      "rstrip": false,
      "normalized": false
    },
    {
      "id": 81,
      "special": true,
      "content": "<unused_81>",
      "single_word": false,
      "lstrip": false,
      "rstrip": false,
      "normalized": false
    },
    {
      "id": 82,
      "special": true,
      "content": "<unused_82>",
      "single_word": false,
      "lstrip": false,
      "rstrip": false,
      "normalized": false
    },
    {
      "id": 83,
      "special": true,
      "content": "<unused_83>",
      "single_word": false,
      "lstrip": false,
      "rstrip": false,
      "normalized": false
    },
    {
      "id": 84,
      "special": true,
      "content": "<unused_84>",
      "single_word": false,
      "lstrip": false,
      "rstrip": false,
      "normalized": false
    },
    {
      "id": 85,
      "special": true,
      "content": "<unused_85>",
      "single_word": false,
      "lstrip": false,
      "rstrip": false,
      "normalized": false
    },
    {
      "id": 86,
      "special": true,
      "content": "<unused_86>",
      "single_word": false,
      "lstrip": false,
      "rstrip": false,
      "normalized": false
    },
    {
      "id": 87,
      "special": true,
      "content": "<unused_87>",
      "single_word": false,
      "lstrip": false,
      "rstrip": false,
      "normalized": false
    },
    {
      "id": 88,
      "special": true,
      "content": "<unused_88>",
      "single_word": false,
      "lstrip": false,
      "rstrip": false,
      "normalized": false
    },
    {
      "id": 89,
      "special": true,
      "content": "<unused_89>",
      "single_word": false,
      "lstrip": false,
      "rstrip": false,
      "normalized": false
    },
    {
      "id": 90,
      "special": true,
      "content": "<unused_90>",
      "single_word": false,
      "lstrip": false,
      "rstrip": false,
      "normalized": false
    },
    {
      "id": 91,
      "special": true,
      "content": "<unused_91>",
      "single_word": false,
      "lstrip": false,
      "rstrip": false,
      "normalized": false
    },
    {
      "id": 92,
      "special": true,
      "content": "<unused_92>",
      "single_word": false,
      "lstrip": false,
      "rstrip": false,
      "normalized": false
    },
    {
      "id": 93,
      "special": true,
      "content": "<unused_93>",
      "single_word": false,
      "lstrip": false,
      "rstrip": false,
      "normalized": false
    },
    {
      "id": 94,
      "special": true,
      "content": "<unused_94>",
      "single_word": false,
      "lstrip": false,
      "rstrip": false,
      "normalized": false
    },
    {
      "id": 95,
      "special": true,
      "content": "<unused_95>",
      "single_word": false,
      "lstrip": false,
      "rstrip": false,
      "normalized": false
    },
    {
      "id": 96,
      "special": true,
      "content": "<unused_96>",
      "single_word": false,
      "lstrip": false,
      "rstrip": false,
      "normalized": false
    },
    {
      "id": 97,
      "special": true,
      "content": "<unused_97>",
      "single_word": false,
      "lstrip": false,
      "rstrip": false,
      "normalized": false
    },
    {
      "id": 98,
      "special": true,
      "content": "<unused_98>",
      "single_word": false,
      "lstrip": false,
      "rstrip": false,
      "normalized": false
    },
    {
      "id": 99,
      "special": true,
      "content": "<unused_99>",
      "single_word": false,
      "lstrip": false,
      "rstrip": false,
      "normalized": false
    },
    {
      "id": 100,
      "special": true,
      "content": "[EOS]",
      "single_word": false,
      "lstrip": false,
      "rstrip": false,
      "normalized": false
    },
    {
      "id": 101,
      "special": true,
      "content": "[BOS]",
      "single_word": false,
      "lstrip": false,
      "rstrip": false,
      "normalized": false
    },
    {
      "id": 102,
      "special": true,
      "content": "[PAD]",
      "single_word": false,
      "lstrip": false,
      "rstrip": false,
      "normalized": false
    },
    {
      "id": 103,
      "special": true,
      "content": "[UNK]",
      "single_word": false,
      "lstrip": false,
      "rstrip": false,
      "normalized": false
    },
    {
      "id": 104,
      "special": true,
      "content": "[CLS]",
      "single_word": false,
      "lstrip": false,
      "rstrip": false,
      "normalized": false
    },
    {
      "id": 105,
      "special": true,
      "content": "[SEP]",
      "single_word": false,
      "lstrip": false,
      "rstrip": false,
      "normalized": false
    }
  ],
  "normalizer": {
    "type": "Sequence",
    "normalizers": [
      {
        "type": "NFD"
      },
      {
        "type": "StripAccents"
      },
      {
        "type": "Lowercase"
      }
    ]
  },
  "pre_tokenizer": {
    "type": "Whitespace"
  },
  "post_processor": null,
  "decoder": null,
  "model": {
    "type": "WordPiece",
    "unk_token": "[UNK]",
    "continuing_subword_prefix": "##",
    "max_input_chars_per_word": 100,
    "vocab": {
      "<unused_0>": 0,
      "<unused_1>": 1,
      "<unused_2>": 2,
      "<unused_3>": 3,
      "<unused_4>": 4,
      "<unused_5>": 5,
      "<unused_6>": 6,
      "<unused_7>": 7,
      "<unused_8>": 8,
      "<unused_9>": 9,
      "<unused_10>": 10,
      "<unused_11>": 11,
      "<unused_12>": 12,
      "<unused_13>": 13,
      "<unused_14>": 14,
      "<unused_15>": 15,
      "<unused_16>": 16,
      "<unused_17>": 17,
      "<unused_18>": 18,
      "<unused_19>": 19,
      "<unused_20>": 20,
      "<unused_21>": 21,
      "<unused_22>": 22,
      "<unused_23>": 23,
      "<unused_24>": 24,
      "<unused_25>": 25,
      "<unused_26>": 26,
      "<unused_27>": 27,
      "<unused_28>": 28,
      "<unused_29>": 29,
      "<unused_30>": 30,
      "<unused_31>": 31,
      "<unused_32>": 32,
      "<unused_33>": 33,
      "<unused_34>": 34,
      "<unused_35>": 35,
      "<unused_36>": 36,
      "<unused_37>": 37,
      "<unused_38>": 38,
      "<unused_39>": 39,
      "<unused_40>": 40,
      "<unused_41>": 41,
      "<unused_42>": 42,
      "<unused_43>": 43,
      "<unused_44>": 44,
      "<unused_45>": 45,
      "<unused_46>": 46,
      "<unused_47>": 47,
      "<unused_48>": 48,
      "<unused_49>": 49,
      "<unused_50>": 50,
      "<unused_51>": 51,
      "<unused_52>": 52,
      "<unused_53>": 53,
      "<unused_54>": 54,
      "<unused_55>": 55,
      "<unused_56>": 56,
      "<unused_57>": 57,
      "<unused_58>": 58,
      "<unused_59>": 59,
      "<unused_60>": 60,
      "<unused_61>": 61,
      "<unused_62>": 62,
      "<unused_63>": 63,
      "<unused_64>": 64,
      "<unused_65>": 65,
      "<unused_66>": 66,
      "<unused_67>": 67,
      "<unused_68>": 68,
      "<unused_69>": 69,
      "<unused_70>": 70,
      "<unused_71>": 71,
      "<unused_72>": 72,
      "<unused_73>": 73,
      "<unused_74>": 74,
      "<unused_75>": 75,
      "<unused_76>": 76,
      "<unused_77>": 77,
      "<unused_78>": 78,
      "<unused_79>": 79,
      "<unused_80>": 80,
      "<unused_81>": 81,
      "<unused_82>": 82,
      "<unused_83>": 83,
      "<unused_84>": 84,
      "<unused_85>": 85,
      "<unused_86>": 86,
      "<unused_87>": 87,
      "<unused_88>": 88,
      "<unused_89>": 89,
      "<unused_90>": 90,
      "<unused_91>": 91,
      "<unused_92>": 92,
      "<unused_93>": 93,
      "<unused_94>": 94,
      "<unused_95>": 95,
      "<unused_96>": 96,
      "<unused_97>": 97,
      "<unused_98>": 98,
      "<unused_99>": 99,
      "[EOS]": 100,
      "[BOS]": 101,
      "[PAD]": 102,
      "[UNK]": 103,
      "[CLS]": 104,
      "[SEP]": 105,
      "!": 106,
      "\"": 107,
      "#": 108,
      "$": 109,
      "%": 110,
      "&": 111,
      "'": 112,
      "(": 113,
      ")": 114,
      "*": 115,
      "+": 116,
      ",": 117,
      "-": 118,
      ".": 119,
      "/": 120,
      "0": 121,
      "1": 122,
      "2": 123,
      "3": 124,
      "4": 125,
      "5": 126,
      "6": 127,
      "7": 128,
      "8": 129,
      "9": 130,
      ":": 131,
      ";": 132,
      "<": 133,
      "=": 134,
      ">": 135,
      "?": 136,
      "@": 137,
      "[": 138,
      "\\": 139,
      "]": 140,
      "^": 141,
      "_": 142,
      "`": 143,
      "a": 144,
      "b": 145,
      "c": 146,
      "d": 147,
      "e": 148,
      "f": 149,
      "g": 150,
      "h": 151,
      "i": 152,
      "j": 153,
      "k": 154,
      "l": 155,
      "m": 156,
      "n": 157,
      "o": 158,
      "p": 159,
      "q": 160,
      "r": 161,
      "s": 162,
      "t": 163,
      "u": 164,
      "v": 165,
      "w": 166,
      "x": 167,
      "y": 168,
      "z": 169,
      "{": 170,
      "|": 171,
      "}": 172,
      "~": 173,
      "": 174,
      "": 175,
      "": 176,
      "¡": 177,
      "¢": 178,
      "£": 179,
      "¤": 180,
      "¥": 181,
      "¦": 182,
      "§": 183,
      "¨": 184,
      "©": 185,
      "ª": 186,
      "«": 187,
      "¬": 188,
      "­": 189,
      "®": 190,
      "¯": 191,
      "°": 192,
      "±": 193,
      "²": 194,
      "³": 195,
      "´": 196,
      "µ": 197,
      "·": 198,
      "¸": 199,
      "¹": 200,
      "º": 201,
      "»": 202,
      "¼": 203,
      "½": 204,
      "¾": 205,
      "¿": 206,
      "×": 207,
      "ß": 208,
      "æ": 209,
      "ð": 210,
      "÷": 211,
      "ø": 212,
      "ı": 213,
      "ĸ": 214,
      "œ": 215,
      "ƒ": 216,
      "ɛ": 217,
      "ɣ": 218,
      "ʼ": 219,
      "ʽ": 220,
      "ˆ": 221,
      "˙": 222,
      "˚": 223,
      "˜": 224,
      "˝": 225,
      "α": 226,
      "β": 227,
      "γ": 228,
      "δ": 229,
      "ε": 230,
      "ζ": 231,
      "η": 232,
      "θ": 233,
      "ι": 234,
      "κ": 235,
      "λ": 236,
      "μ": 237,
      "ν": 238,
      "ξ": 239,
      "ο": 240,
      "π": 241,
      "ρ": 242,
      "σ": 243,
      "τ": 244,
      "υ": 245,
      "φ": 246,
      "χ": 247,
      "ψ": 248,
      "ω": 249,
      "ϒ": 250,
      "ϕ": 251,
      "ϰ": 252,
      "а": 253,
      "и": 254,
      "к": 255,
      "л": 256,
      "м": 257,
      "н": 258,
      "о": 259,
      "р": 260,
      "с": 261,
      "т": 262,
      "ф": 263,
      "х": 264,
      "ר": 265,
      "ᄀ": 266,
      "ᄁ": 267,
      "ᄂ": 268,
      "ᄃ": 269,
      "ᄄ": 270,
      "ᄅ": 271,
      "ᄆ": 272,
      "ᄇ": 273,
      "ᄈ": 274,
      "ᄉ": 275,
      "ᄊ": 276,
      "ᄋ": 277,
      "ᄌ": 278,
      "ᄍ": 279,
      "ᄎ": 280,
      "ᄏ": 281,
      "ᄐ": 282,
      "ᄑ": 283,
      "ᄒ": 284,
      "ᅡ": 285,
      "ᅢ": 286,
      "ᅣ": 287,
      "ᅥ": 288,
      "ᅦ": 289,
      "ᅧ": 290,
      "ᅨ": 291,
      "ᅩ": 292,
      "ᅪ": 293,
      "ᅫ": 294,
      "ᅬ": 295,
      "ᅭ": 296,
      "ᅮ": 297,
      "ᅱ": 298,
      "ᅲ": 299,
      "ᅳ": 300,
      "ᅴ": 301,
      "ᅵ": 302,
      "ᆨ": 303,
      "ᆫ": 304,
      "ᆭ": 305,
      "ᆮ": 306,
      "ᆯ": 307,
      "ᆰ": 308,
      "ᆱ": 309,
      "ᆲ": 310,
      "ᆳ": 311,
      "ᆷ": 312,
      "ᆸ": 313,
      "ᆹ": 314,
      "ᆺ": 315,
      "ᆻ": 316,
      "ᆼ": 317,
      "ᆽ": 318,
      "ᆾ": 319,
      "ᇀ": 320,
      "ᇁ": 321,
      "ᇂ": 322,
      "​": 323,
      "‐": 324,
      "‑": 325,
      "–": 326,
      "—": 327,
      "―": 328,
      "‘": 329,
      "’": 330,
      "“": 331,
      "”": 332,
      "„": 333,
      "†": 334,
      "•": 335,
      "…": 336,
      "‰": 337,
      "′": 338,
      "″": 339,
      "‹": 340,
      "※": 341,
      "⁀": 342,
      "⁴": 343,
      "₁": 344,
      "₂": 345,
      "₃": 346,
      "€": 347,
      "℃": 348,
      "℉": 349,
      "ℓ": 350,
      "™": 351,
      "⅚": 352,
      "ⅰ": 353,
      "ⅱ": 354,
      "ⅲ": 355,
      "ⅳ": 356,
      "ⅴ": 357,
      "ⅷ": 358,
      "ⅸ": 359,
      "ⅹ": 360,
      "←": 361,
      "↑": 362,
      "→": 363,
      "↓": 364,
      "↔": 365,
      "∀": 366,
      "∂": 367,
      "∇": 368,
      "∈": 369,
      "∑": 370,
      "−": 371,
      "√": 372,
      "∝": 373,
      "∞": 374,
      "∠": 375,
      "∥": 376,
      "∧": 377,
      "∨": 378,
      "∩": 379,
      "∪": 380,
      "∫": 381,
      "∮": 382,
      "∴": 383,
      "∼": 384,
      "≈": 385,
      "≒": 386,
      "≡": 387,
      "≤": 388,
      "≥": 389,
      "≦": 390,
      "≧": 391,
      "⊂": 392,
      "⊃": 393,
      "⊆": 394,
      "⊕": 395,
      "⋅": 396,
      "⌈": 397,
      "⌋": 398,
      "①": 399,
      "②": 400,
      "③": 401,
      "④": 402,
      "⑤": 403,
      "⑥": 404,
      "⑦": 405,
      "⑧": 406,
      "⑨": 407,
      "⑩": 408,
      "⑫": 409,
      "⑬": 410,
      "⑭": 411,
      "⑮": 412,
      "⑵": 413,
      "⑺": 414,
      "⑻": 415,
      "ⓐ": 416,
      "ⓑ": 417,
      "ⓒ": 418,
      "ⓓ": 419,
      "ⓔ": 420,
      "ⓕ": 421,
      "ⓞ": 422,
      "ⓡ": 423,
      "ⓧ": 424,
      "─": 425,
      "│": 426,
      "┃": 427,
      "┌": 428,
      "┎": 429,
      "┏": 430,
      "┒": 431,
      "┓": 432,
      "┗": 433,
      "┛": 434,
      "┳": 435,
      "┼": 436,
      "═": 437,
      "□": 438,
      "▣": 439,
      "▲": 440,
      "△": 441,
      "▵": 442,
      "▶": 443,
      "▼": 444,
      "◀": 445,
      "○": 446,
      "●": 447,
      "★": 448,
      "♣": 449,
      "、": 450,
      "〈": 451,
      "「": 452,
      "」": 453,
      "『": 454,
      "』": 455,
      "〔": 456,
      "〕": 457,
      "あ": 458,
      "か": 459,
      "く": 460,
      "さ": 461,
      "た": 462,
      "な": 463,
      "は": 464,
      "ま": 465,
      "や": 466,
      "ら": 467,
      "わ": 468,
      "・": 469,
      "ㄱ": 470,
      "ㄲ": 471,
      "ㄴ": 472,
      "ㄷ": 473,
      "ㄸ": 474,
      "ㄹ": 475,
      "ㅀ": 476,
      "ㅁ": 477,
      "ㅂ": 478,
      "ㅃ": 479,
      "ㅅ": 480,
      "ㅆ": 481,
      "ㅇ": 482,
      "ㅈ": 483,
      "ㅉ": 484,
      "ㅊ": 485,
      "ㅋ": 486,
      "ㅌ": 487,
      "ㅍ": 488,
      "ㅎ": 489,
      "ㅏ": 490,
      "ㅐ": 491,
      "ㅑ": 492,
      "ㅒ": 493,
      "ㅓ": 494,
      "ㅔ": 495,
      "ㅕ": 496,
      "ㅖ": 497,
      "ㅗ": 498,
      "ㅘ": 499,
      "ㅙ": 500,
      "ㅚ": 501,
      "ㅛ": 502,
      "ㅜ": 503,
      "ㅝ": 504,
      "ㅞ": 505,
      "ㅟ": 506,
      "ㅠ": 507,
      "ㅡ": 508,
      "ㅢ": 509,
      "ㅣ": 510,
      "ㆄ": 511,
      "ㆍ": 512,
      "㉬": 513,
      "㎀": 514,
      "㎂": 515,
      "㎄": 516,
      "㎍": 517,
      "㎎": 518,
      "㎏": 519,
      "㎐": 520,
      "㎑": 521,
      "㎒": 522,
      "㎓": 523,
      "㎕": 524,
      "㎖": 525,
      "㎚": 526,
      "㎛": 527,
      "㎜": 528,
      "㎝": 529,
      "㎟": 530,
      "㎠": 531,
      "㎡": 532,
      "㎣": 533,
      "㎤": 534,
      "㎥": 535,
      "㎩": 536,
      "㎪": 537,
      "㎫": 538,
      "㎬": 539,
      "㎲": 540,
      "㎳": 541,
      "㎶": 542,
      "㎷": 543,
      "㎸": 544,
      "㎼": 545,
      "㎽": 546,
      "㏈": 547,
      "㏖": 548,
      "一": 549,
      "三": 550,
      "主": 551,
      "亮": 552,
      "介": 553,
      "付": 554,
      "体": 555,
      "侶": 556,
      "僚": 557,
      "入": 558,
      "全": 559,
      "冷": 560,
      "凸": 561,
      "凹": 562,
      "出": 563,
      "劣": 564,
      "化": 565,
      "十": 566,
      "占": 567,
      "厚": 568,
      "向": 569,
      "在": 570,
      "坰": 571,
      "媛": 572,
      "子": 573,
      "密": 574,
      "對": 575,
      "小": 576,
      "属": 577,
      "廓": 578,
      "徑": 579,
      "慣": 580,
      "慮": 581,
      "接": 582,
      "揃": 583,
      "擊": 584,
      "景": 585,
      "最": 586,
      "棺": 587,
      "槐": 588,
      "比": 589,
      "气": 590,
      "氣": 591,
      "水": 592,
      "沸": 593,
      "浸": 594,
      "漬": 595,
      "灌": 596,
      "無": 597,
      "煮": 598,
      "燒": 599,
      "爐": 600,
      "琯": 601,
      "環": 602,
      "相": 603,
      "硫": 604,
      "種": 605,
      "竊": 606,
      "竜": 607,
      "粒": 608,
      "細": 609,
      "罐": 610,
      "花": 611,
      "芳": 612,
      "茶": 613,
      "蒸": 614,
      "藥": 615,
      "虜": 616,
      "衝": 617,
      "袖": 618,
      "裝": 619,
      "裡": 620,
      "豈": 621,
      "貫": 622,
      "賊": 623,
      "軀": 624,
      "軸": 625,
      "過": 626,
      "遲": 627,
      "部": 628,
      "關": 629,
      "防": 630,
      "陸": 631,
      "隆": 632,
      "面": 633,
      "香": 634,
      "點": 635,
      "": 636,
      "": 637,
      "％": 638,
      "＋": 639,
      "，": 640,
      "；": 641,
      "＜": 642,
      "＞": 643,
      "＠": 644,
      "ｎ": 645,
      "｜": 646,
      "�": 647,
      "##h": 648,
      "##a": 649,
      "##l": 650,
      "##i": 651,
      "##p": 652,
      "##o": 653,
      "##s": 654,
      "##u": 655,
      "##c": 656,
      "##t": 657,
      "##n": 658,
      "##y": 659,
      "##m": 660,
      "##z": 661,
      "##e": 662,
      "##r": 663,
      "##d": 664,
      "##g": 665,
      "##4": 666,
      "##0": 667,
      "##k": 668,
      "##v": 669,
      "##7": 670,
      "##2": 671,
      "##5": 672,
      "##f": 673,
      "##3": 674,
      "##q": 675,
      "##b": 676,
      "##ᅮ": 677,
      "##ᆯ": 678,
      "##ᄌ": 679,
      "##ᅵ": 680,
      "##ᄋ": 681,
      "##ᄃ": 682,
      "##ᅡ": 683,
      "##1": 684,
      "##x": 685,
      "##w": 686,
      "##℃": 687,
      "##_": 688,
      "##π": 689,
      "##9": 690,
      "##8": 691,
      "##6": 692,
      "##j": 693,
      "##\"": 694,
      "##)": 695,
      "##;": 696,
      "##㎠": 697,
      "##{": 698,
      "##[": 699,
      "##ᅭ": 700,
      "##ᄀ": 701,
      "##ᆻ": 702,
      "##ᅳ": 703,
      "##-": 704,
      "##>": 705,
      "##(": 706,
      "##\\": 707,
      "##β": 708,
      "##δ": 709,
      "##ᆫ": 710,
      "##ᄉ": 711,
      "##ᅥ": 712,
      "##ᆼ": 713,
      "##·": 714,
      "##ρ": 715,
      "##/": 716,
      "##ᄒ": 717,
      "##ß": 718,
      "##+": 719,
      "##ψ": 720,
      "##*": 721,
      "##.": 722,
      "##&": 723,
      "##|": 724,
      "##ᄅ": 725,
      "##ᅩ": 726,
      "##ω": 727,
      "##ᅧ": 728,
      "##ᆸ": 729,
      "##ᄆ": 730,
      "##]": 731,
      "##º": 732,
      "##'": 733,
      "##λ": 734,
      "##,": 735,
      "##%": 736,
      "##竊": 737,
      "##­": 738,
      "##?": 739,
      "##α": 740,
      "##入": 741,
      "##∼": 742,
      "##:": 743,
      "##�": 744,
      "##ᆷ": 745,
      "##ᄇ": 746,
      "##ᅦ": 747,
      "##œ": 748,
      "##!": 749,
      "##μ": 750,
      "##<": 751,
      "##^": 752,
      "##ᅢ": 753,
      "##ᅴ": 754,
      "##√": 755,
      "##±": 756,
      "##=": 757,
      "##’": 758,
      "##ᅬ": 759,
      "##ᄂ": 760,
      "##ᅨ": 761,
      "##ᆱ": 762,
      "##ᅱ": 763,
      "##´": 764,
      "##ð": 765,
      "##¦": 766,
      "##~": 767,
      "##θ": 768,
      "##≤": 769,
      "##┛": 770,
      "##ɣ": 771,
      "##∑": 772,
      "##ᅪ": 773,
      "##ᆨ": 774,
      "##γ": 775,
      "##㎡": 776,
      "##¢": 777,
      "##ᄁ": 778,
      "##}": 779,
      "##⊃": 780,
      "##@": 781,
      "##£": 782,
      "##ᅲ": 783,
      "##‘": 784,
      "##↑": 785,
      "###": 786,
      "##′": 787,
      "##”": 788,
      "##¬": 789,
      "##ᄎ": 790,
      "##″": 791,
      "##ᄐ": 792,
      "##$": 793,
      "##‰": 794,
      "##¤": 795,
      "##ᇂ": 796,
      "##ᄍ": 797,
      "##⋅": 798,
      "##°": 799,
      "##ø": 800,
      "##漬": 801,
      "##½": 802,
      "##＋": 803,
      "##㎟": 804,
      "##≧": 805,
      "##ˆ": 806,
      "##ε": 807,
      "##▶": 808,
      "##φ": 809,
      "##σ": 810,
      "##¸": 811,
      "##¥": 812,
      "##µ": 813,
      "##×": 814,
      "##¯": 815,
      "##①": 816,
      "##³": 817,
      "##㉬": 818,
      "##ᅣ": 819,
      "##ⅲ": 820,
      "##`": 821,
      "##煮": 822,
      "##ι": 823,
      "##」": 824,
      "##』": 825,
      "##“": 826,
      "##‹": 827,
      "##…": 828,
      "##ᆺ": 829,
      "##ᄑ": 830,
      "##相": 831,
      "##軸": 832,
      "##ζ": 833,
      "##⊂": 834,
      "##擊": 835,
      "##ᄏ": 836,
      "##陸": 837,
      "##⑤": 838,
      "##ㆍ": 839,
      "##∧": 840,
      "##¡": 841,
      "##在": 842,
      "##；": 843,
      "##②": 844,
      "##ᆭ": 845,
      "##≥": 846,
      "##⑧": 847,
      "##÷": 848,
      "##υ": 849,
      "##┗": 850,
      "##㎄": 851,
      "##ᆳ": 852,
      "##η": 853,
      "##┏": 854,
      "##ⓐ": 855,
      "##ᆲ": 856,
      "##®": 857,
      "##景": 858,
      "##㎝": 859,
      "##²": 860,
      "##厚": 861,
      "##部": 862,
      "##㎛": 863,
      "##□": 864,
      "##»": 865,
      "##○": 866,
      "##㎖": 867,
      "##花": 868,
      "##∩": 869,
      "##㎤": 870,
      "##香": 871,
      "##環": 872,
      "##ᅫ": 873,
      "##р": 874,
      "##ᆽ": 875,
      "##種": 876,
      "##≈": 877,
      "##τ": 878,
      "##ʼ": 879,
      "##│": 880,
      "##∫": 881,
      "##→": 882,
      "##": 883,
      "##｜": 884,
      "##┌": 885,
      "##㎥": 886,
      "##徑": 887,
      "##ⅴ": 888,
      "##ν": 889,
      "##¿": 890,
      "##⑭": 891,
      "##⑦": 892,
      "##ᆰ": 893,
      "##​": 894,
      "##¾": 895,
      "##κ": 896,
      "##ı": 897,
      "##ª": 898,
      "##≒": 899,
      "##ᇀ": 900,
      "##—": 901,
      "##比": 902,
      "##æ": 903,
      "##ᆮ": 904,
      "##ο": 905,
      "##−": 906,
      "##密": 907,
      "##–": 908,
      "##ᆾ": 909,
      "##₃": 910,
      "##∇": 911,
      "##㎜": 912,
      "##ᄄ": 913,
      "##⑩": 914,
      "##┳": 915,
      "##˝": 916,
      "##④": 917,
      "##㎣": 918,
      "##┓": 919,
      "##占": 920,
      "##㎏": 921,
      "##㎷": 922,
      "##⑫": 923,
      "##∞": 924,
      "##∀": 925,
      "##х": 926,
      "##◀": 927,
      "##付": 928,
      "##←": 929,
      "##點": 930,
      "##ℓ": 931,
      "##«": 932,
      "##△": 933,
      "##⑨": 934,
      "##а": 935,
      "##⑮": 936,
      "##㎳": 937,
      "##л": 938,
      "##к": 939,
      "##и": 940,
      "##∂": 941,
      "##罐": 942,
      "##•": 943,
      "##©": 944,
      "##ⅰ": 945,
      "##ᇁ": 946,
      "##ⅹ": 947,
      "##¼": 948,
      "##═": 949,
      "##化": 950,
      "##§": 951,
      "##χ": 952,
      "##出": 953,
      "##ㅛ": 954,
      "##ᆹ": 955,
      "##∪": 956,
      "##③": 957,
      "##冷": 958,
      "##㎑": 959,
      "##⊆": 960,
      "##he": 961,
      "##in": 962,
      "the": 963,
      "##on": 964,
      "##er": 965,
      "##ing": 966,
      "##at": 967,
      "##or": 968,
      "an": 969,
      "##ed": 970,
      "##en": 971,
      "##es": 972,
      "in": 973,
      "##ion": 974,
      "of": 975,
      "##it": 976,
      "##ro": 977,
      "##al": 978,
      "and": 979,
      "##ic": 980,
      "##ct": 981,
      "to": 982,
      "##an": 983,
      "##ar": 984,
      "##re": 985,
      "##st": 986,
      "##ent": 987,
      "##le": 988,
      "##et": 989,
      "co": 990,
      "##id": 991,
      "for": 992,
      "con": 993,
      "is": 994,
      "##ur": 995,
      "re": 996,
      "##is": 997,
      "##mp": 998,
      "##ut": 999,
      "##ce": 1000,
      "##as": 1001,
      "##ation": 1002,
      "pro": 1003,
      "##ly": 1004,
      "##od": 1005,
      "##ir": 1006,
      "st": 1007,
      "##ig": 1008,
      "##iv": 1009,
      "on": 1010,
      "se": 1011,
      "##os": 1012,
      "##pp": 1013,
      "##ol": 1014,
      "comp": 1015,
      "##ect": 1016,
      "##el": 1017,
      "##res": 1018,
      "by": 1019,
      "##il": 1020,
      "##ch": 1021,
      "su": 1022,
      "th": 1023,
      "##ag": 1024,
      "##ot": 1025,
      "##ul": 1026,
      "##ay": 1027,
      "cont": 1028,
      "##ow": 1029,
      "##ate": 1030,
      "##em": 1031,
      "##am": 1032,
      "##ding": 1033,
      "##us": 1034,
      "##un": 1035,
      "de": 1036,
      "##ter": 1037,
      "or": 1038,
      "##ith": 1039,
      "##vent": 1040,
      "un": 1041,
      "with": 1042,
      "##hic": 1043,
      "##ide": 1044,
      "##art": 1045,
      "##lect": 1046,
      "pres": 1047,
      "us": 1048,
      "##ab": 1049,
      "##ain": 1050,
      "##lu": 1051,
      "be": 1052,
      "met": 1053,
      "##ess": 1054,
      "##ran": 1055,
      "at": 1056,
      "prov": 1057,
      "##ac": 1058,
      "pl": 1059,
      "##ating": 1060,
      "##rom": 1061,
      "##for": 1062,
      "##ond": 1063,
      "form": 1064,
      "##ort": 1065,
      "dis": 1066,
      "fir": 1067,
      "##im": 1068,
      "unit": 1069,
      "##ure": 1070,
      "first": 1071,
      "##hich": 1072,
      "which": 1073,
      "##age": 1074,
      "##ice": 1075,
      "##act": 1076,
      "##ity": 1077,
      "provid": 1078,
      "part": 1079,
      "##av": 1080,
      "ac": 1081,
      "ex": 1082,
      "##vention": 1083,
      "inc": 1084,
      "from": 1085,
      "are": 1086,
      "##ive": 1087,
      "##ad": 1088,
      "##igh": 1089,
      "##ap": 1090,
      "di": 1091,
      "invention": 1092,
      "##uct": 1093,
      "en": 1094,
      "as": 1095,
      "##form": 1096,
      "meth": 1097,
      "sec": 1098,
      "##vice": 1099,
      "present": 1100,
      "##ver": 1101,
      "ch": 1102,
      "method": 1103,
      "##ace": 1104,
      "##um": 1105,
      "##ater": 1106,
      "##ated": 1107,
      "second": 1108,
      "##rans": 1109,
      "##ast": 1110,
      "trans": 1111,
      "##ris": 1112,
      "##ition": 1113,
      "compris": 1114,
      "##ber": 1115,
      "##min": 1116,
      "##rol": 1117,
      "inclu": 1118,
      "##oc": 1119,
      "##ical": 1120,
      "sp": 1121,
      "whe": 1122,
      "provided": 1123,
      "device": 1124,
      "##ign": 1125,
      "control": 1126,
      "##qu": 1127,
      "##ment": 1128,
      "##ting": 1129,
      "res": 1130,
      "op": 1131,
      "##ial": 1132,
      "##ip": 1133,
      "one": 1134,
      "##iz": 1135,
      "le": 1136,
      "##om": 1137,
      "##ates": 1138,
      "##if": 1139,
      "mo": 1140,
      "supp": 1141,
      "al": 1142,
      "##ens": 1143,
      "elect": 1144,
      "acc": 1145,
      "##ight": 1146,
      "out": 1147,
      "hav": 1148,
      "app": 1149,
      "ad": 1150,
      "##all": 1151,
      "##ermin": 1152,
      "##her": 1153,
      "##pos": 1154,
      "##able": 1155,
      "##nect": 1156,
      "##pl": 1157,
      "##ower": 1158,
      "10": 1159,
      "##fer": 1160,
      "connect": 1161,
      "sh": 1162,
      "##ix": 1163,
      "sign": 1164,
      "##rou": 1165,
      "##ayer": 1166,
      "pre": 1167,
      "##yst": 1168,
      "##ction": 1169,
      "##ist": 1170,
      "rel": 1171,
      "signal": 1172,
      "##ine": 1173,
      "layer": 1174,
      "dr": 1175,
      "##cess": 1176,
      "##ase": 1177,
      "sur": 1178,
      "that": 1179,
      "he": 1180,
      "having": 1181,
      "dat": 1182,
      "sub": 1183,
      "ste": 1184,
      "formed": 1185,
      "port": 1186,
      "##ution": 1187,
      "so": 1188,
      "##formation": 1189,
      "includ": 1190,
      "int": 1191,
      "information": 1192,
      "data": 1193,
      "mem": 1194,
      "##put": 1195,
      "can": 1196,
      "##face": 1197,
      "##ve": 1198,
      "gen": 1199,
      ").": 1200,
      "##ach": 1201,
      "##ib": 1202,
      "##yl": 1203,
      "po": 1204,
      "det": 1205,
      "per": 1206,
      "##osition": 1207,
      "##der": 1208,
      "##str": 1209,
      "com": 1210,
      "process": 1211,
      "rece": 1212,
      "##etw": 1213,
      "##ted": 1214,
      "##ge": 1215,
      "),": 1216,
      "gener": 1217,
      "##ame": 1218,
      "fil": 1219,
      "using": 1220,
      "##ous": 1221,
      "there": 1222,
      "##ystem": 1223,
      "system": 1224,
      "comprises": 1225,
      "ins": 1226,
      "##ording": 1227,
      "surface": 1228,
      "##ore": 1229,
      "fr": 1230,
      "##ack": 1231,
      "##stit": 1232,
      "includes": 1233,
      "portion": 1234,
      "##gh": 1235,
      "##ural": 1236,
      "pur": 1237,
      "##ody": 1238,
      "relates": 1239,
      "##und": 1240,
      "man": 1241,
      "according": 1242,
      "##ication": 1243,
      "body": 1244,
      "str": 1245,
      "##uc": 1246,
      "##ard": 1247,
      "##ant": 1248,
      "me": 1249,
      "step": 1250,
      "inter": 1251,
      "mod": 1252,
      "##rough": 1253,
      "##mit": 1254,
      "##th": 1255,
      "receiv": 1256,
      "##ff": 1257,
      "ar": 1258,
      "side": 1259,
      "constit": 1260,
      "through": 1261,
      "##de": 1262,
      "##low": 1263,
      "##ther": 1264,
      "20": 1265,
      "##uring": 1266,
      "##ock": 1267,
      "plural": 1268,
      "##pose": 1269,
      "im": 1270,
      "##arat": 1271,
      "##ance": 1272,
      "pr": 1273,
      "##tr": 1274,
      "imp": 1275,
      "constitution": 1276,
      "purpose": 1277,
      "least": 1278,
      "##pper": 1279,
      "te": 1280,
      "rot": 1281,
      "##aterial": 1282,
      "material": 1283,
      "ph": 1284,
      "##ile": 1285,
      "##ult": 1286,
      "##duct": 1287,
      "water": 1288,
      "plurality": 1289,
      "##een": 1290,
      "apparat": 1291,
      "apparatus": 1292,
      "##etween": 1293,
      "cl": 1294,
      "member": 1295,
      "oper": 1296,
      "##ell": 1297,
      "##ass": 1298,
      "between": 1299,
      "##and": 1300,
      "displ": 1301,
      "##ject": 1302,
      "electro": 1303,
      "termin": 1304,
      "each": 1305,
      "user": 1306,
      "##sion": 1307,
      "contain": 1308,
      "where": 1309,
      "val": 1310,
      "##par": 1311,
      "bl": 1312,
      "ser": 1313,
      "terminal": 1314,
      "into": 1315,
      "##ence": 1316,
      "display": 1317,
      "##ak": 1318,
      "end": 1319,
      "power": 1320,
      "##mo": 1321,
      "##irc": 1322,
      "support": 1323,
      "stor": 1324,
      "more": 1325,
      "sc": 1326,
      "comm": 1327,
      "sens": 1328,
      "connected": 1329,
      "##ator": 1330,
      "11": 1331,
      "has": 1332,
      "poly": 1333,
      "inst": 1334,
      "bas": 1335,
      "##atter": 1336,
      "tim": 1337,
      "circ": 1338,
      "ob": 1339,
      "when": 1340,
      "##ary": 1341,
      "dire": 1342,
      "substr": 1343,
      "it": 1344,
      "plate": 1345,
      "fix": 1346,
      "we": 1347,
      "electr": 1348,
      "sol": 1349,
      "##ub": 1350,
      "##og": 1351,
      "##ust": 1352,
      "reg": 1353,
      "upper": 1354,
      "comprising": 1355,
      "##ire": 1356,
      "light": 1357,
      "cor": 1358,
      "install": 1359,
      "substrate": 1360,
      "lower": 1361,
      "image": 1362,
      "##ert": 1363,
      "##ling": 1364,
      "ab": 1365,
      "12": 1366,
      "##pe": 1367,
      "car": 1368,
      "cap": 1369,
      "##ied": 1370,
      "air": 1371,
      "spe": 1372,
      "##ue": 1373,
      "##ular": 1374,
      "main": 1375,
      "transmit": 1376,
      "output": 1377,
      "red": 1378,
      "##ork": 1379,
      "chan": 1380,
      "select": 1381,
      "composition": 1382,
      "struct": 1383,
      "##ong": 1384,
      "##uf": 1385,
      "time": 1386,
      "30": 1387,
      "tr": 1388,
      "film": 1389,
      "wherein": 1390,
      "##ft": 1391,
      "##ically": 1392,
      "ho": 1393,
      "prevent": 1394,
      "detect": 1395,
      "##arg": 1396,
      "input": 1397,
      "sa": 1398,
      "##ving": 1399,
      "##ler": 1400,
      "eff": 1401,
      "press": 1402,
      "col": 1403,
      "based": 1404,
      "driv": 1405,
      "##est": 1406,
      "cell": 1407,
      "direction": 1408,
      "including": 1409,
      "perform": 1410,
      "##op": 1411,
      "##pon": 1412,
      "##ner": 1413,
      "##olt": 1414,
      "rec": 1415,
      "##ies": 1416,
      "structure": 1417,
      "##enc": 1418,
      "supply": 1419,
      "commun": 1420,
      "ass": 1421,
      "other": 1422,
      "position": 1423,
      "bo": 1424,
      "act": 1425,
      "##lement": 1426,
      "impro": 1427,
      "installed": 1428,
      "ne": 1429,
      "high": 1430,
      "em": 1431,
      "##uit": 1432,
      "frame": 1433,
      "gas": 1434,
      "##gr": 1435,
      "li": 1436,
      "##of": 1437,
      "electrode": 1438,
      "##ers": 1439,
      "##ature": 1440,
      "line": 1441,
      "##ient": 1442,
      "temp": 1443,
      "partic": 1444,
      "##out": 1445,
      "cur": 1446,
      "##ufact": 1447,
      "hy": 1448,
      "manufact": 1449,
      "##tain": 1450,
      "##ement": 1451,
      "bot": 1452,
      "ve": 1453,
      "##ium": 1454,
      "##cl": 1455,
      "##ress": 1456,
      "##ont": 1457,
      "fl": 1458,
      "ty": 1459,
      "##roup": 1460,
      "##ule": 1461,
      "set": 1462,
      "group": 1463,
      "##ual": 1464,
      "gro": 1465,
      "##ound": 1466,
      "##one": 1467,
      "circuit": 1468,
      "##duc": 1469,
      "cou": 1470,
      "pip": 1471,
      "##ency": 1472,
      "receiving": 1473,
      "##io": 1474,
      "##osed": 1475,
      "mix": 1476,
      "##hed": 1477,
      "ag": 1478,
      "operation": 1479,
      "##se": 1480,
      "sl": 1481,
      "vehic": 1482,
      "not": 1483,
      "forming": 1484,
      "base": 1485,
      "heat": 1486,
      "##tion": 1487,
      "gu": 1488,
      "wh": 1489,
      "communication": 1490,
      "temper": 1491,
      "open": 1492,
      "##ite": 1493,
      "coupl": 1494,
      "such": 1495,
      "appl": 1496,
      "metal": 1497,
      "meas": 1498,
      "block": 1499,
      "weight": 1500,
      "##int": 1501,
      "add": 1502,
      "##pect": 1503,
      "mult": 1504,
      "##agn": 1505,
      "sensor": 1506,
      "pred": 1507,
      "type": 1508,
      "##ten": 1509,
      "vehicle": 1510,
      "wire": 1511,
      "no": 1512,
      "##let": 1513,
      "##ference": 1514,
      "determin": 1515,
      "temperature": 1516,
      "element": 1517,
      "##unction": 1518,
      "##ric": 1519,
      "tre": 1520,
      "sw": 1521,
      "##00": 1522,
      "same": 1523,
      "hol": 1524,
      "##ie": 1525,
      "##ents": 1526,
      "hyd": 1527,
      "volt": 1528,
      "mot": 1529,
      "##ia": 1530,
      "br": 1531,
      "##ility": 1532,
      "##ively": 1533,
      "product": 1534,
      "moun": 1535,
      "being": 1536,
      "tw": 1537,
      "##mer": 1538,
      "cr": 1539,
      "##ged": 1540,
      "contact": 1541,
      "##ory": 1542,
      "aut": 1543,
      "do": 1544,
      "100": 1545,
      "module": 1546,
      "used": 1547,
      "thereof": 1548,
      "##ying": 1549,
      "##ized": 1550,
      "##urce": 1551,
      "13": 1552,
      "voltage": 1553,
      "##ved": 1554,
      "disch": 1555,
      "##arge": 1556,
      "##les": 1557,
      "corres": 1558,
      "emb": 1559,
      "cover": 1560,
      "spec": 1561,
      "pipe": 1562,
      "manufacturing": 1563,
      "num": 1564,
      "region": 1565,
      "sem": 1566,
      "value": 1567,
      "##nel": 1568,
      "##posed": 1569,
      "##ud": 1570,
      "driving": 1571,
      "fo": 1572,
      "hole": 1573,
      "gr": 1574,
      "##attern": 1575,
      "##ured": 1576,
      "##ans": 1577,
      "pattern": 1578,
      "shap": 1579,
      "arran": 1580,
      "##ier": 1581,
      "pressure": 1582,
      "##aft": 1583,
      "ox": 1584,
      "##ind": 1585,
      "fi": 1586,
      "than": 1587,
      "##eng": 1588,
      "fre": 1589,
      "##ari": 1590,
      "two": 1591,
      "ref": 1592,
      ");": 1593,
      "pan": 1594,
      "liqu": 1595,
      "##ph": 1596,
      "prot": 1597,
      "state": 1598,
      "containing": 1599,
      "##ink": 1600,
      "may": 1601,
      "opt": 1602,
      "processing": 1603,
      "compound": 1604,
      "hous": 1605,
      "loc": 1606,
      "she": 1607,
      "adj": 1608,
      "function": 1609,
      "##ission": 1610,
      "lo": 1611,
      "rep": 1612,
      "##hes": 1613,
      "inner": 1614,
      "##onduct": 1615,
      "flow": 1616,
      "des": 1617,
      "curr": 1618,
      "##gan": 1619,
      "##ath": 1620,
      "##vel": 1621,
      "extr": 1622,
      "outer": 1623,
      "##by": 1624,
      "ro": 1625,
      "##amp": 1626,
      "comb": 1627,
      "semic": 1628,
      "separ": 1629,
      "resin": 1630,
      "space": 1631,
      "##ill": 1632,
      "effect": 1633,
      "area": 1634,
      "##hing": 1635,
      "##ponding": 1636,
      "##old": 1637,
      "panel": 1638,
      "##onductor": 1639,
      "##ching": 1640,
      "##emb": 1641,
      "semiconductor": 1642,
      "14": 1643,
      "##ible": 1644,
      "current": 1645,
      "##ally": 1646,
      "corresponding": 1647,
      "liquid": 1648,
      "fe": 1649,
      "shaft": 1650,
      "specif": 1651,
      "##ick": 1652,
      "swit": 1653,
      "##ulating": 1654,
      "channel": 1655,
      "use": 1656,
      "ind": 1657,
      "up": 1658,
      "rad": 1659,
      "##acter": 1660,
      "##ode": 1661,
      "flu": 1662,
      "conf": 1663,
      "conduct": 1664,
      "server": 1665,
      "number": 1666,
      "pass": 1667,
      "transfer": 1668,
      "##izing": 1669,
      "remo": 1670,
      "vari": 1671,
      "conver": 1672,
      "##less": 1673,
      "##ward": 1674,
      "cent": 1675,
      "assemb": 1676,
      "##ail": 1677,
      "requ": 1678,
      "scre": 1679,
      "##etwork": 1680,
      "object": 1681,
      "embod": 1682,
      "network": 1683,
      "dif": 1684,
      "cond": 1685,
      "source": 1686,
      "##unt": 1687,
      "hydro": 1688,
      "housing": 1689,
      "dec": 1690,
      "fixed": 1691,
      "##onic": 1692,
      "obtain": 1693,
      "##etermin": 1694,
      "predetermin": 1695,
      "filter": 1696,
      "15": 1697,
      "##ize": 1698,
      "predetermined": 1699,
      "embodim": 1700,
      "##ord": 1701,
      "##mission": 1702,
      "##ene": 1703,
      "means": 1704,
      "id": 1705,
      "##eld": 1706,
      "##ove": 1707,
      "##ane": 1708,
      "##nal": 1709,
      "med": 1710,
      "cal": 1711,
      "storage": 1712,
      "memory": 1713,
      "sy": 1714,
      "##agnet": 1715,
      "##bon": 1716,
      "generating": 1717,
      "thereby": 1718,
      "##ank": 1719,
      "pack": 1720,
      "cham": 1721,
      "char": 1722,
      "arranged": 1723,
      "transmission": 1724,
      "discl": 1725,
      "21": 1726,
      "prepar": 1727,
      "##uce": 1728,
      "par": 1729,
      "##ox": 1730,
      "rol": 1731,
      "guide": 1732,
      "connection": 1733,
      "40": 1734,
      "chamber": 1735,
      "controlling": 1736,
      "##end": 1737,
      "compon": 1738,
      "el": 1739,
      "fixing": 1740,
      "extract": 1741,
      "reduc": 1742,
      "capable": 1743,
      "##ulation": 1744,
      "##air": 1745,
      "said": 1746,
      "##ade": 1747,
      "##chan": 1748,
      "##so": 1749,
      "cool": 1750,
      "che": 1751,
      "sil": 1752,
      "mic": 1753,
      "inside": 1754,
      "##ength": 1755,
      "steps": 1756,
      "##ferent": 1757,
      "front": 1758,
      "acid": 1759,
      "##ture": 1760,
      "case": 1761,
      "produc": 1762,
      "motor": 1763,
      "mon": 1764,
      "##ven": 1765,
      "particular": 1766,
      "##led": 1767,
      "af": 1768,
      "##own": 1769,
      "##bile": 1770,
      "##ably": 1771,
      "bar": 1772,
      "##gen": 1773,
      "mov": 1774,
      "##oss": 1775,
      "##sor": 1776,
      "react": 1777,
      "parts": 1778,
      "optical": 1779,
      "##ined": 1780,
      "disposed": 1781,
      "polymer": 1782,
      "cut": 1783,
      "provides": 1784,
      "batter": 1785,
      "phot": 1786,
      "22": 1787,
      "##cr": 1788,
      "cons": 1789,
      "##ration": 1790,
      "generated": 1791,
      "character": 1792,
      "eng": 1793,
      "opening": 1794,
      "also": 1795,
      "att": 1796,
      "##ump": 1797,
      "service": 1798,
      "inser": 1799,
      "##ake": 1800,
      "over": 1801,
      "##ear": 1802,
      "calc": 1803,
      "tub": 1804,
      "##ability": 1805,
      "incre": 1806,
      "##atic": 1807,
      "work": 1808,
      "coupled": 1809,
      "after": 1810,
      "##itor": 1811,
      "battery": 1812,
      "valve": 1813,
      "if": 1814,
      "50": 1815,
      "selected": 1816,
      "respect": 1817,
      "ke": 1818,
      "##ative": 1819,
      "providing": 1820,
      "##ring": 1821,
      "conc": 1822,
      "##ll": 1823,
      "ant": 1824,
      "gate": 1825,
      "while": 1826,
      "##aw": 1827,
      "resist": 1828,
      "adjust": 1829,
      "##astic": 1830,
      "##pt": 1831,
      "both": 1832,
      "##ganic": 1833,
      "##urn": 1834,
      "emit": 1835,
      "mobile": 1836,
      "##ides": 1837,
      "gl": 1838,
      "##mount": 1839,
      "sm": 1840,
      "##ose": 1841,
      "back": 1842,
      "amount": 1843,
      "manag": 1844,
      "##hen": 1845,
      "controller": 1846,
      "autom": 1847,
      "wireless": 1848,
      "eas": 1849,
      "magnet": 1850,
      "micro": 1851,
      "equ": 1852,
      "low": 1853,
      "ther": 1854,
      "##ization": 1855,
      "sheet": 1856,
      "embodiment": 1857,
      "frequ": 1858,
      "section": 1859,
      "config": 1860,
      "non": 1861,
      "shape": 1862,
      "prop": 1863,
      "transmitting": 1864,
      "point": 1865,
      "electric": 1866,
      "min": 1867,
      "##ness": 1868,
      "bott": 1869,
      "wall": 1870,
      "received": 1871,
      "##erg": 1872,
      "connecting": 1873,
      "##ily": 1874,
      "reference": 1875,
      "disclosed": 1876,
      "carr": 1877,
      "##ially": 1878,
      "was": 1879,
      "cyl": 1880,
      "carbon": 1881,
      "all": 1882,
      "##eter": 1883,
      "collect": 1884,
      "content": 1885,
      "anal": 1886,
      "without": 1887,
      "rotation": 1888,
      "pol": 1889,
      "heating": 1890,
      "am": 1891,
      "exp": 1892,
      "110": 1893,
      "vert": 1894,
      "qu": 1895,
      "mounted": 1896,
      "def": 1897,
      "##inder": 1898,
      "200": 1899,
      "##ke": 1900,
      "different": 1901,
      "down": 1902,
      "##ave": 1903,
      "##te": 1904,
      "frequency": 1905,
      "inject": 1906,
      "effic": 1907,
      "this": 1908,
      "head": 1909,
      "preventing": 1910,
      "order": 1911,
      "moving": 1912,
      "solution": 1913,
      "have": 1914,
      "dist": 1915,
      "assembly": 1916,
      "##mpl": 1917,
      "silic": 1918,
      "mess": 1919,
      "mode": 1920,
      "condition": 1921,
      "##arm": 1922,
      "tank": 1923,
      "##ys": 1924,
      "alk": 1925,
      "pul": 1926,
      "inte": 1927,
      "exten": 1928,
      "exter": 1929,
      "supporting": 1930,
      "bottom": 1931,
      "ax": 1932,
      "coating": 1933,
      "##ension": 1934,
      "##ise": 1935,
      "##mal": 1936,
      "cle": 1937,
      "##lex": 1938,
      "off": 1939,
      "##tic": 1940,
      "treat": 1941,
      "##val": 1942,
      "fu": 1943,
      "##side": 1944,
      "discharge": 1945,
      "rear": 1946,
      "path": 1947,
      "improve": 1948,
      "16": 1949,
      "formul": 1950,
      "ident": 1951,
      "##ird": 1952,
      "mat": 1953,
      "inf": 1954,
      "fuel": 1955,
      "level": 1956,
      "##aste": 1957,
      "##ray": 1958,
      "protect": 1959,
      "electronic": 1960,
      "agent": 1961,
      "particularly": 1962,
      "syn": 1963,
      "cooling": 1964,
      "inserted": 1965,
      "##struct": 1966,
      "ret": 1967,
      "##lowing": 1968,
      "third": 1969,
      "##anc": 1970,
      "provide": 1971,
      "oil": 1972,
      "conductive": 1973,
      "screen": 1974,
      "fol": 1975,
      "container": 1976,
      "##ification": 1977,
      "fluid": 1978,
      "board": 1979,
      "##owder": 1980,
      "protr": 1981,
      "formula": 1982,
      "force": 1983,
      "##ivity": 1984,
      "organic": 1985,
      "easily": 1986,
      "##arget": 1987,
      "component": 1988,
      "exce": 1989,
      "target": 1990,
      "groove": 1991,
      "active": 1992,
      "powder": 1993,
      "##ss": 1994,
      "during": 1995,
      "oxide": 1996,
      "hand": 1997,
      "detecting": 1998,
      "##ors": 1999,
      "station": 2000,
      "##king": 2001,
      "wt": 2002,
      "##que": 2003,
      "mold": 2004,
      "##ines": 2005,
      "application": 2006,
      "speed": 2007,
      "reduce": 2008,
      "integr": 2009,
      "suppl": 2010,
      "top": 2011,
      "treatment": 2012,
      "outside": 2013,
      "ang": 2014,
      "120": 2015,
      "message": 2016,
      "ed": 2017,
      "center": 2018,
      "##rr": 2019,
      "beam": 2020,
      "addition": 2021,
      "multip": 2022,
      "cam": 2023,
      "access": 2024,
      "##ang": 2025,
      "long": 2026,
      "##arging": 2027,
      "field": 2028,
      "tube": 2029,
      "##ange": 2030,
      "external": 2031,
      "door": 2032,
      "##ices": 2033,
      "signals": 2034,
      "vide": 2035,
      "##ree": 2036,
      "but": 2037,
      "si": 2038,
      "seal": 2039,
      "##aking": 2040,
      "mach": 2041,
      "##usion": 2042,
      "key": 2043,
      "applied": 2044,
      "##aring": 2045,
      "producing": 2046,
      "poss": 2047,
      "video": 2048,
      "##ages": 2049,
      "##aus": 2050,
      "operating": 2051,
      "fac": 2052,
      "##co": 2053,
      "feed": 2054,
      "##asing": 2055,
      "result": 2056,
      "fiber": 2057,
      "rem": 2058,
      "##ior": 2059,
      "exh": 2060,
      "##ax": 2061,
      "del": 2062,
      "various": 2063,
      "##amin": 2064,
      "emitting": 2065,
      "load": 2066,
      "##ra": 2067,
      "whether": 2068,
      "made": 2069,
      "prin": 2070,
      "wind": 2071,
      "steel": 2072,
      "##iding": 2073,
      "jo": 2074,
      "##inal": 2075,
      "color": 2076,
      "cryst": 2077,
      "##ning": 2078,
      "##up": 2079,
      "##uted": 2080,
      "dig": 2081,
      "glass": 2082,
      "##ron": 2083,
      "div": 2084,
      "request": 2085,
      "absor": 2086,
      "measuring": 2087,
      "##pping": 2088,
      "##round": 2089,
      "##osite": 2090,
      "##ixel": 2091,
      "##ading": 2092,
      "repres": 2093,
      "##ital": 2094,
      "performing": 2095,
      "along": 2096,
      "clean": 2097,
      "under": 2098,
      "pump": 2099,
      "est": 2100,
      "ring": 2101,
      "sensing": 2102,
      "hor": 2103,
      "##gram": 2104,
      "pe": 2105,
      "##ves": 2106,
      "fur": 2107,
      "stored": 2108,
      "switch": 2109,
      "energ": 2110,
      "about": 2111,
      "##10": 2112,
      "determining": 2113,
      "size": 2114,
      "pixel": 2115,
      "##itive": 2116,
      "##na": 2117,
      "reflect": 2118,
      "rotating": 2119,
      "##ired": 2120,
      "##vices": 2121,
      "##aced": 2122,
      "mixture": 2123,
      "cylinder": 2124,
      "program": 2125,
      "storing": 2126,
      "##ood": 2127,
      "possible": 2128,
      "gear": 2129,
      "##elect": 2130,
      "compress": 2131,
      "bro": 2132,
      "further": 2133,
      "##isting": 2134,
      "less": 2135,
      "##ached": 2136,
      "cro": 2137,
      "cat": 2138,
      "energy": 2139,
      "nan": 2140,
      "configured": 2141,
      "within": 2142,
      "##ures": 2143,
      "sal": 2144,
      "##ified": 2145,
      "##cc": 2146,
      "##lumin": 2147,
      "et": 2148,
      "supplying": 2149,
      "specific": 2150,
      "pair": 2151,
      "wa": 2152,
      "rod": 2153,
      "##uch": 2154,
      "capac": 2155,
      "##ifying": 2156,
      "engine": 2157,
      "prob": 2158,
      "then": 2159,
      "receives": 2160,
      "reducing": 2161,
      "comput": 2162,
      "##ream": 2163,
      "excell": 2164,
      "rate": 2165,
      "bel": 2166,
      "maintain": 2167,
      "##ging": 2168,
      "excellent": 2169,
      "management": 2170,
      "vertical": 2171,
      "##ma": 2172,
      "refr": 2173,
      "cy": 2174,
      "horiz": 2175,
      "##ously": 2176,
      "coupling": 2177,
      "cells": 2178,
      "24": 2179,
      "horizont": 2180,
      "sequ": 2181,
      "insulating": 2182,
      "##ome": 2183,
      "pad": 2184,
      "##iency": 2185,
      "phase": 2186,
      "digital": 2187,
      "##fore": 2188,
      "##ylene": 2189,
      "60": 2190,
      "32": 2191,
      "link": 2192,
      "machine": 2193,
      "measure": 2194,
      "25": 2195,
      "23": 2196,
      "##ption": 2197,
      "##ining": 2198,
      "enc": 2199,
      "adhes": 2200,
      "##electric": 2201,
      "drive": 2202,
      "##ug": 2203,
      "resistance": 2204,
      "radi": 2205,
      "##ameter": 2206,
      "efficiency": 2207,
      "exchan": 2208,
      "respon": 2209,
      "detection": 2210,
      "rat": 2211,
      "direct": 2212,
      "pin": 2213,
      "real": 2214,
      "angle": 2215,
      "##ush": 2216,
      "waste": 2217,
      "band": 2218,
      "distr": 2219,
      "transmitted": 2220,
      "##pped": 2221,
      "roller": 2222,
      "##mical": 2223,
      "lock": 2224,
      "##ism": 2225,
      "##ask": 2226,
      "##aser": 2227,
      "core": 2228,
      "bit": 2229,
      "cost": 2230,
      "coil": 2231,
      "bi": 2232,
      "##inding": 2233,
      "location": 2234,
      "##ok": 2235,
      "##ffic": 2236,
      "axis": 2237,
      "obtained": 2238,
      "##zz": 2239,
      "##rap": 2240,
      "sk": 2241,
      "apply": 2242,
      "distrib": 2243,
      "##osing": 2244,
      "adhesive": 2245,
      "18": 2246,
      "##ck": 2247,
      "##omer": 2248,
      "##ger": 2249,
      "corre": 2250,
      "##ral": 2251,
      "inde": 2252,
      "test": 2253,
      "sim": 2254,
      "##mple": 2255,
      "removing": 2256,
      "code": 2257,
      "devices": 2258,
      "lens": 2259,
      "magnetic": 2260,
      "sides": 2261,
      "camer": 2262,
      "attached": 2263,
      "##ere": 2264,
      "lif": 2265,
      "mixing": 2266,
      "transist": 2267,
      "##met": 2268,
      "improved": 2269,
      "##ination": 2270,
      "silicon": 2271,
      "multi": 2272,
      "mounting": 2273,
      "##iting": 2274,
      "##lf": 2275,
      "chip": 2276,
      "call": 2277,
      "project": 2278,
      "change": 2279,
      "crystal": 2280,
      "wheel": 2281,
      "insert": 2282,
      "cutting": 2283,
      "##are": 2284,
      "interface": 2285,
      "##oor": 2286,
      "monitor": 2287,
      "materials": 2288,
      "130": 2289,
      "its": 2290,
      "length": 2291,
      "laser": 2292,
      "units": 2293,
      "##rop": 2294,
      "reaction": 2295,
      "located": 2296,
      "##ening": 2297,
      "led": 2298,
      "thick": 2299,
      "catal": 2300,
      "due": 2301,
      "##aust": 2302,
      "inlet": 2303,
      "generation": 2304,
      "##per": 2305,
      "distance": 2306,
      "##ark": 2307,
      "##iated": 2308,
      "##istic": 2309,
      "der": 2310,
      "thin": 2311,
      "##ec": 2312,
      "##ded": 2313,
      "exhaust": 2314,
      "prec": 2315,
      "medium": 2316,
      "##iod": 2317,
      "range": 2318,
      "response": 2319,
      "cross": 2320,
      "300": 2321,
      "##vir": 2322,
      "##ulated": 2323,
      "minim": 2324,
      "##over": 2325,
      "elastic": 2326,
      "##pend": 2327,
      "mechan": 2328,
      "fab": 2329,
      "nozz": 2330,
      "supplied": 2331,
      "conve": 2332,
      "##ases": 2333,
      "wafer": 2334,
      "##ression": 2335,
      "holes": 2336,
      "camera": 2337,
      "##ogn": 2338,
      "##ending": 2339,
      "recogn": 2340,
      "##ifier": 2341,
      "caus": 2342,
      "vac": 2343,
      "wave": 2344,
      "##ision": 2345,
      "bu": 2346,
      "multiple": 2347,
      "preparing": 2348,
      "period": 2349,
      "anten": 2350,
      "31": 2351,
      "vir": 2352,
      "mol": 2353,
      "pie": 2354,
      "##oding": 2355,
      "ratio": 2356,
      "ap": 2357,
      "chemical": 2358,
      "small": 2359,
      "movement": 2360,
      "touch": 2361,
      "propert": 2362,
      "address": 2363,
      "generator": 2364,
      "##ts": 2365,
      "gre": 2366,
      "card": 2367,
      "rotary": 2368,
      "improving": 2369,
      "ul": 2370,
      "nit": 2371,
      "##oth": 2372,
      "like": 2373,
      "construct": 2374,
      "##aper": 2375,
      "edge": 2376,
      "performed": 2377,
      "##stant": 2378,
      "##action": 2379,
      "represent": 2380,
      "##iver": 2381,
      "##onment": 2382,
      "indic": 2383,
      "sear": 2384,
      "##vironment": 2385,
      "vib": 2386,
      "rein": 2387,
      "sound": 2388,
      "environment": 2389,
      "fast": 2390,
      "allow": 2391,
      "switching": 2392,
      "three": 2393,
      "##ared": 2394,
      "##aging": 2395,
      "methods": 2396,
      "setting": 2397,
      "include": 2398,
      "deg": 2399,
      "reinfor": 2400,
      "food": 2401,
      "##inu": 2402,
      "ampl": 2403,
      "hydrogen": 2404,
      "among": 2405,
      "following": 2406,
      "drain": 2407,
      "##ry": 2408,
      "saf": 2409,
      "##ishing": 2410,
      "horizontal": 2411,
      "spring": 2412,
      "##hy": 2413,
      "depos": 2414,
      "s1": 2415,
      "transmits": 2416,
      "##oly": 2417,
      "dim": 2418,
      "table": 2419,
      "specifically": 2420,
      "treating": 2421,
      "carrier": 2422,
      "composed": 2423,
      "deriv": 2424,
      "applying": 2425,
      "sin": 2426,
      "##aces": 2427,
      "injection": 2428,
      "via": 2429,
      "##ograp": 2430,
      "##iate": 2431,
      "only": 2432,
      "##amic": 2433,
      "internal": 2434,
      "rail": 2435,
      "fabric": 2436,
      "transistor": 2437,
      "##iger": 2438,
      "##idth": 2439,
      "rele": 2440,
      "ground": 2441,
      "outlet": 2442,
      "##des": 2443,
      "dise": 2444,
      "right": 2445,
      "measurement": 2446,
      "##ces": 2447,
      "exec": 2448,
      "refriger": 2449,
      "read": 2450,
      "fer": 2451,
      "sing": 2452,
      "even": 2453,
      "##elding": 2454,
      "##iring": 2455,
      "continu": 2456,
      "four": 2457,
      "computer": 2458,
      "characteristic": 2459,
      "node": 2460,
      "##apor": 2461,
      "occ": 2462,
      "design": 2463,
      "vis": 2464,
      "##ched": 2465,
      "qual": 2466,
      "hard": 2467,
      "face": 2468,
      "regist": 2469,
      "nozzle": 2470,
      "arm": 2471,
      "lines": 2472,
      "free": 2473,
      "err": 2474,
      "particles": 2475,
      "inh": 2476,
      "vo": 2477,
      "uni": 2478,
      "combined": 2479,
      "catalyst": 2480,
      "hum": 2481,
      "##uum": 2482,
      "window": 2483,
      "##xt": 2484,
      "absorb": 2485,
      "generates": 2486,
      "ion": 2487,
      "##iction": 2488,
      "antenna": 2489,
      "thickness": 2490,
      "17": 2491,
      "broad": 2492,
      "box": 2493,
      "alkyl": 2494,
      "vacuum": 2495,
      "respectively": 2496,
      "concent": 2497,
      "assoc": 2498,
      "##oy": 2499,
      "processor": 2500,
      "##eth": 2501,
      "##med": 2502,
      "new": 2503,
      "screw": 2504,
      "opp": 2505,
      "plas": 2506,
      "ultr": 2507,
      "skin": 2508,
      "shaped": 2509,
      "hot": 2510,
      "mask": 2511,
      "##olog": 2512,
      "pharm": 2513,
      "##ful": 2514,
      "acce": 2515,
      "##chn": 2516,
      "motion": 2517,
      "##oxy": 2518,
      "elements": 2519,
      "quality": 2520,
      "techn": 2521,
      "stand": 2522,
      "##ob": 2523,
      "##ape": 2524,
      "##ores": 2525,
      "fin": 2526,
      "single": 2527,
      "solid": 2528,
      "##avel": 2529,
      "production": 2530,
      "turn": 2531,
      "##ering": 2532,
      "reso": 2533,
      "enab": 2534,
      "prim": 2535,
      "kn": 2536,
      "washing": 2537,
      "##ole": 2538,
      "thus": 2539,
      "circum": 2540,
      "contains": 2541,
      "packet": 2542,
      "short": 2543,
      "surf": 2544,
      "##ety": 2545,
      "ball": 2546,
      "##omm": 2547,
      "lamp": 2548,
      "vol": 2549,
      "secondary": 2550,
      "dep": 2551,
      "tool": 2552,
      "adjusting": 2553,
      "##arged": 2554,
      "determined": 2555,
      "##aining": 2556,
      "web": 2557,
      "stream": 2558,
      "transpar": 2559,
      "spray": 2560,
      "##ipher": 2561,
      "##ipment": 2562,
      "##aceut": 2563,
      "electrically": 2564,
      "##other": 2565,
      "##ities": 2566,
      "plasma": 2567,
      "members": 2568,
      "##con": 2569,
      "##ues": 2570,
      "increase": 2571,
      "related": 2572,
      "descr": 2573,
      "atom": 2574,
      "drying": 2575,
      "driver": 2576,
      "##roduc": 2577,
      "##acket": 2578,
      "pharmaceut": 2579,
      "cop": 2580,
      "equipment": 2581,
      "##ote": 2582,
      "##son": 2583,
      "cleaning": 2584,
      "##get": 2585,
      "noise": 2586,
      "init": 2587,
      "ends": 2588,
      "70": 2589,
      "##atically": 2590,
      "##ided": 2591,
      "start": 2592,
      "mixed": 2593,
      "enh": 2594,
      "##yz": 2595,
      "synt": 2596,
      "##cast": 2597,
      "reduced": 2598,
      "##sc": 2599,
      "##acent": 2600,
      "mass": 2601,
      "##uffer": 2602,
      "##uble": 2603,
      "ent": 2604,
      "##me": 2605,
      "peripher": 2606,
      "wr": 2607,
      "buffer": 2608,
      "above": 2609,
      "bus": 2610,
      "rub": 2611,
      "broadcast": 2612,
      "prote": 2613,
      "##alle": 2614,
      "flex": 2615,
      "inhib": 2616,
      "left": 2617,
      "portions": 2618,
      "central": 2619,
      "adjacent": 2620,
      "functional": 2621,
      "aud": 2622,
      "need": 2623,
      "protrusion": 2624,
      "paralle": 2625,
      "activ": 2626,
      "solvent": 2627,
      "included": 2628,
      "interval": 2629,
      "adver": 2630,
      "making": 2631,
      "##rid": 2632,
      "paper": 2633,
      "strength": 2634,
      "compounds": 2635,
      "sealing": 2636,
      "contents": 2637,
      "dam": 2638,
      "##ep": 2639,
      "generate": 2640,
      "substit": 2641,
      "outputting": 2642,
      "##ulator": 2643,
      "##ryl": 2644,
      "##way": 2645,
      "molding": 2646,
      "##ish": 2647,
      "components": 2648,
      "automatically": 2649,
      "##ately": 2650,
      "consisting": 2651,
      "separated": 2652,
      "pen": 2653,
      "performance": 2654,
      "array": 2655,
      "parallel": 2656,
      "vibration": 2657,
      "error": 2658,
      "integrated": 2659,
      "analyz": 2660,
      "diameter": 2661,
      "transparent": 2662,
      "detected": 2663,
      "width": 2664,
      "##to": 2665,
      "##ased": 2666,
      "connector": 2667,
      "automatic": 2668,
      "characterized": 2669,
      "voice": 2670,
      "sat": 2671,
      "dimension": 2672,
      "command": 2673,
      "holder": 2674,
      "##iently": 2675,
      "max": 2676,
      "##tis": 2677,
      "thermal": 2678,
      "lamin": 2679,
      "salt": 2680,
      "controls": 2681,
      "##iary": 2682,
      "##ges": 2683,
      "##red": 2684,
      "##phone": 2685,
      "occur": 2686,
      "extending": 2687,
      "lead": 2688,
      "electrodes": 2689,
      "bracket": 2690,
      "height": 2691,
      "protein": 2692,
      "ep": 2693,
      "acqu": 2694,
      "discharging": 2695,
      "scan": 2696,
      "collecting": 2697,
      "model": 2698,
      "advertis": 2699,
      "composite": 2700,
      "associated": 2701,
      "cable": 2702,
      "toward": 2703,
      "displaying": 2704,
      "around": 2705,
      "selectively": 2706,
      "##ensity": 2707,
      "##rete": 2708,
      "##cent": 2709,
      "##20": 2710,
      "dielectric": 2711,
      "##verage": 2712,
      "actu": 2713,
      "##alk": 2714,
      "au": 2715,
      "##olymer": 2716,
      "##ms": 2717,
      "##ormal": 2718,
      "insertion": 2719,
      "##ute": 2720,
      "##itud": 2721,
      "recording": 2722,
      "##iew": 2723,
      "sho": 2724,
      "audio": 2725,
      "rubber": 2726,
      "##mn": 2727,
      "140": 2728,
      "buil": 2729,
      "any": 2730,
      "##ific": 2731,
      "disp": 2732,
      "closing": 2733,
      "hing": 2734,
      "file": 2735,
      "maxim": 2736,
      "layers": 2737,
      "##read": 2738,
      "stack": 2739,
      "datab": 2740,
      "bearing": 2741,
      "another": 2742,
      "person": 2743,
      "mel": 2744,
      "##port": 2745,
      "seat": 2746,
      "26": 2747,
      "longitud": 2748,
      "alumin": 2749,
      "##osph": 2750,
      "intern": 2751,
      "reinforc": 2752,
      "electrical": 2753,
      "##uting": 2754,
      "##idual": 2755,
      "##lec": 2756,
      "prefer": 2757,
      "virt": 2758,
      "receive": 2759,
      "authen": 2760,
      "adding": 2761,
      "charging": 2762,
      "database": 2763,
      "##lev": 2764,
      "ev": 2765,
      "plant": 2766,
      "stage": 2767,
      "placed": 2768,
      "lim": 2769,
      "log": 2770,
      "##bo": 2771,
      "virtual": 2772,
      "hal": 2773,
      "ray": 2774,
      "sequence": 2775,
      "calculating": 2776,
      "well": 2777,
      "attach": 2778,
      "##rane": 2779,
      "##ibed": 2780,
      "dy": 2781,
      "passage": 2782,
      "##chron": 2783,
      "proble": 2784,
      "coun": 2785,
      "plan": 2786,
      "pist": 2787,
      "therefore": 2788,
      "large": 2789,
      "enable": 2790,
      "##cer": 2791,
      "stores": 2792,
      "smart": 2793,
      "joint": 2794,
      "piston": 2795,
      "##ne": 2796,
      "##ently": 2797,
      "rf": 2798,
      "150": 2799,
      "cult": 2800,
      "##izer": 2801,
      "rotat": 2802,
      "positioned": 2803,
      "##uration": 2804,
      "oxy": 2805,
      "nat": 2806,
      "cer": 2807,
      "##ident": 2808,
      "clock": 2809,
      "##urity": 2810,
      "uniform": 2811,
      "80": 2812,
      "##til": 2813,
      "ii": 2814,
      "game": 2815,
      "check": 2816,
      "ver": 2817,
      "##oid": 2818,
      "remote": 2819,
      "radio": 2820,
      ".%": 2821,
      "receiver": 2822,
      "sto": 2823,
      "accur": 2824,
      "align": 2825,
      "fit": 2826,
      "transport": 2827,
      "communic": 2828,
      "measured": 2829,
      "##ume": 2830,
      "roll": 2831,
      "##30": 2832,
      "disc": 2833,
      "movable": 2834,
      "aux": 2835,
      "concrete": 2836,
      "##ale": 2837,
      "##iliary": 2838,
      "polar": 2839,
      "cert": 2840,
      "electroly": 2841,
      "produced": 2842,
      "##cle": 2843,
      "##ton": 2844,
      "basis": 2845,
      "colu": 2846,
      "estim": 2847,
      "outputs": 2848,
      "auxiliary": 2849,
      "tor": 2850,
      "soft": 2851,
      "conven": 2852,
      "bec": 2853,
      "natural": 2854,
      "deliver": 2855,
      "column": 2856,
      "client": 2857,
      "handle": 2858,
      "ingr": 2859,
      "effectively": 2860,
      "safety": 2861,
      "molec": 2862,
      "##ugh": 2863,
      "##edient": 2864,
      "pat": 2865,
      "ingredient": 2866,
      "monitoring": 2867,
      "quant": 2868,
      "phys": 2869,
      "##ommod": 2870,
      "accommod": 2871,
      "pc": 2872,
      "bre": 2873,
      "longitudinal": 2874,
      "anti": 2875,
      "plastic": 2876,
      "room": 2877,
      "grow": 2878,
      "variable": 2879,
      "il": 2880,
      "pot": 2881,
      "portable": 2882,
      "again": 2883,
      "##als": 2884,
      "artic": 2885,
      "210": 2886,
      "linear": 2887,
      "amin": 2888,
      "synchron": 2889,
      "##metic": 2890,
      "##ited": 2891,
      "##iation": 2892,
      "combust": 2893,
      "surfaces": 2894,
      "flexible": 2895,
      "prepared": 2896,
      "cre": 2897,
      "inputted": 2898,
      "mark": 2899,
      "##dr": 2900,
      "plates": 2901,
      "incl": 2902,
      "heater": 2903,
      "sample": 2904,
      "difference": 2905,
      "disk": 2906,
      "##ester": 2907,
      "400": 2908,
      "34": 2909,
      "##car": 2910,
      "particle": 2911,
      "view": 2912,
      "phosph": 2913,
      "distribution": 2914,
      "internet": 2915,
      "controlled": 2916,
      "##duce": 2917,
      "hydra": 2918,
      "grap": 2919,
      "##ysis": 2920,
      "capacitor": 2921,
      "selection": 2922,
      "##ucle": 2923,
      "hig": 2924,
      "super": 2925,
      "bon": 2926,
      "shi": 2927,
      "been": 2928,
      "increasing": 2929,
      "compositions": 2930,
      "oxygen": 2931,
      "##lor": 2932,
      "separating": 2933,
      "##inyl": 2934,
      "adap": 2935,
      "opposite": 2936,
      "accord": 2937,
      "diff": 2938,
      "##rical": 2939,
      "##mediate": 2940,
      "000": 2941,
      "pulse": 2942,
      "shif": 2943,
      "memb": 2944,
      "adv": 2945,
      "welding": 2946,
      "19": 2947,
      "35": 2948,
      "gap": 2949,
      "make": 2950,
      "##ames": 2951,
      "since": 2952,
      "##pro": 2953,
      "##mb": 2954,
      "blade": 2955,
      "described": 2956,
      "condens": 2957,
      "images": 2958,
      "suction": 2959,
      "bond": 2960,
      "vect": 2961,
      "raw": 2962,
      "##mos": 2963,
      "hinge": 2964,
      "extended": 2965,
      "hydraul": 2966,
      "lat": 2967,
      "ferment": 2968,
      "dc": 2969,
      "##ins": 2970,
      "insulation": 2971,
      "accordance": 2972,
      "bolt": 2973,
      "brake": 2974,
      "etching": 2975,
      "resource": 2976,
      "charge": 2977,
      "##uck": 2978,
      "acryl": 2979,
      "index": 2980,
      "post": 2981,
      "flo": 2982,
      "##reg": 2983,
      "subs": 2984,
      "dust": 2985,
      "tun": 2986,
      "hydraulic": 2987,
      "##verse": 2988,
      "mechanism": 2989,
      "##resh": 2990,
      "pay": 2991,
      "dimensional": 2992,
      "##wt": 2993,
      "transform": 2994,
      "cos": 2995,
      "##ogen": 2996,
      "coll": 2997,
      "selecting": 2998,
      "coated": 2999,
      "hollow": 3000,
      "combination": 3001,
      "delay": 3002,
      "##az": 3003,
      "diagn": 3004,
      "construction": 3005,
      "rice": 3006,
      "media": 3007,
      "repl": 3008,
      "penet": 3009,
      "activity": 3010,
      "solar": 3011,
      "##man": 3012,
      "eth": 3013,
      "inspect": 3014,
      "fan": 3015,
      "track": 3016,
      "compens": 3017,
      "hydrox": 3018,
      "rob": 3019,
      "values": 3020,
      "analysis": 3021,
      "bur": 3022,
      "conversion": 3023,
      "opened": 3024,
      "##uation": 3025,
      "converting": 3026,
      "##ps": 3027,
      "rotor": 3028,
      "irr": 3029,
      "their": 3030,
      "lith": 3031,
      "##imin": 3032,
      "compressor": 3033,
      "pressing": 3034,
      "belt": 3035,
      "converter": 3036,
      "constant": 3037,
      "represented": 3038,
      "holding": 3039,
      "cycl": 3040,
      "common": 3041,
      "blocks": 3042,
      "draw": 3043,
      "human": 3044,
      "av": 3045,
      "printing": 3046,
      "pic": 3047,
      "phone": 3048,
      "flat": 3049,
      "radiation": 3050,
      "tot": 3051,
      "##ules": 3052,
      "advertisement": 3053,
      "membrane": 3054,
      "pharmaceutical": 3055,
      "plane": 3056,
      "##rix": 3057,
      "class": 3058,
      "bonding": 3059,
      "useful": 3060,
      "ceramic": 3061,
      "search": 3062,
      "concentration": 3063,
      "discharged": 3064,
      "close": 3065,
      "##uction": 3066,
      "printed": 3067,
      "subject": 3068,
      "terminals": 3069,
      "##aged": 3070,
      "volume": 3071,
      "introduc": 3072,
      "convey": 3073,
      "matrix": 3074,
      "supported": 3075,
      "closed": 3076,
      "sulf": 3077,
      "list": 3078,
      "locking": 3079,
      "authent": 3080,
      "##ener": 3081,
      "properties": 3082,
      "examp": 3083,
      "##link": 3084,
      "steam": 3085,
      "caused": 3086,
      "clamp": 3087,
      "authentication": 3088,
      "produce": 3089,
      "move": 3090,
      "embodiments": 3091,
      "##ash": 3092,
      "average": 3093,
      "phen": 3094,
      "por": 3095,
      "higher": 3096,
      "smo": 3097,
      "separation": 3098,
      "cosmetic": 3099,
      "photograp": 3100,
      "##velop": 3101,
      "##ighting": 3102,
      "substituted": 3103,
      "##avity": 3104,
      "projection": 3105,
      "##ilit": 3106,
      "displayed": 3107,
      "42": 3108,
      "toget": 3109,
      "together": 3110,
      "fire": 3111,
      "##iss": 3112,
      "detach": 3113,
      "record": 3114,
      "correct": 3115,
      "total": 3116,
      "%,": 3117,
      "41": 3118,
      "manner": 3119,
      "rotated": 3120,
      "characteristics": 3121,
      "exposed": 3122,
      "reinforcing": 3123,
      "groups": 3124,
      "copolymer": 3125,
      "event": 3126,
      "package": 3127,
      "preferably": 3128,
      "photo": 3129,
      "additional": 3130,
      "bran": 3131,
      "recover": 3132,
      "confir": 3133,
      "independ": 3134,
      "##arn": 3135,
      "preparation": 3136,
      "simult": 3137,
      "oxid": 3138,
      "simultane": 3139,
      "transferring": 3140,
      "aluminum": 3141,
      "subst": 3142,
      "##gment": 3143,
      "forms": 3144,
      "##fficient": 3145,
      "combustion": 3146,
      "##oxide": 3147,
      "piece": 3148,
      "cylind": 3149,
      "good": 3150,
      "chain": 3151,
      "develop": 3152,
      "strip": 3153,
      "before": 3154,
      "thermo": 3155,
      "expos": 3156,
      "##unding": 3157,
      "moved": 3158,
      "extracting": 3159,
      "robot": 3160,
      "##lic": 3161,
      "exc": 3162,
      "actuator": 3163,
      "therein": 3164,
      "tra": 3165,
      "##its": 3166,
      "initial": 3167,
      "##ware": 3168,
      "cylindrical": 3169,
      "identification": 3170,
      "##ches": 3171,
      "obtaining": 3172,
      "fourth": 3173,
      "500": 3174,
      "encoding": 3175,
      "##acing": 3176,
      "##arning": 3177,
      "optim": 3178,
      "tur": 3179,
      "diseases": 3180,
      "102": 3181,
      "##ives": 3182,
      "##ider": 3183,
      "irrad": 3184,
      "exchange": 3185,
      "##izes": 3186,
      "security": 3187,
      "overl": 3188,
      "word": 3189,
      "complex": 3190,
      "c1": 3191,
      "protection": 3192,
      "antib": 3193,
      "prevention": 3194,
      "alloy": 3195,
      "neg": 3196,
      "products": 3197,
      "example": 3198,
      "fine": 3199,
      "desired": 3200,
      "##ipped": 3201,
      "ink": 3202,
      "cath": 3203,
      "installation": 3204,
      "##water": 3205,
      "physical": 3206,
      "s2": 3207,
      "disclos": 3208,
      "90": 3209,
      "vertically": 3210,
      "cancer": 3211,
      "does": 3212,
      "##ify": 3213,
      "convention": 3214,
      "##erv": 3215,
      "configuration": 3216,
      "passing": 3217,
      "required": 3218,
      "her": 3219,
      "##itable": 3220,
      "ma": 3221,
      "##ants": 3222,
      "repe": 3223,
      "nut": 3224,
      "vector": 3225,
      "##ument": 3226,
      "##oves": 3227,
      "certain": 3228,
      "dem": 3229,
      "lever": 3230,
      "##ists": 3231,
      "manufactured": 3232,
      "ach": 3233,
      "performs": 3234,
      "diss": 3235,
      "foam": 3236,
      "simple": 3237,
      "##pond": 3238,
      "primary": 3239,
      "item": 3240,
      "reception": 3241,
      "separate": 3242,
      "processes": 3243,
      "vent": 3244,
      "##ations": 3245,
      "##essel": 3246,
      "pos": 3247,
      "copper": 3248,
      "option": 3249,
      "fore": 3250,
      "fing": 3251,
      "wiring": 3252,
      "implement": 3253,
      "vessel": 3254,
      "operated": 3255,
      "evapor": 3256,
      "33": 3257,
      "achie": 3258,
      "will": 3259,
      "floor": 3260,
      "expan": 3261,
      "##af": 3262,
      "enhanc": 3263,
      "isol": 3264,
      "fact": 3265,
      "tape": 3266,
      "lithium": 3267,
      "peripheral": 3268,
      "aspect": 3269,
      "refrigerant": 3270,
      "nitr": 3271,
      "sus": 3272,
      "rout": 3273,
      "working": 3274,
      "cathode": 3275,
      "drum": 3276,
      "ext": 3277,
      "inserting": 3278,
      "directly": 3279,
      "electrom": 3280,
      "sliding": 3281,
      "effective": 3282,
      "installing": 3283,
      "##rogen": 3284,
      "remove": 3285,
      "contained": 3286,
      "defect": 3287,
      "against": 3288,
      "##atively": 3289,
      "alter": 3290,
      "stability": 3291,
      "button": 3292,
      "##aker": 3293,
      "indiv": 3294,
      "infr": 3295,
      "##duction": 3296,
      "##ost": 3297,
      "220": 3298,
      "diode": 3299,
      "individual": 3300,
      "carb": 3301,
      "building": 3302,
      "##rier": 3303,
      "register": 3304,
      "##queous": 3305,
      "moist": 3306,
      "encod": 3307,
      "reli": 3308,
      "fastening": 3309,
      "maintaining": 3310,
      "furn": 3311,
      "##yr": 3312,
      "grooves": 3313,
      "mir": 3314,
      "divided": 3315,
      "loading": 3316,
      "##ocy": 3317,
      "numer": 3318,
      "conventional": 3319,
      "damage": 3320,
      "##urces": 3321,
      "impact": 3322,
      "##aster": 3323,
      "road": 3324,
      "simultaneously": 3325,
      "28": 3326,
      "relay": 3327,
      "intermediate": 3328,
      "some": 3329,
      "leak": 3330,
      "frames": 3331,
      "driven": 3332,
      "mid": 3333,
      "rest": 3334,
      "##50": 3335,
      "alloc": 3336,
      "relative": 3337,
      "36": 3338,
      "flowing": 3339,
      "##hetic": 3340,
      "art": 3341,
      "absorbing": 3342,
      "double": 3343,
      "##ience": 3344,
      "store": 3345,
      "nucle": 3346,
      "spaced": 3347,
      "##dle": 3348,
      "forward": 3349,
      "##back": 3350,
      "map": 3351,
      "normal": 3352,
      "dry": 3353,
      "reduction": 3354,
      "conditions": 3355,
      "lighting": 3356,
      "defined": 3357,
      "prom": 3358,
      "ster": 3359,
      "prof": 3360,
      "able": 3361,
      "##omp": 3362,
      "removed": 3363,
      "local": 3364,
      "iron": 3365,
      "rect": 3366,
      "slot": 3367,
      "play": 3368,
      "property": 3369,
      "sn": 3370,
      "##ocket": 3371,
      "equipped": 3372,
      "partition": 3373,
      "winding": 3374,
      "comprise": 3375,
      "inv": 3376,
      "segment": 3377,
      "general": 3378,
      "##uding": 3379,
      "##carbon": 3380,
      "cust": 3381,
      "picture": 3382,
      "blocking": 3383,
      "##ds": 3384,
      "interl": 3385,
      "respective": 3386,
      "##hol": 3387,
      "changing": 3388,
      "die": 3389,
      "novel": 3390,
      "sle": 3391,
      "leg": 3392,
      "negative": 3393,
      "##line": 3394,
      "return": 3395,
      "text": 3396,
      "loss": 3397,
      "##cessary": 3398,
      "tire": 3399,
      "upl": 3400,
      "##osis": 3401,
      "illumin": 3402,
      "release": 3403,
      "ultras": 3404,
      "electron": 3405,
      "bag": 3406,
      "inver": 3407,
      "tele": 3408,
      "##utes": 3409,
      "plu": 3410,
      "##oring": 3411,
      "barrier": 3412,
      "protective": 3413,
      "exchanger": 3414,
      "site": 3415,
      "aqueous": 3416,
      "foreign": 3417,
      "dispers": 3418,
      "calculated": 3419,
      "mes": 3420,
      "payment": 3421,
      "##ened": 3422,
      "processed": 3423,
      "reactor": 3424,
      "uses": 3425,
      "density": 3426,
      "circumferent": 3427,
      "util": 3428,
      "infrared": 3429,
      "porous": 3430,
      "systems": 3431,
      "##ually": 3432,
      "##arator": 3433,
      "monomer": 3434,
      "elev": 3435,
      "symb": 3436,
      "continuously": 3437,
      "host": 3438,
      "supplies": 3439,
      "article": 3440,
      "101": 3441,
      "##ude": 3442,
      "symbol": 3443,
      "degree": 3444,
      "here": 3445,
      "induc": 3446,
      "recognition": 3447,
      "heal": 3448,
      "##ires": 3449,
      "allowing": 3450,
      "dom": 3451,
      "patient": 3452,
      "##ror": 3453,
      "electrolyte": 3454,
      "patterns": 3455,
      "compression": 3456,
      "##iber": 3457,
      "filtering": 3458,
      "positive": 3459,
      "his": 3460,
      "altern": 3461,
      "parameter": 3462,
      "decod": 3463,
      "wavel": 3464,
      "##ming": 3465,
      "finger": 3466,
      "wavelength": 3467,
      "##abil": 3468,
      "substant": 3469,
      "fluor": 3470,
      "##organic": 3471,
      "##urs": 3472,
      "bal": 3473,
      "run": 3474,
      "##esting": 3475,
      "inorganic": 3476,
      "decoding": 3477,
      "increased": 3478,
      "analog": 3479,
      "apart": 3480,
      "vapor": 3481,
      "stat": 3482,
      "##ulate": 3483,
      "detector": 3484,
      "##akes": 3485,
      "##ential": 3486,
      "##romatic": 3487,
      "circumferential": 3488,
      "regions": 3489,
      "##entially": 3490,
      "penetr": 3491,
      "cavity": 3492,
      "rotatably": 3493,
      "flange": 3494,
      "gene": 3495,
      "place": 3496,
      "orig": 3497,
      "equal": 3498,
      "plat": 3499,
      "later": 3500,
      "onto": 3501,
      "##active": 3502,
      "vinyl": 3503,
      "home": 3504,
      "accordingly": 3505,
      "electromagnet": 3506,
      "techni": 3507,
      "covering": 3508,
      "seed": 3509,
      "existing": 3510,
      "combining": 3511,
      "sit": 3512,
      "supports": 3513,
      "analyzing": 3514,
      "way": 3515,
      "correction": 3516,
      "tit": 3517,
      "suitable": 3518,
      "plug": 3519,
      "standard": 3520,
      "coord": 3521,
      "ter": 3522,
      "hair": 3523,
      "nano": 3524,
      "travel": 3525,
      "imm": 3526,
      "put": 3527,
      "problem": 3528,
      "guiding": 3529,
      "determine": 3530,
      "pain": 3531,
      "determines": 3532,
      "chlor": 3533,
      "##vi": 3534,
      "upd": 3535,
      "##asting": 3536,
      "gly": 3537,
      "##erc": 3538,
      "##cohol": 3539,
      "casing": 3540,
      "suppress": 3541,
      "##use": 3542,
      "duct": 3543,
      "self": 3544,
      "who": 3545,
      "correspond": 3546,
      "ped": 3547,
      "##eters": 3548,
      "52": 3549,
      "tag": 3550,
      "foc": 3551,
      "displays": 3552,
      "traffic": 3553,
      "fat": 3554,
      "torque": 3555,
      "recess": 3556,
      "stop": 3557,
      "maximum": 3558,
      "##lo": 3559,
      "disease": 3560,
      "cold": 3561,
      "integrally": 3562,
      "##uld": 3563,
      "yarn": 3564,
      "51": 3565,
      "acceler": 3566,
      "enabling": 3567,
      "kore": 3568,
      "112": 3569,
      "steering": 3570,
      "prediction": 3571,
      "added": 3572,
      "damp": 3573,
      "##umption": 3574,
      "##ian": 3575,
      "accept": 3576,
      "##aving": 3577,
      "rap": 3578,
      "fail": 3579,
      "##isf": 3580,
      "ey": 3581,
      "moisture": 3582,
      "##ocol": 3583,
      "efficiently": 3584,
      "##ology": 3585,
      "##cd": 3586,
      "##ely": 3587,
      "##ances": 3588,
      "report": 3589,
      "moves": 3590,
      "compar": 3591,
      "nitrogen": 3592,
      "comparing": 3593,
      "##cking": 3594,
      "amplifier": 3595,
      "users": 3596,
      "substantially": 3597,
      "hel": 3598,
      "compressed": 3599,
      "##arger": 3600,
      "synthetic": 3601,
      "circular": 3602,
      "deposition": 3603,
      "##proof": 3604,
      "feeding": 3605,
      "3d": 3606,
      "alcohol": 3607,
      "capacity": 3608,
      "thread": 3609,
      "coordin": 3610,
      "##ench": 3611,
      "lum": 3612,
      "##oking": 3613,
      "extracted": 3614,
      "drug": 3615,
      "enter": 3616,
      "soil": 3617,
      "consumption": 3618,
      "lid": 3619,
      "inclined": 3620,
      "anode": 3621,
      "##order": 3622,
      "quick": 3623,
      "restr": 3624,
      "subscr": 3625,
      "continuous": 3626,
      "00": 3627,
      "##aps": 3628,
      "heter": 3629,
      "growth": 3630,
      "##day": 3631,
      "##row": 3632,
      "furnace": 3633,
      "them": 3634,
      "binding": 3635,
      "expression": 3636,
      "##ld": 3637,
      "cart": 3638,
      "##ibility": 3639,
      "predic": 3640,
      "##gement": 3641,
      "rotational": 3642,
      "contr": 3643,
      "pixels": 3644,
      "shift": 3645,
      "enables": 3646,
      "##olution": 3647,
      "page": 3648,
      "represents": 3649,
      "mechanical": 3650,
      "loop": 3651,
      "##ause": 3652,
      "##enz": 3653,
      "satisf": 3654,
      "filled": 3655,
      "health": 3656,
      "01": 3657,
      "mar": 3658,
      "circumference": 3659,
      "steril": 3660,
      "entire": 3661,
      "zone": 3662,
      "simpl": 3663,
      "they": 3664,
      ".,": 3665,
      "binder": 3666,
      "tension": 3667,
      "la": 3668,
      "facilit": 3669,
      "mirror": 3670,
      "surro": 3671,
      "uplink": 3672,
      "telephone": 3673,
      ";(": 3674,
      "rib": 3675,
      "detects": 3676,
      "black": 3677,
      "spac": 3678,
      "##40": 3679,
      "green": 3680,
      "kind": 3681,
      "rapid": 3682,
      "hang": 3683,
      "##ilic": 3684,
      "below": 3685,
      "prior": 3686,
      "boil": 3687,
      "points": 3688,
      "bent": 3689,
      "stabil": 3690,
      "lt": 3691,
      "adher": 3692,
      "##aves": 3693,
      "personal": 3694,
      "yo": 3695,
      "independently": 3696,
      "injecting": 3697,
      "rolling": 3698,
      "protruding": 3699,
      "polishing": 3700,
      "decre": 3701,
      "optionally": 3702,
      "facing": 3703,
      "surrounding": 3704,
      "doc": 3705,
      "depth": 3706,
      "synthes": 3707,
      "wo": 3708,
      "coe": 3709,
      "pick": 3710,
      "these": 3711,
      "bending": 3712,
      "eval": 3713,
      "')": 3714,
      "tip": 3715,
      "ip": 3716,
      "friction": 3717,
      "##ulates": 3718,
      "changed": 3719,
      "transferred": 3720,
      "probe": 3721,
      "indicating": 3722,
      "middle": 3723,
      "uns": 3724,
      "##word": 3725,
      "reson": 3726,
      "medic": 3727,
      "clut": 3728,
      "slu": 3729,
      "modified": 3730,
      "greater": 3731,
      "exhib": 3732,
      "protocol": 3733,
      "brid": 3734,
      "##ced": 3735,
      "counter": 3736,
      "domain": 3737,
      "27": 3738,
      "##ions": 3739,
      "##ble": 3740,
      "ca": 3741,
      "instruct": 3742,
      "derived": 3743,
      "appro": 3744,
      "sched": 3745,
      "molecular": 3746,
      "tray": 3747,
      "indoor": 3748,
      "adhe": 3749,
      "broadcasting": 3750,
      "downward": 3751,
      "##set": 3752,
      "thresh": 3753,
      "##oxyl": 3754,
      "##acement": 3755,
      "managing": 3756,
      "blood": 3757,
      "fold": 3758,
      "magn": 3759,
      "##ished": 3760,
      "shut": 3761,
      "numerals": 3762,
      "111": 3763,
      "amino": 3764,
      "##alkyl": 3765,
      "threshold": 3766,
      "times": 3767,
      "matching": 3768,
      "gt": 3769,
      "aromatic": 3770,
      "##connect": 3771,
      "elimin": 3772,
      "polyester": 3773,
      "nitride": 3774,
      "##odes": 3775,
      "##ull": 3776,
      "##icy": 3777,
      "remaining": 3778,
      "shell": 3779,
      "cand": 3780,
      "104": 3781,
      "##ificial": 3782,
      "adsor": 3783,
      "##ty": 3784,
      "dop": 3785,
      "near": 3786,
      "manufacture": 3787,
      "##thane": 3788,
      "because": 3789,
      "sep": 3790,
      "mus": 3791,
      "effects": 3792,
      "wor": 3793,
      "shock": 3794,
      "ultrasonic": 3795,
      "focus": 3796,
      "##uded": 3797,
      "learning": 3798,
      "filling": 3799,
      "samp": 3800,
      "##mon": 3801,
      "ris": 3802,
      "jud": 3803,
      "til": 3804,
      "turb": 3805,
      "previ": 3806,
      "easy": 3807,
      "leakage": 3808,
      "transaction": 3809,
      "##odies": 3810,
      "##ret": 3811,
      "##iating": 3812,
      "expansion": 3813,
      "conditioner": 3814,
      "foot": 3815,
      "reliability": 3816,
      "##ee": 3817,
      "##ope": 3818,
      "curved": 3819,
      "clutch": 3820,
      "scr": 3821,
      "ear": 3822,
      "atoms": 3823,
      "interference": 3824,
      "filler": 3825,
      "minimize": 3826,
      "spraying": 3827,
      "molded": 3828,
      "s3": 3829,
      "##onal": 3830,
      "osc": 3831,
      "inspection": 3832,
      "conveyor": 3833,
      "channels": 3834,
      "sun": 3835,
      "keep": 3836,
      "rotate": 3837,
      "bound": 3838,
      "wear": 3839,
      "show": 3840,
      "formation": 3841,
      "upward": 3842,
      "coefficient": 3843,
      "titan": 3844,
      "partially": 3845,
      "timing": 3846,
      "ann": 3847,
      "##oresist": 3848,
      "##acy": 3849,
      "##board": 3850,
      "##ti": 3851,
      "candid": 3852,
      "##pie": 3853,
      "spect": 3854,
      "##brid": 3855,
      "jig": 3856,
      "elast": 3857,
      "cab": 3858,
      "##hyd": 3859,
      "secure": 3860,
      "allows": 3861,
      "typ": 3862,
      "##ground": 3863,
      "poll": 3864,
      "160": 3865,
      "impl": 3866,
      "wound": 3867,
      "##ursor": 3868,
      "precursor": 3869,
      "attaching": 3870,
      "pd": 3871,
      "action": 3872,
      "feature": 3873,
      "stopper": 3874,
      "accum": 3875,
      "delivery": 3876,
      "hybrid": 3877,
      "laminated": 3878,
      "introduced": 3879,
      "heated": 3880,
      "##ef": 3881,
      "prevented": 3882,
      "arrangement": 3883,
      "##gn": 3884,
      "##..": 3885,
      "compared": 3886,
      "costs": 3887,
      "phosphor": 3888,
      "alarm": 3889,
      "curing": 3890,
      "alkal": 3891,
      "##ushing": 3892,
      "slud": 3893,
      "dyn": 3894,
      "sequentially": 3895,
      "contamin": 3896,
      "complet": 3897,
      "oscill": 3898,
      "##orter": 3899,
      "sludge": 3900,
      "prevents": 3901,
      "stator": 3902,
      "ship": 3903,
      "admin": 3904,
      "##omb": 3905,
      "electromagnetic": 3906,
      "administ": 3907,
      "r1": 3908,
      "lifting": 3909,
      "transmitter": 3910,
      "agg": 3911,
      "adjustment": 3912,
      "assembling": 3913,
      "separator": 3914,
      "downlink": 3915,
      "pil": 3916,
      "needle": 3917,
      "row": 3918,
      "men": 3919,
      "bed": 3920,
      "tempor": 3921,
      "anim": 3922,
      "dried": 3923,
      "methyl": 3924,
      "assign": 3925,
      "sensors": 3926,
      "45": 3927,
      "epoxy": 3928,
      "recip": 3929,
      "recept": 3930,
      "promot": 3931,
      "##fr": 3932,
      "accurately": 3933,
      "slide": 3934,
      "##ethylene": 3935,
      "cd": 3936,
      "enhance": 3937,
      "##light": 3938,
      "absorption": 3939,
      "tiss": 3940,
      "conductor": 3941,
      "determination": 3942,
      "cycle": 3943,
      "dur": 3944,
      "230": 3945,
      "extension": 3946,
      "##uth": 3947,
      "stress": 3948,
      "contacting": 3949,
      "bridge": 3950,
      "reserv": 3951,
      "molt": 3952,
      "organ": 3953,
      "photoresist": 3954,
      "dioxide": 3955,
      "connects": 3956,
      "molten": 3957,
      "##abl": 3958,
      "refrigerator": 3959,
      "alignment": 3960,
      "herein": 3961,
      "ra": 3962,
      "subscriber": 3963,
      "basic": 3964,
      "embed": 3965,
      "acco": 3966,
      "floating": 3967,
      "compan": 3968,
      "##imed": 3969,
      "##ung": 3970,
      "##plastic": 3971,
      "ge": 3972,
      "smooth": 3973,
      "##arth": 3974,
      "##ological": 3975,
      "transition": 3976,
      "net": 3977,
      "pig": 3978,
      "presence": 3979,
      "reverse": 3980,
      "substance": 3981,
      "coding": 3982,
      "life": 3983,
      "hook": 3984,
      "necessary": 3985,
      "treated": 3986,
      "anch": 3987,
      "emerg": 3988,
      "inputting": 3989,
      "mut": 3990,
      "rand": 3991,
      "areas": 3992,
      "##ley": 3993,
      "profile": 3994,
      "##ament": 3995,
      "##inc": 3996,
      "reading": 3997,
      "collected": 3998,
      "comple": 3999,
      "##itr": 4000,
      "exposure": 4001,
      "blu": 4002,
      "wide": 4003,
      "ens": 4004,
      "axial": 4005,
      "stable": 4006,
      "many": 4007,
      "preset": 4008,
      "series": 4009,
      "##piece": 4010,
      "##ison": 4011,
      "packing": 4012,
      "##ameters": 4013,
      "acet": 4014,
      "cooking": 4015,
      "factor": 4016,
      "shielding": 4017,
      "plating": 4018,
      "pipes": 4019,
      "limit": 4020,
      "lcd": 4021,
      "establ": 4022,
      "sets": 4023,
      "mm": 4024,
      "alg": 4025,
      "spacer": 4026,
      "logic": 4027,
      "##arily": 4028,
      "intake": 4029,
      "medical": 4030,
      "slee": 4031,
      "fibers": 4032,
      "ic": 4033,
      "parking": 4034,
      "thermoplastic": 4035,
      "infl": 4036,
      "##urities": 4037,
      "##artic": 4038,
      "gar": 4039,
      "##tle": 4040,
      "##idity": 4041,
      "##ptide": 4042,
      "converted": 4043,
      "##fin": 4044,
      "s10": 4045,
      "checking": 4046,
      "crystall": 4047,
      "random": 4048,
      "acceptable": 4049,
      "310": 4050,
      "durability": 4051,
      "periphery": 4052,
      "surround": 4053,
      "year": 4054,
      "adhesion": 4055,
      "immun": 4056,
      "stably": 4057,
      "fitting": 4058,
      "concentr": 4059,
      "##etting": 4060,
      "were": 4061,
      "nanop": 4062,
      "status": 4063,
      "##stream": 4064,
      "emergency": 4065,
      "pub": 4066,
      "changes": 4067,
      "##omet": 4068,
      "##roc": 4069,
      "glyc": 4070,
      "rotates": 4071,
      "lateral": 4072,
      "bacter": 4073,
      "nm": 4074,
      "functions": 4075,
      "interior": 4076,
      "eye": 4077,
      "##organ": 4078,
      "facility": 4079,
      "communicating": 4080,
      "piv": 4081,
      "earth": 4082,
      "bank": 4083,
      "ester": 4084,
      "##go": 4085,
      "pressur": 4086,
      "document": 4087,
      "##iven": 4088,
      "##wn": 4089,
      "titanium": 4090,
      "##iner": 4091,
      "metall": 4092,
      "stir": 4093,
      "##icular": 4094,
      "aer": 4095,
      "reflection": 4096,
      "##ield": 4097,
      "suc": 4098,
      "productivity": 4099,
      "pivot": 4100,
      "bonded": 4101,
      "##ather": 4102,
      "feedback": 4103,
      "derivative": 4104,
      "intensity": 4105,
      "disclosure": 4106,
      "cup": 4107,
      "stem": 4108,
      "strain": 4109,
      "advant": 4110,
      "turbine": 4111,
      "##sh": 4112,
      "44": 4113,
      "mal": 4114,
      "repair": 4115,
      "##ette": 4116,
      "conductivity": 4117,
      "master": 4118,
      "impurities": 4119,
      "##amine": 4120,
      "ue": 4121,
      "collection": 4122,
      "fall": 4123,
      "brush": 4124,
      "##ightness": 4125,
      "assembled": 4126,
      "directions": 4127,
      "mesh": 4128,
      "adjusted": 4129,
      ")-": 4130,
      "circulation": 4131,
      "soluble": 4132,
      "expand": 4133,
      "mn": 4134,
      "modules": 4135,
      "smaller": 4136,
      "gol": 4137,
      "socket": 4138,
      "offer": 4139,
      "hours": 4140,
      "mac": 4141,
      "##angular": 4142,
      "day": 4143,
      "acquiring": 4144,
      "##atures": 4145,
      "##omen": 4146,
      "##aph": 4147,
      "silica": 4148,
      "aff": 4149,
      "pun": 4150,
      "convenience": 4151,
      "##ilar": 4152,
      "whose": 4153,
      "ce": 4154,
      "tooth": 4155,
      "solder": 4156,
      "sever": 4157,
      "ur": 4158,
      "diffusion": 4159,
      "calculation": 4160,
      "es": 4161,
      "##iers": 4162,
      "##amm": 4163,
      "upon": 4164,
      "intervals": 4165,
      "##illing": 4166,
      "customer": 4167,
      "abn": 4168,
      "objects": 4169,
      "##try": 4170,
      "##ich": 4171,
      "technology": 4172,
      "purch": 4173,
      "quickly": 4174,
      "aggreg": 4175,
      "protecting": 4176,
      "dye": 4177,
      "melting": 4178,
      "percent": 4179,
      "capt": 4180,
      "econ": 4181,
      "econom": 4182,
      "##osens": 4183,
      "sinter": 4184,
      "##wer": 4185,
      "slab": 4186,
      "cartrid": 4187,
      "original": 4188,
      "lab": 4189,
      "ventil": 4190,
      "hydroxy": 4191,
      "inverter": 4192,
      "engaged": 4193,
      "relatively": 4194,
      "follow": 4195,
      "##ram": 4196,
      "clu": 4197,
      "##anol": 4198,
      "##ments": 4199,
      "protruded": 4200,
      "##here": 4201,
      "recy": 4202,
      "scanning": 4203,
      "##atile": 4204,
      "problems": 4205,
      "decomp": 4206,
      "tissue": 4207,
      "emission": 4208,
      "##cry": 4209,
      "dividing": 4210,
      "gran": 4211,
      "##orph": 4212,
      "dissol": 4213,
      ",\"": 4214,
      "additive": 4215,
      "imaging": 4216,
      "candidate": 4217,
      "harm": 4218,
      "ice": 4219,
      "encry": 4220,
      "house": 4221,
      "sleeve": 4222,
      "stacked": 4223,
      "reproduc": 4224,
      "bul": 4225,
      "achieve": 4226,
      "artificial": 4227,
      "pcb": 4228,
      "matter": 4229,
      "##ets": 4230,
      "failure": 4231,
      "speaker": 4232,
      "etc": 4233,
      "removal": 4234,
      "sett": 4235,
      "38": 4236,
      "##be": 4237,
      "bath": 4238,
      "express": 4239,
      "grain": 4240,
      "mainten": 4241,
      "##oney": 4242,
      "flame": 4243,
      "sod": 4244,
      "starting": 4245,
      "maintenance": 4246,
      "##ople": 4247,
      "##urated": 4248,
      "hydrocarbon": 4249,
      "##ethyl": 4250,
      "platform": 4251,
      "next": 4252,
      "##iolet": 4253,
      "photographing": 4254,
      ")(": 4255,
      "##pr": 4256,
      "synchronization": 4257,
      "##amide": 4258,
      "consum": 4259,
      "drop": 4260,
      "##iness": 4261,
      "similar": 4262,
      "activated": 4263,
      "rti": 4264,
      "identifier": 4265,
      "regener": 4266,
      "people": 4267,
      "potential": 4268,
      "software": 4269,
      "electricity": 4270,
      "parameters": 4271,
      "pharmaceutically": 4272,
      "avail": 4273,
      "culture": 4274,
      "converts": 4275,
      "##iend": 4276,
      "flows": 4277,
      "##xim": 4278,
      "##ings": 4279,
      "abnormal": 4280,
      "##itude": 4281,
      "resources": 4282,
      "communications": 4283,
      "paste": 4284,
      "format": 4285,
      "conveying": 4286,
      "trench": 4287,
      "##pm": 4288,
      "##organism": 4289,
      "microorganism": 4290,
      "technique": 4291,
      "execution": 4292,
      "gins": 4293,
      "offset": 4294,
      "balance": 4295,
      "##eller": 4296,
      "inhibitor": 4297,
      "structures": 4298,
      "ol": 4299,
      "##ither": 4300,
      "regular": 4301,
      "horizontally": 4302,
      "outputted": 4303,
      "illumination": 4304,
      "sidew": 4305,
      "carrying": 4306,
      "103": 4307,
      "substrates": 4308,
      "perpend": 4309,
      "##mosp": 4310,
      "perpendicular": 4311,
      "final": 4312,
      "##ested": 4313,
      "positions": 4314,
      "inflow": 4315,
      "##ender": 4316,
      "atmosp": 4317,
      "sense": 4318,
      "orient": 4319,
      "accommodating": 4320,
      "comparison": 4321,
      "embedded": 4322,
      "gain": 4323,
      "fluores": 4324,
      "##ifies": 4325,
      "friend": 4326,
      "##iving": 4327,
      "makes": 4328,
      "reinforce": 4329,
      "ni": 4330,
      "pieces": 4331,
      "halogen": 4332,
      "fermented": 4333,
      "106": 4334,
      "golf": 4335,
      "<=": 4336,
      "white": 4337,
      "detachably": 4338,
      "cartridge": 4339,
      "nanopartic": 4340,
      "appear": 4341,
      "turning": 4342,
      "casting": 4343,
      "##aling": 4344,
      "partial": 4345,
      "retr": 4346,
      "polys": 4347,
      "overla": 4348,
      "conveniently": 4349,
      "cp": 4350,
      "##eling": 4351,
      "dest": 4352,
      "sent": 4353,
      "deformation": 4354,
      "success": 4355,
      "carried": 4356,
      "shield": 4357,
      "stud": 4358,
      "dual": 4359,
      "ultrav": 4360,
      "ultraviolet": 4361,
      "lub": 4362,
      "operate": 4363,
      "corner": 4364,
      "##2o": 4365,
      "##atch": 4366,
      "sand": 4367,
      "tunnel": 4368,
      "##cos": 4369,
      "go": 4370,
      "##rance": 4371,
      "##atory": 4372,
      "##ae": 4373,
      "print": 4374,
      "##ational": 4375,
      "rack": 4376,
      "selects": 4377,
      "ethylene": 4378,
      "susp": 4379,
      "emitted": 4380,
      "dynamic": 4381,
      "perme": 4382,
      "compensation": 4383,
      "lip": 4384,
      "operator": 4385,
      "##ras": 4386,
      "workpiece": 4387,
      "identifying": 4388,
      "cleaner": 4389,
      "collector": 4390,
      "wood": 4391,
      "quantity": 4392,
      "##mally": 4393,
      "recovery": 4394,
      "minimizing": 4395,
      "multiplex": 4396,
      "turned": 4397,
      "##zo": 4398,
      "##ortion": 4399,
      "acrylic": 4400,
      "arc": 4401,
      "pulver": 4402,
      "deposited": 4403,
      "##ustr": 4404,
      "dispens": 4405,
      "larger": 4406,
      "book": 4407,
      "122": 4408,
      "chrom": 4409,
      "regard": 4410,
      "whole": 4411,
      "##ned": 4412,
      "latch": 4413,
      "reciproc": 4414,
      "600": 4415,
      "##very": 4416,
      "half": 4417,
      "engaging": 4418,
      "squ": 4419,
      "break": 4420,
      "gel": 4421,
      "bio": 4422,
      "##hydr": 4423,
      "cn": 4424,
      "##itation": 4425,
      "grad": 4426,
      "##load": 4427,
      "aryl": 4428,
      "fitted": 4429,
      "cu": 4430,
      "##imedia": 4431,
      "multimedia": 4432,
      "uniformly": 4433,
      "oxidation": 4434,
      "##zy": 4435,
      "43": 4436,
      "outd": 4437,
      "##ones": 4438,
      "##ences": 4439,
      "drawing": 4440,
      "pal": 4441,
      "perman": 4442,
      "very": 4443,
      "interconnect": 4444,
      "iii": 4445,
      "121": 4446,
      "##persion": 4447,
      "bet": 4448,
      "registration": 4449,
      "folding": 4450,
      "reflective": 4451,
      "industr": 4452,
      "disorder": 4453,
      "company": 4454,
      "polyure": 4455,
      "indicator": 4456,
      "dispersion": 4457,
      "##ough": 4458,
      "##ection": 4459,
      "attr": 4460,
      "sodium": 4461,
      "spl": 4462,
      "sum": 4463,
      "har": 4464,
      "write": 4465,
      "wet": 4466,
      "r2": 4467,
      "##oph": 4468,
      "s4": 4469,
      "sug": 4470,
      "hist": 4471,
      "cush": 4472,
      "clos": 4473,
      "encoded": 4474,
      "anchor": 4475,
      "##lation": 4476,
      "aa": 4477,
      "polyethylene": 4478,
      "pole": 4479,
      "injected": 4480,
      "reflected": 4481,
      "virus": 4482,
      "##ival": 4483,
      "advantage": 4484,
      "hydroph": 4485,
      "either": 4486,
      "##ex": 4487,
      "waterproof": 4488,
      "passes": 4489,
      "bars": 4490,
      "lumin": 4491,
      "##igation": 4492,
      "zinc": 4493,
      "sensitive": 4494,
      "photosens": 4495,
      "##mmet": 4496,
      "sidewall": 4497,
      "corro": 4498,
      "mount": 4499,
      "simp": 4500,
      "positioning": 4501,
      "sensed": 4502,
      "reduces": 4503,
      "##grad": 4504,
      "frag": 4505,
      "induction": 4506,
      "##artment": 4507,
      "planar": 4508,
      "charged": 4509,
      "pill": 4510,
      "py": 4511,
      "uv": 4512,
      "proced": 4513,
      "##hip": 4514,
      "loaded": 4515,
      "pit": 4516,
      "hose": 4517,
      "calcium": 4518,
      "resistant": 4519,
      "crack": 4520,
      "situation": 4521,
      "iss": 4522,
      "consists": 4523,
      "push": 4524,
      "##apeut": 4525,
      "adapted": 4526,
      "cushion": 4527,
      "rotatable": 4528,
      "maintained": 4529,
      "clamping": 4530,
      "stra": 4531,
      "structural": 4532,
      "rapidly": 4533,
      "sew": 4534,
      "tracking": 4535,
      "concave": 4536,
      "residual": 4537,
      "star": 4538,
      "extraction": 4539,
      "##ended": 4540,
      "recorded": 4541,
      "diagnosis": 4542,
      "public": 4543,
      "occurs": 4544,
      "transce": 4545,
      "account": 4546,
      "62": 4547,
      "improves": 4548,
      "ginseng": 4549,
      "extracts": 4550,
      "weld": 4551,
      "dispos": 4552,
      "slur": 4553,
      "decoder": 4554,
      "rectangular": 4555,
      "walls": 4556,
      "##flow": 4557,
      "found": 4558,
      "##thal": 4559,
      "cement": 4560,
      "neigh": 4561,
      "division": 4562,
      "##atives": 4563,
      "bub": 4564,
      "polymerization": 4565,
      "protrusions": 4566,
      "##ocking": 4567,
      "modulation": 4568,
      "outdoor": 4569,
      "route": 4570,
      "veget": 4571,
      "testing": 4572,
      "ign": 4573,
      "##ention": 4574,
      "bone": 4575,
      "available": 4576,
      "boundary": 4577,
      "##ipping": 4578,
      "##dd": 4579,
      "grinding": 4580,
      "nar": 4581,
      "instr": 4582,
      "yield": 4583,
      "emul": 4584,
      "packaging": 4585,
      "schedul": 4586,
      "implant": 4587,
      "scale": 4588,
      "hub": 4589,
      "menu": 4590,
      "rollers": 4591,
      "eject": 4592,
      "resolution": 4593,
      "sulfur": 4594,
      "interposed": 4595,
      "slurry": 4596,
      "nodes": 4597,
      "ure": 4598,
      "several": 4599,
      "spin": 4600,
      "name": 4601,
      "lact": 4602,
      "wires": 4603,
      "##enoid": 4604,
      "executing": 4605,
      "searching": 4606,
      "operations": 4607,
      "minimum": 4608,
      "neighb": 4609,
      "empl": 4610,
      "##arges": 4611,
      "condenser": 4612,
      "most": 4613,
      "freez": 4614,
      "kinds": 4615,
      "##ious": 4616,
      "##ession": 4617,
      "##igger": 4618,
      "stick": 4619,
      "therapeut": 4620,
      "250": 4621,
      "nick": 4622,
      "##angu": 4623,
      "magnes": 4624,
      "##ime": 4625,
      "displacement": 4626,
      "##anding": 4627,
      "##ocyan": 4628,
      "fish": 4629,
      "reacting": 4630,
      "melt": 4631,
      "61": 4632,
      "distributed": 4633,
      "attachment": 4634,
      "interlayer": 4635,
      "cs": 4636,
      "##bal": 4637,
      "##pha": 4638,
      "unique": 4639,
      "had": 4640,
      "##roduction": 4641,
      "brightness": 4642,
      "##ivation": 4643,
      "types": 4644,
      "##iling": 4645,
      "incident": 4646,
      "string": 4647,
      "blad": 4648,
      "exerc": 4649,
      "...": 4650,
      "kit": 4651,
      "##hene": 4652,
      "reflecting": 4653,
      "langu": 4654,
      "##ken": 4655,
      "adapt": 4656,
      "algor": 4657,
      "fif": 4658,
      "soy": 4659,
      "114": 4660,
      "silver": 4661,
      "running": 4662,
      "sealed": 4663,
      "registered": 4664,
      "calculates": 4665,
      "sink": 4666,
      "320": 4667,
      "benz": 4668,
      "solenoid": 4669,
      "##sis": 4670,
      "bodies": 4671,
      "computing": 4672,
      "##band": 4673,
      "ether": 4674,
      "narrow": 4675,
      "enzy": 4676,
      "##pec": 4677,
      "polyurethane": 4678,
      "algorith": 4679,
      "enhanced": 4680,
      "separately": 4681,
      "abras": 4682,
      "induct": 4683,
      "adhered": 4684,
      "##omes": 4685,
      "glu": 4686,
      "damper": 4687,
      "grip": 4688,
      "rfid": 4689,
      "mg": 4690,
      "fa": 4691,
      "antibody": 4692,
      "lift": 4693,
      "##ographic": 4694,
      "inflamm": 4695,
      "nickel": 4696,
      "##rence": 4697,
      "##rup": 4698,
      "straight": 4699,
      "lot": 4700,
      "differential": 4701,
      "46": 4702,
      "pigment": 4703,
      "fem": 4704,
      "##ser": 4705,
      "55": 4706,
      "discloses": 4707,
      "##ket": 4708,
      "##iption": 4709,
      "##oxylic": 4710,
      "elong": 4711,
      "mill": 4712,
      "results": 4713,
      "semi": 4714,
      "recognizing": 4715,
      "metallic": 4716,
      "bump": 4717,
      "bb": 4718,
      "simply": 4719,
      "##ipt": 4720,
      "branch": 4721,
      "correcting": 4722,
      "##sequ": 4723,
      "braking": 4724,
      "54": 4725,
      "folded": 4726,
      "pet": 4727,
      "piezo": 4728,
      "05": 4729,
      "surfact": 4730,
      "backward": 4731,
      "thereon": 4732,
      "beh": 4733,
      "##iral": 4734,
      "strong": 4735,
      "repeated": 4736,
      "heav": 4737,
      "aging": 4738,
      "covers": 4739,
      "##used": 4740,
      "resid": 4741,
      "suspension": 4742,
      "##ropr": 4743,
      "##ised": 4744,
      "105": 4745,
      "header": 4746,
      "bits": 4747,
      "coordinate": 4748,
      "bead": 4749,
      "placing": 4750,
      "rain": 4751,
      "conj": 4752,
      "170": 4753,
      "##rel": 4754,
      "precise": 4755,
      "##obile": 4756,
      "##enger": 4757,
      "tet": 4758,
      "chil": 4759,
      "automobile": 4760,
      "##ese": 4761,
      "depending": 4762,
      "ions": 4763,
      "etch": 4764,
      "traveling": 4765,
      "mil": 4766,
      "##che": 4767,
      "##omers": 4768,
      "vibr": 4769,
      "cc": 4770,
      "destination": 4771,
      "friendly": 4772,
      "ammon": 4773,
      "blower": 4774,
      "photosensitive": 4775,
      "films": 4776,
      "ir": 4777,
      "bor": 4778,
      "microw": 4779,
      "alkali": 4780,
      "##ropriate": 4781,
      "29": 4782,
      "isolation": 4783,
      "panels": 4784,
      "transformer": 4785,
      "lubric": 4786,
      "rays": 4787,
      "##aff": 4788,
      "graph": 4789,
      "ole": 4790,
      "manager": 4791,
      "restric": 4792,
      "evaporator": 4793,
      "##yrene": 4794,
      "magnesium": 4795,
      "reinforcement": 4796,
      "nav": 4797,
      "prepare": 4798,
      "instruction": 4799,
      "rig": 4800,
      "##ason": 4801,
      "graphic": 4802,
      "services": 4803,
      "applications": 4804,
      "permanent": 4805,
      "grid": 4806,
      "player": 4807,
      "abs": 4808,
      "peak": 4809,
      "##itis": 4810,
      "slope": 4811,
      "convex": 4812,
      "constituting": 4813,
      "##luor": 4814,
      "retard": 4815,
      "240": 4816,
      "specification": 4817,
      "##oir": 4818,
      "cm": 4819,
      "send": 4820,
      "pedal": 4821,
      "mapping": 4822,
      "language": 4823,
      "cutter": 4824,
      "animal": 4825,
      "caps": 4826,
      "##ivers": 4827,
      "actual": 4828,
      "fluorescent": 4829,
      "coolant": 4830,
      "derivatives": 4831,
      "wastewater": 4832,
      "increases": 4833,
      "elevator": 4834,
      "ga": 4835,
      "proper": 4836,
      "pillar": 4837,
      "last": 4838,
      "signific": 4839,
      "reservoir": 4840,
      "comprised": 4841,
      "completely": 4842,
      "inhibiting": 4843,
      "additionally": 4844,
      "defining": 4845,
      "visual": 4846,
      "train": 4847,
      "penetrating": 4848,
      "##por": 4849,
      "clip": 4850,
      "enhancing": 4851,
      "appropriate": 4852,
      "projected": 4853,
      "occurrence": 4854,
      "stirring": 4855,
      "180": 4856,
      "corrosion": 4857,
      "##acle": 4858,
      "db": 4859,
      "fib": 4860,
      "##print": 4861,
      "beams": 4862,
      "finishing": 4863,
      "until": 4864,
      "neut": 4865,
      "six": 4866,
      "supporter": 4867,
      "cabin": 4868,
      "introducing": 4869,
      "##mers": 4870,
      "##wise": 4871,
      "rev": 4872,
      "collision": 4873,
      "instrument": 4874,
      "##sp": 4875,
      "ti": 4876,
      "mail": 4877,
      "crit": 4878,
      "depositing": 4879,
      "sources": 4880,
      "arranging": 4881,
      "expl": 4882,
      "fruit": 4883,
      "vel": 4884,
      "clear": 4885,
      "flux": 4886,
      "evaluation": 4887,
      "37": 4888,
      "printer": 4889,
      "algorithm": 4890,
      "s20": 4891,
      "paint": 4892,
      "given": 4893,
      "operates": 4894,
      "accident": 4895,
      "joined": 4896,
      "olig": 4897,
      "##ancy": 4898,
      "signaling": 4899,
      "slid": 4900,
      "##pass": 4901,
      "designed": 4902,
      "male": 4903,
      "viscos": 4904,
      "take": 4905,
      "stim": 4906,
      "radical": 4907,
      "##forming": 4908,
      "adsorb": 4909,
      "compartment": 4910,
      "contacts": 4911,
      "##ery": 4912,
      "variation": 4913,
      "chuck": 4914,
      "therefor": 4915,
      "korean": 4916,
      "significant": 4917,
      "measures": 4918,
      "meat": 4919,
      "agents": 4920,
      "radial": 4921,
      "orth": 4922,
      "silicone": 4923,
      "##ense": 4924,
      "##erior": 4925,
      "##illed": 4926,
      "##etic": 4927,
      "joining": 4928,
      "##frame": 4929,
      "##opic": 4930,
      "directed": 4931,
      "##ulose": 4932,
      "-(": 4933,
      "acceleration": 4934,
      "##ental": 4935,
      "facilitate": 4936,
      "##gu": 4937,
      "land": 4938,
      "viscosity": 4939,
      "sections": 4940,
      "spat": 4941,
      "tv": 4942,
      "##prop": 4943,
      "held": 4944,
      "##uff": 4945,
      "therapeutic": 4946,
      "circuits": 4947,
      "influ": 4948,
      "pilot": 4949,
      "peptide": 4950,
      "##inary": 4951,
      "acrylate": 4952,
      "fingerprint": 4953,
      "minutes": 4954,
      "pus": 4955,
      "##obic": 4956,
      "heavy": 4957,
      "substances": 4958,
      "##aturated": 4959,
      "shoe": 4960,
      "accuracy": 4961,
      "session": 4962,
      "releasing": 4963,
      "insulator": 4964,
      "sensit": 4965,
      "goods": 4966,
      "exterior": 4967,
      "tens": 4968,
      "annular": 4969,
      "transfers": 4970,
      "procedure": 4971,
      "auth": 4972,
      "meter": 4973,
      "bid": 4974,
      "cyclo": 4975,
      "extend": 4976,
      "business": 4977,
      "ventilation": 4978,
      "reactive": 4979,
      "phenomen": 4980,
      "pulley": 4981,
      "spot": 4982,
      "burner": 4983,
      "surfactant": 4984,
      "##eding": 4985,
      "tight": 4986,
      "interest": 4987,
      "pads": 4988,
      "##ulf": 4989,
      "war": 4990,
      "rope": 4991,
      "integer": 4992,
      "cause": 4993,
      "chloride": 4994,
      "clust": 4995,
      "fraction": 4996,
      "retaining": 4997,
      "os": 4998,
      "salts": 4999,
      "liquef": 5000,
      "piezoelectric": 5001,
      "##hydro": 5002,
      "##iator": 5003,
      "vi": 5004,
      "vehicles": 5005,
      "far": 5006,
      "sea": 5007,
      "sheets": 5008,
      "##most": 5009,
      "transistors": 5010,
      "satell": 5011,
      "trigger": 5012,
      "wip": 5013,
      "##bs": 5014,
      "root": 5015,
      "resistor": 5016,
      "##arding": 5017,
      "flash": 5018,
      "built": 5019,
      "states": 5020,
      "inducing": 5021,
      "rolled": 5022,
      "amorph": 5023,
      "##tures": 5024,
      "blowing": 5025,
      "202": 5026,
      "previously": 5027,
      "espec": 5028,
      "deck": 5029,
      "recomb": 5030,
      "especially": 5031,
      "extends": 5032,
      "ability": 5033,
      "regardless": 5034,
      "volatile": 5035,
      "confirm": 5036,
      "encl": 5037,
      "tubular": 5038,
      "advance": 5039,
      "training": 5040,
      "crosslink": 5041,
      "laminate": 5042,
      "fermentation": 5043,
      "spread": 5044,
      "exercise": 5045,
      "purified": 5046,
      "regulating": 5047,
      "identified": 5048,
      "gover": 5049,
      "amorphous": 5050,
      "split": 5051,
      "stro": 5052,
      "imped": 5053,
      "stain": 5054,
      "linked": 5055,
      "executed": 5056,
      "saving": 5057,
      "environmental": 5058,
      "tri": 5059,
      "risk": 5060,
      "provider": 5061,
      "stere": 5062,
      "deterior": 5063,
      "offic": 5064,
      "mos": 5065,
      "##mic": 5066,
      "er": 5067,
      "##ugated": 5068,
      "precip": 5069,
      "fabricating": 5070,
      "items": 5071,
      "dna": 5072,
      "tap": 5073,
      "circulating": 5074,
      "apert": 5075,
      "##vement": 5076,
      "clot": 5077,
      "pins": 5078,
      "48": 5079,
      "53": 5080,
      "seaw": 5081,
      "graphene": 5082,
      "activation": 5083,
      "waves": 5084,
      "phenyl": 5085,
      "bacteria": 5086,
      "dev": 5087,
      "task": 5088,
      "##ool": 5089,
      "##ek": 5090,
      "online": 5091,
      "edges": 5092,
      "contacted": 5093,
      "stopping": 5094,
      "usage": 5095,
      "decor": 5096,
      "wheels": 5097,
      "say": 5098,
      "blades": 5099,
      "sort": 5100,
      "inputs": 5101,
      "unsaturated": 5102,
      "serial": 5103,
      "president": 5104,
      "##elf": 5105,
      "formulation": 5106,
      "gps": 5107,
      "alpha": 5108,
      "##li": 5109,
      "exposing": 5110,
      "glycol": 5111,
      "wing": 5112,
      "sel": 5113,
      "korea": 5114,
      "microwave": 5115,
      "##ead": 5116,
      "201": 5117,
      "ta": 5118,
      "relations": 5119,
      "scatter": 5120,
      "induced": 5121,
      "mono": 5122,
      "wed": 5123,
      "fifth": 5124,
      "receptor": 5125,
      "sche": 5126,
      "neck": 5127,
      "chair": 5128,
      "##yn": 5129,
      "gateway": 5130,
      "beverage": 5131,
      "bypass": 5132,
      "##herical": 5133,
      "neutral": 5134,
      "##pected": 5135,
      "##oxane": 5136,
      "lowering": 5137,
      "smoothly": 5138,
      "fed": 5139,
      "108": 5140,
      "cac": 5141,
      "##dm": 5142,
      "primer": 5143,
      "ceiling": 5144,
      "##ilayer": 5145,
      "miner": 5146,
      "fixture": 5147,
      "roof": 5148,
      "soc": 5149,
      "##iox": 5150,
      "estimating": 5151,
      "appearance": 5152,
      "fly": 5153,
      "pressed": 5154,
      "phenomenon": 5155,
      "highly": 5156,
      "round": 5157,
      "puls": 5158,
      "irradiating": 5159,
      "kim": 5160,
      "od": 5161,
      "ingredients": 5162,
      "square": 5163,
      "ju": 5164,
      "purifying": 5165,
      "assist": 5166,
      "jet": 5167,
      "atmosphere": 5168,
      "##gress": 5169,
      "govern": 5170,
      "outward": 5171,
      "sugar": 5172,
      "##comp": 5173,
      "##ube": 5174,
      "branched": 5175,
      "ethyl": 5176,
      "spind": 5177,
      "mer": 5178,
      "switches": 5179,
      "cran": 5180,
      "capacit": 5181,
      "refer": 5182,
      "navigation": 5183,
      "serving": 5184,
      "amine": 5185,
      "##head": 5186,
      "thereto": 5187,
      "damaged": 5188,
      "impedance": 5189,
      "##estion": 5190,
      "pull": 5191,
      "satellite": 5192,
      "hom": 5193,
      "elastically": 5194,
      "stone": 5195,
      "encoder": 5196,
      "ensure": 5197,
      "nanoparticles": 5198,
      "writing": 5199,
      "reinforced": 5200,
      "nanot": 5201,
      "author": 5202,
      "cass": 5203,
      "requests": 5204,
      "degre": 5205,
      "financ": 5206,
      "putting": 5207,
      "specified": 5208,
      "invest": 5209,
      "##ross": 5210,
      "chips": 5211,
      "##oust": 5212,
      "every": 5213,
      "foil": 5214,
      "blue": 5215,
      "entrance": 5216,
      "shared": 5217,
      "how": 5218,
      "##rum": 5219,
      "##width": 5220,
      "##rag": 5221,
      "deflect": 5222,
      "efficient": 5223,
      "burn": 5224,
      "packets": 5225,
      "doped": 5226,
      "zn": 5227,
      "##mpt": 5228,
      "remain": 5229,
      "taste": 5230,
      "party": 5231,
      "##clic": 5232,
      "would": 5233,
      "buck": 5234,
      "slag": 5235,
      "background": 5236,
      "dispersed": 5237,
      "manip": 5238,
      "##ipper": 5239,
      "##ulting": 5240,
      "boost": 5241,
      "designated": 5242,
      "requested": 5243,
      "price": 5244,
      "##iph": 5245,
      "sac": 5246,
      "password": 5247,
      "blank": 5248,
      "nutr": 5249,
      "financial": 5250,
      "cooled": 5251,
      "tensile": 5252,
      "inters": 5253,
      "ack": 5254,
      "transverse": 5255,
      "##aken": 5256,
      "ports": 5257,
      "clo": 5258,
      "acquired": 5259,
      "harmful": 5260,
      "##my": 5261,
      "oh": 5262,
      "stret": 5263,
      "allocated": 5264,
      "evalu": 5265,
      "hopper": 5266,
      "carbonate": 5267,
      "radiating": 5268,
      "my": 5269,
      "recon": 5270,
      "bandwidth": 5271,
      "##ech": 5272,
      "compressing": 5273,
      "causing": 5274,
      "vary": 5275,
      "firm": 5276,
      "##asc": 5277,
      "completed": 5278,
      "spindle": 5279,
      "excess": 5280,
      "alkoxy": 5281,
      "fastened": 5282,
      "boiler": 5283,
      "##cept": 5284,
      "flav": 5285,
      "bicy": 5286,
      "suppressing": 5287,
      "##bb": 5288,
      "regulator": 5289,
      "requesting": 5290,
      "symbols": 5291,
      "crystalline": 5292,
      "95": 5293,
      "##using": 5294,
      "win": 5295,
      "solve": 5296,
      "##work": 5297,
      "applic": 5298,
      "special": 5299,
      "bias": 5300,
      "##inant": 5301,
      "curable": 5302,
      "nort": 5303,
      "##po": 5304,
      "##otide": 5305,
      "teeth": 5306,
      "becomes": 5307,
      "attrib": 5308,
      "inert": 5309,
      "cellular": 5310,
      "multilayer": 5311,
      "reflector": 5312,
      "disorders": 5313,
      "##deg": 5314,
      "ps": 5315,
      "generally": 5316,
      "##tration": 5317,
      "##etary": 5318,
      "ec": 5319,
      "hex": 5320,
      "money": 5321,
      "##rink": 5322,
      "113": 5323,
      "applies": 5324,
      "absorbent": 5325,
      "cabinet": 5326,
      "improvement": 5327,
      "humidity": 5328,
      "##otic": 5329,
      "##ables": 5330,
      "56": 5331,
      "proxim": 5332,
      "priority": 5333,
      "tree": 5334,
      "care": 5335,
      "##rest": 5336,
      "eg": 5337,
      "acoust": 5338,
      "passed": 5339,
      "##acryl": 5340,
      "0001": 5341,
      "medicine": 5342,
      "safely": 5343,
      "pile": 5344,
      "machining": 5345,
      "ecc": 5346,
      "sampling": 5347,
      "##pa": 5348,
      "selective": 5349,
      "invol": 5350,
      "##ata": 5351,
      "interp": 5352,
      "##aches": 5353,
      "crank": 5354,
      "calib": 5355,
      "music": 5356,
      "recombinant": 5357,
      "capacitance": 5358,
      "development": 5359,
      "slider": 5360,
      "##ilicon": 5361,
      "perfor": 5362,
      "backlight": 5363,
      "veloc": 5364,
      "previous": 5365,
      "sending": 5366,
      "spiral": 5367,
      "##ometric": 5368,
      "##imide": 5369,
      "resonance": 5370,
      "##ocyanate": 5371,
      "sufficient": 5372,
      "securing": 5373,
      "reader": 5374,
      "anne": 5375,
      "wavegu": 5376,
      "swing": 5377,
      "elasticity": 5378,
      "count": 5379,
      "senses": 5380,
      "inhibit": 5381,
      "molecule": 5382,
      "penetration": 5383,
      "##ography": 5384,
      "oven": 5385,
      "spectrum": 5386,
      "rs": 5387,
      "cpu": 5388,
      "sterilizing": 5389,
      "tin": 5390,
      "compact": 5391,
      "subsequ": 5392,
      "ess": 5393,
      "junction": 5394,
      "ignition": 5395,
      "nucleic": 5396,
      "toile": 5397,
      "##br": 5398,
      "remark": 5399,
      "##agement": 5400,
      "features": 5401,
      "refractive": 5402,
      "##izable": 5403,
      "speech": 5404,
      "65": 5405,
      "full": 5406,
      "slit": 5407,
      "expanded": 5408,
      "permit": 5409,
      "carry": 5410,
      "##pted": 5411,
      "dum": 5412,
      "simplify": 5413,
      "limited": 5414,
      "cla": 5415,
      "reset": 5416,
      "cellulose": 5417,
      "degrees": 5418,
      "detail": 5419,
      "%.": 5420,
      "##oper": 5421,
      "tea": 5422,
      "conditioning": 5423,
      "##ising": 5424,
      "relationship": 5425,
      "messages": 5426,
      "plants": 5427,
      "enzyme": 5428,
      "deform": 5429,
      "##axial": 5430,
      "warning": 5431,
      "discr": 5432,
      "constructing": 5433,
      "pt": 5434,
      "fuse": 5435,
      "corresponds": 5436,
      "velocity": 5437,
      "telev": 5438,
      "tubes": 5439,
      "##rif": 5440,
      "##inity": 5441,
      "##static": 5442,
      "history": 5443,
      "pel": 5444,
      "levels": 5445,
      "indication": 5446,
      "fatty": 5447,
      "numbers": 5448,
      "##function": 5449,
      "allocation": 5450,
      "##uent": 5451,
      "rim": 5452,
      "##room": 5453,
      "disco": 5454,
      "purification": 5455,
      "s5": 5456,
      "##ques": 5457,
      "pitch": 5458,
      "##mm": 5459,
      "across": 5460,
      "update": 5461,
      "diaph": 5462,
      "term": 5463,
      "##ytic": 5464,
      "don": 5465,
      "faces": 5466,
      "estimated": 5467,
      "great": 5468,
      "detachable": 5469,
      "implemented": 5470,
      "##vers": 5471,
      "toilet": 5472,
      "diaphrag": 5473,
      "tex": 5474,
      "moreover": 5475,
      "cook": 5476,
      "away": 5477,
      "##uty": 5478,
      "mean": 5479,
      "##ns": 5480,
      "spatial": 5481,
      "leaf": 5482,
      "eliminating": 5483,
      "##rot": 5484,
      "##ogram": 5485,
      "encaps": 5486,
      "olefin": 5487,
      "cyclic": 5488,
      "##rob": 5489,
      "##ellig": 5490,
      "developing": 5491,
      "intellig": 5492,
      "slip": 5493,
      "assigned": 5494,
      "polarizing": 5495,
      "r3": 5496,
      "hem": 5497,
      "static": 5498,
      "##cut": 5499,
      "75": 5500,
      "hetero": 5501,
      "##aching": 5502,
      "impurity": 5503,
      "articles": 5504,
      "openings": 5505,
      "glob": 5506,
      "gam": 5507,
      "sharing": 5508,
      "symmet": 5509,
      "serv": 5510,
      "resulting": 5511,
      "accommodated": 5512,
      "##illus": 5513,
      "insect": 5514,
      "pref": 5515,
      "television": 5516,
      "usb": 5517,
      "arb": 5518,
      "exper": 5519,
      "released": 5520,
      "keeping": 5521,
      "##bage": 5522,
      "hold": 5523,
      "aggregate": 5524,
      "neighboring": 5525,
      "epit": 5526,
      "whereby": 5527,
      "cassette": 5528,
      "##vd": 5529,
      "crushing": 5530,
      "##fort": 5531,
      "safe": 5532,
      "trim": 5533,
      "##neum": 5534,
      "subframe": 5535,
      "dummy": 5536,
      "label": 5537,
      "acoustic": 5538,
      "s30": 5539,
      "authentic": 5540,
      "deep": 5541,
      "cloth": 5542,
      "rods": 5543,
      "antig": 5544,
      "acids": 5545,
      "projecting": 5546,
      "isolated": 5547,
      "700": 5548,
      "synthesis": 5549,
      "engagement": 5550,
      "##eds": 5551,
      "##uter": 5552,
      "fault": 5553,
      "stainless": 5554,
      "##den": 5555,
      "simulation": 5556,
      "filters": 5557,
      "aligned": 5558,
      "mixer": 5559,
      "hydroxyl": 5560,
      "eu": 5561,
      "radially": 5562,
      "bottle": 5563,
      "purity": 5564,
      "##off": 5565,
      "##ero": 5566,
      "vit": 5567,
      "cour": 5568,
      "welded": 5569,
      "you": 5570,
      "soybe": 5571,
      "marker": 5572,
      "anion": 5573,
      "purchase": 5574,
      "gir": 5575,
      "recomm": 5576,
      "optimal": 5577,
      "liquefied": 5578,
      "depend": 5579,
      "##stituted": 5580,
      "##60": 5581,
      "reproducing": 5582,
      "##fc": 5583,
      "taking": 5584,
      "bush": 5585,
      "passenger": 5586,
      "repeating": 5587,
      "##oming": 5588,
      "##chi": 5589,
      "help": 5590,
      "##acon": 5591,
      "auto": 5592,
      "meet": 5593,
      "ferr": 5594,
      "progress": 5595,
      "hanger": 5596,
      "##draw": 5597,
      "demod": 5598,
      "convert": 5599,
      "recognized": 5600,
      "cured": 5601,
      "require": 5602,
      "constructed": 5603,
      "confirming": 5604,
      "oscillator": 5605,
      "cloud": 5606,
      "defects": 5607,
      "independent": 5608,
      "-,": 5609,
      "bow": 5610,
      "dro": 5611,
      "taken": 5612,
      "known": 5613,
      "aperture": 5614,
      "cache": 5615,
      "techniques": 5616,
      "hanging": 5617,
      "trip": 5618,
      "fig": 5619,
      "swe": 5620,
      "retain": 5621,
      "compensating": 5622,
      "stations": 5623,
      "industrial": 5624,
      "female": 5625,
      "sensitivity": 5626,
      "nor": 5627,
      "##enyl": 5628,
      "emulsion": 5629,
      "131": 5630,
      "pollution": 5631,
      "sust": 5632,
      "notification": 5633,
      "microphone": 5634,
      "accurate": 5635,
      "atten": 5636,
      "guard": 5637,
      "freely": 5638,
      "##propylene": 5639,
      "damping": 5640,
      "##ext": 5641,
      "tox": 5642,
      "72": 5643,
      "tum": 5644,
      "created": 5645,
      "polysilicon": 5646,
      "diaphragm": 5647,
      "cast": 5648,
      "##otrop": 5649,
      "var": 5650,
      "issu": 5651,
      "reality": 5652,
      "inflammatory": 5653,
      "saw": 5654,
      "season": 5655,
      "government": 5656,
      "etched": 5657,
      "buried": 5658,
      "410": 5659,
      "hardware": 5660,
      "priv": 5661,
      "patterned": 5662,
      "waveguide": 5663,
      "lay": 5664,
      "##phen": 5665,
      "132": 5666,
      "keyword": 5667,
      "##char": 5668,
      "##regn": 5669,
      "den": 5670,
      "pneum": 5671,
      "##apy": 5672,
      "cred": 5673,
      "impregn": 5674,
      "communicate": 5675,
      "pocket": 5676,
      "esc": 5677,
      "instead": 5678,
      "bill": 5679,
      "ger": 5680,
      "sr": 5681,
      "##pc": 5682,
      "entity": 5683,
      "relie": 5684,
      "polymeric": 5685,
      "concer": 5686,
      "fusion": 5687,
      "those": 5688,
      "##ateg": 5689,
      "##ister": 5690,
      "biom": 5691,
      "stock": 5692,
      "reproduction": 5693,
      "centrif": 5694,
      "layered": 5695,
      "##ubstituted": 5696,
      "irradiation": 5697,
      "scheduling": 5698,
      "amplifying": 5699,
      "gun": 5700,
      "pumping": 5701,
      "elastomer": 5702,
      "waveform": 5703,
      "wra": 5704,
      "decrease": 5705,
      "adsorption": 5706,
      "##ibly": 5707,
      "transceiver": 5708,
      "##bles": 5709,
      "consider": 5710,
      "1000": 5711,
      "transporting": 5712,
      "idle": 5713,
      "64": 5714,
      "belong": 5715,
      "withdraw": 5716,
      "dil": 5717,
      "##ina": 5718,
      "##sive": 5719,
      "injector": 5720,
      "##late": 5721,
      "drainage": 5722,
      "occup": 5723,
      "absorber": 5724,
      "woven": 5725,
      "##cence": 5726,
      "biological": 5727,
      "manual": 5728,
      "directional": 5729,
      "##process": 5730,
      "estimation": 5731,
      "diagnosing": 5732,
      "bicycle": 5733,
      "warm": 5734,
      "##ostic": 5735,
      "##ple": 5736,
      "query": 5737,
      "zero": 5738,
      "particip": 5739,
      "called": 5740,
      "creating": 5741,
      "falling": 5742,
      "entry": 5743,
      "expected": 5744,
      "incor": 5745,
      "thermally": 5746,
      "conduit": 5747,
      "timer": 5748,
      "official": 5749,
      "scheme": 5750,
      "nuclear": 5751,
      "maximize": 5752,
      "spherical": 5753,
      "matched": 5754,
      "fluorine": 5755,
      "seating": 5756,
      "retrie": 5757,
      "fishing": 5758,
      "ze": 5759,
      "coupler": 5760,
      "oz": 5761,
      "guides": 5762,
      "intra": 5763,
      "covered": 5764,
      "electrostatic": 5765,
      "voltages": 5766,
      "rough": 5767,
      "demand": 5768,
      "feeder": 5769,
      "cation": 5770,
      "mort": 5771,
      "filtered": 5772,
      "recovering": 5773,
      "paths": 5774,
      "unne": 5775,
      "instant": 5776,
      "##eto": 5777,
      "distributing": 5778,
      "##ift": 5779,
      "sintering": 5780,
      "##unk": 5781,
      "underground": 5782,
      "rails": 5783,
      "luminance": 5784,
      "nh": 5785,
      "impeller": 5786,
      "fresh": 5787,
      "arch": 5788,
      "chambers": 5789,
      "beacon": 5790,
      "intr": 5791,
      "dot": 5792,
      "bobb": 5793,
      "superior": 5794,
      "deviation": 5795,
      "##land": 5796,
      "##iphatic": 5797,
      "1a": 5798,
      "330": 5799,
      "##rication": 5800,
      "attack": 5801,
      "ultra": 5802,
      "excav": 5803,
      "aid": 5804,
      "##uge": 5805,
      "north": 5806,
      "photoc": 5807,
      "technical": 5808,
      "sio": 5809,
      "utilizing": 5810,
      "world": 5811,
      "replacement": 5812,
      "eccent": 5813,
      "closely": 5814,
      "objective": 5815,
      "barrel": 5816,
      "maj": 5817,
      "styrene": 5818,
      "laund": 5819,
      "##reading": 5820,
      "photographed": 5821,
      "evaporation": 5822,
      "2a": 5823,
      "immediate": 5824,
      "spaces": 5825,
      "drink": 5826,
      "recessed": 5827,
      "ton": 5828,
      "##cell": 5829,
      "yel": 5830,
      "scal": 5831,
      "kimchi": 5832,
      "coal": 5833,
      "visible": 5834,
      "segments": 5835,
      "tower": 5836,
      "##owled": 5837,
      "week": 5838,
      "dies": 5839,
      "diagnostic": 5840,
      "exhibits": 5841,
      "##acillus": 5842,
      "promoting": 5843,
      "degrad": 5844,
      "reel": 5845,
      "polypropylene": 5846,
      "affect": 5847,
      "##empl": 5848,
      "cord": 5849,
      "significantly": 5850,
      "mineral": 5851,
      "iv": 5852,
      "coff": 5853,
      "##eline": 5854,
      "##utter": 5855,
      "beta": 5856,
      "##olite": 5857,
      "pushing": 5858,
      "##hole": 5859,
      "blow": 5860,
      "liner": 5861,
      "##ifer": 5862,
      "reciprocating": 5863,
      "weather": 5864,
      "stroke": 5865,
      "radiator": 5866,
      "rang": 5867,
      "iot": 5868,
      "relation": 5869,
      "stre": 5870,
      "samples": 5871,
      "phosphate": 5872,
      "precisely": 5873,
      "exists": 5874,
      "scrol": 5875,
      "appli": 5876,
      "##olefin": 5877,
      "odor": 5878,
      "##arb": 5879,
      "predicting": 5880,
      "let": 5881,
      "cooper": 5882,
      "##odor": 5883,
      "switched": 5884,
      "##we": 5885,
      "indicates": 5886,
      "laundry": 5887,
      "pulling": 5888,
      "pickup": 5889,
      "hull": 5890,
      "guided": 5891,
      "##irection": 5892,
      "temporary": 5893,
      "##isition": 5894,
      "hardness": 5895,
      "major": 5896,
      "tilt": 5897,
      "deb": 5898,
      "coordinates": 5899,
      "##mat": 5900,
      "71": 5901,
      "gold": 5902,
      "constituted": 5903,
      "116": 5904,
      "crus": 5905,
      "viewing": 5906,
      "radius": 5907,
      "much": 5908,
      "prol": 5909,
      "contamination": 5910,
      "colors": 5911,
      "orthog": 5912,
      "planetary": 5913,
      "dissolved": 5914,
      "dissip": 5915,
      "##osc": 5916,
      "context": 5917,
      "##elling": 5918,
      "stran": 5919,
      "115": 5920,
      "administration": 5921,
      "urethane": 5922,
      "shelf": 5923,
      "acquisition": 5924,
      "prep": 5925,
      "shown": 5926,
      "sch": 5927,
      "adapter": 5928,
      "manif": 5929,
      "knob": 5930,
      "##loading": 5931,
      "unsubstituted": 5932,
      "deterioration": 5933,
      "sewage": 5934,
      "##cling": 5935,
      "flower": 5936,
      "d2": 5937,
      "##ensive": 5938,
      "culturing": 5939,
      "##acted": 5940,
      "linking": 5941,
      "perf": 5942,
      "shafts": 5943,
      "follows": 5944,
      "polype": 5945,
      "coffee": 5946,
      "##ta": 5947,
      "##itic": 5948,
      "##olic": 5949,
      "days": 5950,
      "buoy": 5951,
      "bobbin": 5952,
      "representing": 5953,
      "electrolytic": 5954,
      "hydroxide": 5955,
      "behav": 5956,
      "exit": 5957,
      "unnecessary": 5958,
      "slave": 5959,
      "sustain": 5960,
      "##nas": 5961,
      "lig": 5962,
      "precipit": 5963,
      "except": 5964,
      "cluster": 5965,
      "import": 5966,
      "##aved": 5967,
      "curve": 5968,
      "hydroly": 5969,
      "downstream": 5970,
      "ram": 5971,
      "##vinyl": 5972,
      "writ": 5973,
      "jap": 5974,
      "correlation": 5975,
      "antiox": 5976,
      "antioxid": 5977,
      "bene": 5978,
      "jack": 5979,
      "starch": 5980,
      "pneumatic": 5981,
      "seawater": 5982,
      "##upt": 5983,
      "hardening": 5984,
      "alternately": 5985,
      "c2": 5986,
      "calculate": 5987,
      "sleep": 5988,
      "incorpor": 5989,
      "washer": 5990,
      "##our": 5991,
      "poin": 5992,
      "initiator": 5993,
      "polyamide": 5994,
      "drawn": 5995,
      "maintains": 5996,
      "once": 5997,
      "124": 5998,
      "month": 5999,
      "rh": 6000,
      "legs": 6001,
      "emitter": 6002,
      "resultant": 6003,
      "##carbonate": 6004,
      "decoded": 6005,
      "cyan": 6006,
      "antigen": 6007,
      "overlapping": 6008,
      "wal": 6009,
      "nozzles": 6010,
      "annealing": 6011,
      "supplement": 6012,
      "204": 6013,
      "sect": 6014,
      "##opolymer": 6015,
      "identify": 6016,
      "ozone": 6017,
      "tung": 6018,
      "99": 6019,
      "growing": 6020,
      "##lock": 6021,
      "spreading": 6022,
      "##iff": 6023,
      "inclination": 6024,
      "texture": 6025,
      "valves": 6026,
      "encryption": 6027,
      "mouse": 6028,
      "##unger": 6029,
      "remarkably": 6030,
      "retardant": 6031,
      "##acters": 6032,
      "aliphatic": 6033,
      "##icult": 6034,
      "pris": 6035,
      "##adi": 6036,
      "arbitr": 6037,
      "characters": 6038,
      "yellow": 6039,
      "microcomp": 6040,
      "download": 6041,
      "compares": 6042,
      "milk": 6043,
      "##wo": 6044,
      "thereb": 6045,
      "drives": 6046,
      "individually": 6047,
      "tungst": 6048,
      "bis": 6049,
      "polymers": 6050,
      "schedule": 6051,
      "fields": 6052,
      "laminating": 6053,
      "replacing": 6054,
      "##ims": 6055,
      "checks": 6056,
      "oral": 6057,
      "interaction": 6058,
      "settlement": 6059,
      "global": 6060,
      "render": 6061,
      "blast": 6062,
      "codes": 6063,
      "therebetween": 6064,
      "gears": 6065,
      "exclu": 6066,
      "manifold": 6067,
      "boiling": 6068,
      "repeatedly": 6069,
      "freezing": 6070,
      "',": 6071,
      "filtration": 6072,
      "lane": 6073,
      "graphite": 6074,
      "##lets": 6075,
      "lan": 6076,
      "agr": 6077,
      "##ulus": 6078,
      "cnn": 6079,
      "massage": 6080,
      "##more": 6081,
      "##assemb": 6082,
      "orthogonal": 6083,
      "microcomputer": 6084,
      "airb": 6085,
      "exist": 6086,
      "gluc": 6087,
      "accommodation": 6088,
      "inward": 6089,
      "get": 6090,
      "na": 6091,
      "exempl": 6092,
      "suck": 6093,
      "##anted": 6094,
      "vic": 6095,
      "mc": 6096,
      "blind": 6097,
      "preferred": 6098,
      "800": 6099,
      "dd": 6100,
      "consumer": 6101,
      "tungsten": 6102,
      "lit": 6103,
      "inspecting": 6104,
      "modulator": 6105,
      "polyg": 6106,
      "police": 6107,
      "brow": 6108,
      "capturing": 6109,
      "taper": 6110,
      "blueto": 6111,
      "bluetooth": 6112,
      "solving": 6113,
      "patterning": 6114,
      "market": 6115,
      "02": 6116,
      "keyboard": 6117,
      "##aic": 6118,
      "milit": 6119,
      "##lumines": 6120,
      "thermoelectric": 6121,
      "still": 6122,
      "10a": 6123,
      "adhering": 6124,
      "quantum": 6125,
      "bund": 6126,
      "cargo": 6127,
      "overall": 6128,
      "mortar": 6129,
      "diffic": 6130,
      "custom": 6131,
      "catalytic": 6132,
      "realize": 6133,
      "ut": 6134,
      "electrolumines": 6135,
      "distortion": 6136,
      "tft": 6137,
      "##rous": 6138,
      "dispersing": 6139,
      "##phal": 6140,
      "judging": 6141,
      "bad": 6142,
      "hydrophilic": 6143,
      "exemplary": 6144,
      "polyolefin": 6145,
      "a1": 6146,
      "towards": 6147,
      "irradiated": 6148,
      "capsule": 6149,
      "predicted": 6150,
      "sauce": 6151,
      "pv": 6152,
      "classification": 6153,
      "own": 6154,
      "pressurizing": 6155,
      "##assis": 6156,
      "captured": 6157,
      "rpm": 6158,
      "##ogene": 6159,
      "difficult": 6160,
      "##reat": 6161,
      "yoke": 6162,
      "pyr": 6163,
      "residue": 6164,
      "plunger": 6165,
      "arms": 6166,
      "overlapped": 6167,
      "corr": 6168,
      "antim": 6169,
      "##ever": 6170,
      "obtains": 6171,
      "csi": 6172,
      "credit": 6173,
      "##acting": 6174,
      "worker": 6175,
      "##ov": 6176,
      "gravity": 6177,
      "varying": 6178,
      "##pting": 6179,
      "achieved": 6180,
      "temporarily": 6181,
      "delivering": 6182,
      "fixes": 6183,
      "##agon": 6184,
      "furthermore": 6185,
      "transformed": 6186,
      "resonator": 6187,
      "tread": 6188,
      "marine": 6189,
      "flag": 6190,
      "##ogenic": 6191,
      "##cope": 6192,
      "heterocy": 6193,
      "agricult": 6194,
      "sintered": 6195,
      "exchanging": 6196,
      "spro": 6197,
      "conducting": 6198,
      "curv": 6199,
      "rock": 6200,
      "transportation": 6201,
      "sorting": 6202,
      "adjustable": 6203,
      "standby": 6204,
      "south": 6205,
      "shrink": 6206,
      "implementing": 6207,
      "deodor": 6208,
      "polyol": 6209,
      "polyvinyl": 6210,
      "smartphone": 6211,
      "85": 6212,
      "scrap": 6213,
      "give": 6214,
      "##70": 6215,
      "confirmed": 6216,
      "knit": 6217,
      "activating": 6218,
      "flavor": 6219,
      "clad": 6220,
      "##ganese": 6221,
      "decision": 6222,
      "polycarbonate": 6223,
      "tone": 6224,
      "couple": 6225,
      "##oon": 6226,
      "proteins": 6227,
      "hood": 6228,
      "tab": 6229,
      "restor": 6230,
      "entering": 6231,
      "itself": 6232,
      "pa": 6233,
      "clothes": 6234,
      "deterg": 6235,
      "##acterial": 6236,
      "verification": 6237,
      "kin": 6238,
      "eccentric": 6239,
      "recycling": 6240,
      "compat": 6241,
      "discharges": 6242,
      "##from": 6243,
      "toxic": 6244,
      "emp": 6245,
      "bean": 6246,
      "identical": 6247,
      "screening": 6248,
      "c6": 6249,
      "metals": 6250,
      "##volt": 6251,
      "##irectional": 6252,
      "scroll": 6253,
      "coils": 6254,
      "transduc": 6255,
      "58": 6256,
      "hit": 6257,
      "##iloxane": 6258,
      "manganese": 6259,
      "aligning": 6260,
      "origin": 6261,
      "policy": 6262,
      "expanding": 6263,
      "van": 6264,
      "chassis": 6265,
      "zeolite": 6266,
      "coat": 6267,
      "asc": 6268,
      "fixedly": 6269,
      "synchronous": 6270,
      "sputter": 6271,
      "drill": 6272,
      "electroche": 6273,
      "patch": 6274,
      "optimum": 6275,
      "balanc": 6276,
      "proportion": 6277,
      "template": 6278,
      "distal": 6279,
      "keys": 6280,
      "diab": 6281,
      "behavior": 6282,
      "just": 6283,
      "therefrom": 6284,
      "brain": 6285,
      "discrimin": 6286,
      "leading": 6287,
      "propylene": 6288,
      "garbage": 6289,
      "jaw": 6290,
      "girder": 6291,
      "dental": 6292,
      "antibacterial": 6293,
      "##woven": 6294,
      "interf": 6295,
      "polarization": 6296,
      "001": 6297,
      "tilting": 6298,
      "delivered": 6299,
      "interrup": 6300,
      "##iaz": 6301,
      "lowered": 6302,
      "produces": 6303,
      "antennas": 6304,
      "wrink": 6305,
      "needed": 6306,
      "early": 6307,
      "extrusion": 6308,
      "pulverizing": 6309,
      "foaming": 6310,
      "ske": 6311,
      "##xy": 6312,
      "recognize": 6313,
      "thr": 6314,
      ".%,": 6315,
      "dic": 6316,
      "flight": 6317,
      "fill": 6318,
      "shutter": 6319,
      "files": 6320,
      "locked": 6321,
      "##meth": 6322,
      "##ways": 6323,
      "39": 6324,
      "aug": 6325,
      "occurring": 6326,
      "##ulder": 6327,
      "variety": 6328,
      "polyimide": 6329,
      "crossing": 6330,
      "soybean": 6331,
      "##imp": 6332,
      "airbag": 6333,
      "lad": 6334,
      "humid": 6335,
      "searched": 6336,
      "advertising": 6337,
      "fastener": 6338,
      "garlic": 6339,
      "fermenting": 6340,
      "fam": 6341,
      "stages": 6342,
      "pepper": 6343,
      "##rupt": 6344,
      "herb": 6345,
      "rigid": 6346,
      "opens": 6347,
      "amplification": 6348,
      "##hous": 6349,
      "dead": 6350,
      "stacking": 6351,
      "ribs": 6352,
      "oriented": 6353,
      "pores": 6354,
      "stabilizer": 6355,
      "dece": 6356,
      "mouth": 6357,
      "univers": 6358,
      "ira": 6359,
      "##rost": 6360,
      "carboxylic": 6361,
      "complete": 6362,
      "egg": 6363,
      "centrifug": 6364,
      "##uss": 6365,
      "employ": 6366,
      "molecules": 6367,
      "immediately": 6368,
      "greatly": 6369,
      "212": 6370,
      "arr": 6371,
      "create": 6372,
      "iraq": 6373,
      "san": 6374,
      "dough": 6375,
      "da": 6376,
      "##encies": 6377,
      "desc": 6378,
      "dissolving": 6379,
      "##ivalent": 6380,
      "rainwater": 6381,
      "ln": 6382,
      "interle": 6383,
      "defective": 6384,
      "bubble": 6385,
      "words": 6386,
      "##heating": 6387,
      "ash": 6388,
      "manage": 6389,
      "dele": 6390,
      "successively": 6391,
      "bore": 6392,
      "##aryl": 6393,
      "sectional": 6394,
      "leaves": 6395,
      "shoulder": 6396,
      "actuating": 6397,
      "reservation": 6398,
      "minute": 6399,
      "replace": 6400,
      "##oying": 6401,
      "dial": 6402,
      "mutually": 6403,
      "commerc": 6404,
      "lic": 6405,
      "projections": 6406,
      "diam": 6407,
      "filament": 6408,
      "slots": 6409,
      "mob": 6410,
      "handling": 6411,
      "sized": 6412,
      "operational": 6413,
      "disconnect": 6414,
      "movably": 6415,
      "nanotube": 6416,
      "##atin": 6417,
      "##ife": 6418,
      "cho": 6419,
      "followed": 6420,
      "s40": 6421,
      "rule": 6422,
      "float": 6423,
      "abrasion": 6424,
      "minimized": 6425,
      "could": 6426,
      "):": 6427,
      "pure": 6428,
      "##iates": 6429,
      "stri": 6430,
      "nonwoven": 6431,
      "sizes": 6432,
      "living": 6433,
      "exting": 6434,
      "capability": 6435,
      "accumulated": 6436,
      "extingu": 6437,
      "posture": 6438,
      "##bing": 6439,
      "shopping": 6440,
      "shows": 6441,
      "ch2": 6442,
      "carbide": 6443,
      "metab": 6444,
      "##ama": 6445,
      "##adium": 6446,
      "multic": 6447,
      "recycl": 6448,
      "##weight": 6449,
      "curvature": 6450,
      "whit": 6451,
      "proof": 6452,
      "##oting": 6453,
      "secret": 6454,
      "charco": 6455,
      "established": 6456,
      "nb": 6457,
      "secured": 6458,
      "ms": 6459,
      "##tice": 6460,
      "shapes": 6461,
      "##charge": 6462,
      "pop": 6463,
      "ligand": 6464,
      "old": 6465,
      "scattering": 6466,
      "seated": 6467,
      "mush": 6468,
      "attribute": 6469,
      "therapy": 6470,
      "##after": 6471,
      "expressed": 6472,
      "##otive": 6473,
      "analyzed": 6474,
      "icon": 6475,
      "pouch": 6476,
      "##actor": 6477,
      "cooler": 6478,
      "ded": 6479,
      "3a": 6480,
      "removes": 6481,
      "gamma": 6482,
      "educ": 6483,
      "clay": 6484,
      "charcoal": 6485,
      "##iment": 6486,
      "detergent": 6487,
      "r4": 6488,
      "alkaline": 6489,
      "##tance": 6490,
      "setup": 6491,
      "bulk": 6492,
      "sends": 6493,
      "calibration": 6494,
      "leds": 6495,
      "wiper": 6496,
      "shar": 6497,
      "propag": 6498,
      "acetate": 6499,
      "inductor": 6500,
      "manages": 6501,
      "intended": 6502,
      "valid": 6503,
      "pract": 6504,
      "regeneration": 6505,
      "glut": 6506,
      "errors": 6507,
      "malfunction": 6508,
      "##ometer": 6509,
      "123": 6510,
      "opposed": 6511,
      "pw": 6512,
      "12a": 6513,
      "magnets": 6514,
      "##vol": 6515,
      "##oad": 6516,
      "obser": 6517,
      "m2": 6518,
      "modem": 6519,
      "updating": 6520,
      "invent": 6521,
      "match": 6522,
      "corrected": 6523,
      "##inum": 6524,
      "##itives": 6525,
      "country": 6526,
      "antibodies": 6527,
      "binary": 6528,
      "##unctional": 6529,
      "stamp": 6530,
      "condensed": 6531,
      "##ptides": 6532,
      "intersect": 6533,
      "##tes": 6534,
      "workability": 6535,
      "tail": 6536,
      "convenient": 6537,
      "ful": 6538,
      "amb": 6539,
      "restoring": 6540,
      "radar": 6541,
      "sequences": 6542,
      "predict": 6543,
      "agricultural": 6544,
      "bind": 6545,
      "years": 6546,
      "stiff": 6547,
      "comparator": 6548,
      "collects": 6549,
      "dispensing": 6550,
      "orientation": 6551,
      "oscillation": 6552,
      "precision": 6553,
      "requiring": 6554,
      "emits": 6555,
      "association": 6556,
      "cultiv": 6557,
      "private": 6558,
      "ba": 6559,
      "##asp": 6560,
      "twist": 6561,
      "infect": 6562,
      "atm": 6563,
      "##tress": 6564,
      "107": 6565,
      "representative": 6566,
      "modulated": 6567,
      "##2o3": 6568,
      "handover": 6569,
      "##tp": 6570,
      "adaptive": 6571,
      "##vant": 6572,
      "gasket": 6573,
      "kg": 6574,
      "inj": 6575,
      "hyp": 6576,
      "causes": 6577,
      "marking": 6578,
      "##iage": 6579,
      "agit": 6580,
      "##ilities": 6581,
      "photograph": 6582,
      "63": 6583,
      "categ": 6584,
      "biometric": 6585,
      "##ibr": 6586,
      "interfer": 6587,
      "modes": 6588,
      "routing": 6589,
      "420": 6590,
      "multif": 6591,
      "##icated": 6592,
      "stopped": 6593,
      "interlock": 6594,
      "##gical": 6595,
      "##oline": 6596,
      "specim": 6597,
      "reads": 6598,
      "exhibit": 6599,
      "wash": 6600,
      "##house": 6601,
      "fert": 6602,
      "##ga": 6603,
      "axially": 6604,
      "enl": 6605,
      "flour": 6606,
      "211": 6607,
      "lattice": 6608,
      "though": 6609,
      "boron": 6610,
      "heart": 6611,
      "ammonium": 6612,
      "degradation": 6613,
      "solved": 6614,
      "complement": 6615,
      "350": 6616,
      "hydrophobic": 6617,
      "stepped": 6618,
      "merch": 6619,
      "electrochemical": 6620,
      "allev": 6621,
      "longer": 6622,
      "sales": 6623,
      "pinion": 6624,
      "wired": 6625,
      "c4": 6626,
      "11a": 6627,
      "az": 6628,
      "instructions": 6629,
      "playing": 6630,
      "##ury": 6631,
      "transformation": 6632,
      "intelligent": 6633,
      "##ony": 6634,
      "focusing": 6635,
      "shoes": 6636,
      "united": 6637,
      "sole": 6638,
      "alumina": 6639,
      "big": 6640,
      "microm": 6641,
      "sprayed": 6642,
      "abut": 6643,
      "angles": 6644,
      "lubricant": 6645,
      "crane": 6646,
      "tetra": 6647,
      "calling": 6648,
      "##point": 6649,
      "thermos": 6650,
      "juice": 6651,
      "##ascular": 6652,
      "pipeline": 6653,
      "induce": 6654,
      "vegetable": 6655,
      "returning": 6656,
      "##ronic": 6657,
      "##anger": 6658,
      "##ocr": 6659,
      "temperatures": 6660,
      "cry": 6661,
      "##ingu": 6662,
      "neu": 6663,
      "))": 6664,
      "five": 6665,
      "ammonia": 6666,
      "unf": 6667,
      "abrasive": 6668,
      "amp": 6669,
      "subsequent": 6670,
      "assembl": 6671,
      "s6": 6672,
      "indicated": 6673,
      "city": 6674,
      "concentrated": 6675,
      "obst": 6676,
      "office": 6677,
      "sixth": 6678,
      "##ervation": 6679,
      "commercial": 6680,
      "remov": 6681,
      "sterilization": 6682,
      "##gl": 6683,
      "avoid": 6684,
      "fragment": 6685,
      "rank": 6686,
      "une": 6687,
      "surve": 6688,
      "law": 6689,
      "##imer": 6690,
      "##phthal": 6691,
      "microorganisms": 6692,
      "antic": 6693,
      "exceeds": 6694,
      "cultivation": 6695,
      "simplifying": 6696,
      "elongated": 6697,
      "ionic": 6698,
      "probability": 6699,
      "decreasing": 6700,
      "deformed": 6701,
      "##actory": 6702,
      "spinning": 6703,
      "firmly": 6704,
      "##olar": 6705,
      "classifying": 6706,
      "82": 6707,
      "##acrylate": 6708,
      "diffr": 6709,
      "pairs": 6710,
      "accessing": 6711,
      "weak": 6712,
      "piping": 6713,
      "##iol": 6714,
      "explos": 6715,
      "ferrite": 6716,
      "boards": 6717,
      "cake": 6718,
      "##11": 6719,
      "additives": 6720,
      "mr": 6721,
      "servo": 6722,
      "smoke": 6723,
      "encrypted": 6724,
      "liver": 6725,
      "nail": 6726,
      "stationary": 6727,
      "##ories": 6728,
      "prescr": 6729,
      "203": 6730,
      "##oma": 6731,
      "##dehy": 6732,
      "guid": 6733,
      "amplitude": 6734,
      "redund": 6735,
      "deflection": 6736,
      "inverse": 6737,
      "##aver": 6738,
      "##heric": 6739,
      "description": 6740,
      "species": 6741,
      "##cp": 6742,
      "metad": 6743,
      "chem": 6744,
      "adjusts": 6745,
      "finished": 6746,
      "##adiene": 6747,
      "rings": 6748,
      "checked": 6749,
      "communicates": 6750,
      "detached": 6751,
      "uniformity": 6752,
      "ly": 6753,
      "seq": 6754,
      "dispenser": 6755,
      "bubbles": 6756,
      "metadata": 6757,
      "propeller": 6758,
      "shifting": 6759,
      "centrifugal": 6760,
      "pore": 6761,
      "##acchar": 6762,
      "approxim": 6763,
      "##amble": 6764,
      "revers": 6765,
      "dryer": 6766,
      "coag": 6767,
      "toner": 6768,
      "comfort": 6769,
      "ans": 6770,
      "score": 6771,
      "vacc": 6772,
      "mobility": 6773,
      "shower": 6774,
      "##anth": 6775,
      "benef": 6776,
      "cig": 6777,
      "upstream": 6778,
      "distingu": 6779,
      "125": 6780,
      "executes": 6781,
      "##cher": 6782,
      "peeling": 6783,
      "limiting": 6784,
      "subjected": 6785,
      "critical": 6786,
      "zirc": 6787,
      "counting": 6788,
      "told": 6789,
      "reaches": 6790,
      "networks": 6791,
      "s100": 6792,
      "rolls": 6793,
      "ofdm": 6794,
      "solub": 6795,
      "hyper": 6796,
      "ethanol": 6797,
      "punch": 6798,
      "nr": 6799,
      "eliminate": 6800,
      "social": 6801,
      "##chlor": 6802,
      "overlap": 6803,
      "gases": 6804,
      "03": 6805,
      "##inf": 6806,
      "elevating": 6807,
      "asphal": 6808,
      "cage": 6809,
      "oxidizing": 6810,
      "zircon": 6811,
      "##rically": 6812,
      "##ystall": 6813,
      "past": 6814,
      "administering": 6815,
      "honey": 6816,
      "##12": 6817,
      "manhole": 6818,
      "surrounds": 6819,
      "particulate": 6820,
      "advanc": 6821,
      "contrast": 6822,
      "reconstruct": 6823,
      "expose": 6824,
      "mixtures": 6825,
      "amplified": 6826,
      "foundation": 6827,
      "vane": 6828,
      "photovolt": 6829,
      "transducer": 6830,
      "fertil": 6831,
      "hydr": 6832,
      "receptacle": 6833,
      "moment": 6834,
      "replaced": 6835,
      "capture": 6836,
      "late": 6837,
      "desk": 6838,
      "carriers": 6839,
      "bands": 6840,
      "streams": 6841,
      "arbitrary": 6842,
      "oxides": 6843,
      "##otropic": 6844,
      "chic": 6845,
      "immune": 6846,
      "disassemb": 6847,
      "charges": 6848,
      "gal": 6849,
      "##iety": 6850,
      "chines": 6851,
      "photovoltaic": 6852,
      "pulverized": 6853,
      "cylinders": 6854,
      "wearable": 6855,
      "warp": 6856,
      "corrugated": 6857,
      "programs": 6858,
      "confirmation": 6859,
      "accelerator": 6860,
      "##pir": 6861,
      "nutrient": 6862,
      "##ishes": 6863,
      "macro": 6864,
      "gradually": 6865,
      "chinese": 6866,
      "execute": 6867,
      "what": 6868,
      "alternating": 6869,
      "##ters": 6870,
      "smell": 6871,
      "hinged": 6872,
      "enclos": 6873,
      "appliance": 6874,
      "diamond": 6875,
      "analyzes": 6876,
      "child": 6877,
      "##oun": 6878,
      "cobal": 6879,
      "snow": 6880,
      "p2": 6881,
      "lenses": 6882,
      "polyn": 6883,
      "breaker": 6884,
      "wast": 6885,
      "##inated": 6886,
      "conduction": 6887,
      "duty": 6888,
      "##osol": 6889,
      "shad": 6890,
      "gauge": 6891,
      "takes": 6892,
      "##els": 6893,
      "polarity": 6894,
      "german": 6895,
      "unman": 6896,
      "thrust": 6897,
      "save": 6898,
      "periodically": 6899,
      "vitamin": 6900,
      "spool": 6901,
      "therm": 6902,
      "question": 6903,
      "specimen": 6904,
      "cobalt": 6905,
      "gripping": 6906,
      "torsion": 6907,
      "##estr": 6908,
      "pret": 6909,
      "utilized": 6910,
      "shot": 6911,
      "silane": 6912,
      "disposable": 6913,
      "epitaxial": 6914,
      "locations": 6915,
      "gy": 6916,
      "##ulin": 6917,
      "##ogeneous": 6918,
      "farm": 6919,
      "##secut": 6920,
      "##ons": 6921,
      "worn": 6922,
      "phosphorus": 6923,
      "##dehyde": 6924,
      "liv": 6925,
      "##ites": 6926,
      "surgical": 6927,
      "unmanned": 6928,
      "asphalt": 6929,
      "66": 6930,
      "cosmetics": 6931,
      "##amb": 6932,
      "##yle": 6933,
      "##osp": 6934,
      "##sole": 6935,
      "dehydr": 6936,
      "containers": 6937,
      "updated": 6938,
      "pwm": 6939,
      "mushroom": 6940,
      "##then": 6941,
      "##idine": 6942,
      "vectors": 6943,
      "colored": 6944,
      "japan": 6945,
      "##oprop": 6946,
      "decomposition": 6947,
      "pulses": 6948,
      "relating": 6949,
      "facilities": 6950,
      "5g": 6951,
      "pers": 6952,
      "sector": 6953,
      "seeds": 6954,
      "##atal": 6955,
      "carriage": 6956,
      "playback": 6957,
      "mapped": 6958,
      "ppm": 6959,
      "fabrication": 6960,
      "factors": 6961,
      "night": 6962,
      "##dren": 6963,
      "c3": 6964,
      "synthesizing": 6965,
      "operable": 6966,
      "##orb": 6967,
      "emboss": 6968,
      "registering": 6969,
      "cycloalkyl": 6970,
      "national": 6971,
      "inform": 6972,
      "##iotic": 6973,
      "neural": 6974,
      "wirelessly": 6975,
      "define": 6976,
      "excessive": 6977,
      "columns": 6978,
      "resil": 6979,
      "interlocking": 6980,
      "closes": 6981,
      "camp": 6982,
      "former": 6983,
      "synchronizing": 6984,
      "##oscopic": 6985,
      "uneven": 6986,
      "paging": 6987,
      "mini": 6988,
      "links": 6989,
      "feeling": 6990,
      "multipl": 6991,
      "##rought": 6992,
      "scene": 6993,
      "grill": 6994,
      "tumor": 6995,
      "tick": 6996,
      "##iveness": 6997,
      "tere": 6998,
      "##upl": 6999,
      "##uments": 7000,
      "condensing": 7001,
      "programming": 7002,
      "##estic": 7003,
      "satisfies": 7004,
      "##book": 7005,
      "realizing": 7006,
      "##app": 7007,
      "pressurized": 7008,
      "ee": 7009,
      "302": 7010,
      "260": 7011,
      "children": 7012,
      "mother": 7013,
      "dyeing": 7014,
      "##hydride": 7015,
      "coming": 7016,
      "infection": 7017,
      "sputtering": 7018,
      "##ifiers": 7019,
      "bolts": 7020,
      "##rome": 7021,
      "crosslinking": 7022,
      "whitening": 7023,
      "completion": 7024,
      "normally": 7025,
      "lng": 7026,
      "streaming": 7027,
      "promote": 7028,
      "005": 7029,
      "boss": 7030,
      "charger": 7031,
      "##irect": 7032,
      "classified": 7033,
      "##_2": 7034,
      "coloring": 7035,
      "rows": 7036,
      "cann": 7037,
      "editing": 7038,
      "cyt": 7039,
      "carboxyl": 7040,
      "street": 7041,
      "alkenyl": 7042,
      "deceler": 7043,
      "evaluating": 7044,
      "pallet": 7045,
      "pier": 7046,
      "nanof": 7047,
      "signature": 7048,
      "##mark": 7049,
      "##icrob": 7050,
      "communicated": 7051,
      "chat": 7052,
      "modeling": 7053,
      "##lying": 7054,
      "atomic": 7055,
      "sacr": 7056,
      "antimicrob": 7057,
      "wedge": 7058,
      "terephthal": 7059,
      "prism": 7060,
      "anis": 7061,
      "permeability": 7062,
      "course": 7063,
      "##illary": 7064,
      "monomers": 7065,
      "coded": 7066,
      "##uk": 7067,
      "##gin": 7068,
      "##irt": 7069,
      "##erve": 7070,
      "##engthen": 7071,
      "antimicrobial": 7072,
      "duration": 7073,
      "see": 7074,
      "microb": 7075,
      "sewing": 7076,
      "mis": 7077,
      "forth": 7078,
      "polymerizable": 7079,
      "purifier": 7080,
      "gest": 7081,
      "##idents": 7082,
      "isocyanate": 7083,
      "fet": 7084,
      "grains": 7085,
      "perforated": 7086,
      "##ica": 7087,
      "influence": 7088,
      "recycled": 7089,
      "##cip": 7090,
      "dehyd": 7091,
      "underwater": 7092,
      "##idence": 7093,
      "peroxide": 7094,
      "vibrating": 7095,
      "4a": 7096,
      "##ocomp": 7097,
      "fund": 7098,
      "##amid": 7099,
      "rising": 7100,
      "excluding": 7101,
      "mim": 7102,
      "modifying": 7103,
      "wax": 7104,
      "trunk": 7105,
      "142": 7106,
      "buy": 7107,
      "lumines": 7108,
      "punching": 7109,
      "bip": 7110,
      "ow": 7111,
      "suspend": 7112,
      "restricting": 7113,
      "should": 7114,
      "facilitating": 7115,
      "passivation": 7116,
      "angular": 7117,
      "cigar": 7118,
      "job": 7119,
      "come": 7120,
      "prolifer": 7121,
      "206": 7122,
      "important": 7123,
      "danger": 7124,
      "exhibiting": 7125,
      "340": 7126,
      "pm": 7127,
      "##igue": 7128,
      "rich": 7129,
      "##structure": 7130,
      "waist": 7131,
      "talk": 7132,
      "cameras": 7133,
      "quantization": 7134,
      "ye": 7135,
      "platinum": 7136,
      "acting": 7137,
      "certific": 7138,
      "aerosol": 7139,
      "logical": 7140,
      "dm": 7141,
      "exact": 7142,
      "##ucleotide": 7143,
      "proposed": 7144,
      "##odegrad": 7145,
      "permeable": 7146,
      "sucking": 7147,
      "date": 7148,
      "modification": 7149,
      "integral": 7150,
      "diffus": 7151,
      "tax": 7152,
      "regarding": 7153,
      "manipulation": 7154,
      "cf": 7155,
      "gray": 7156,
      "bumper": 7157,
      "electroluminescent": 7158,
      "contrib": 7159,
      "slidably": 7160,
      "interpol": 7161,
      "dl": 7162,
      "textile": 7163,
      "umb": 7164,
      "concentrate": 7165,
      "showing": 7166,
      "multiplexing": 7167,
      "trap": 7168,
      "registers": 7169,
      "yl": 7170,
      "orif": 7171,
      "##ecture": 7172,
      "##tery": 7173,
      "##esity": 7174,
      "ballast": 7175,
      "records": 7176,
      "turbo": 7177,
      "economic": 7178,
      "nood": 7179,
      "establishing": 7180,
      "sen": 7181,
      "pedestr": 7182,
      "##aments": 7183,
      "layout": 7184,
      "sweet": 7185,
      "plated": 7186,
      "strap": 7187,
      "grating": 7188,
      "currently": 7189,
      "condensation": 7190,
      "ban": 7191,
      "##ato": 7192,
      "##cel": 7193,
      "integration": 7194,
      "curtain": 7195,
      "cruc": 7196,
      "knife": 7197,
      "##agonal": 7198,
      "foldable": 7199,
      "raised": 7200,
      "dimethyl": 7201,
      "oligomer": 7202,
      "##van": 7203,
      "balls": 7204,
      "protected": 7205,
      "concerns": 7206,
      "obesity": 7207,
      "however": 7208,
      "thermosetting": 7209,
      "preamble": 7210,
      "seller": 7211,
      "##pad": 7212,
      "deposit": 7213,
      "antioxidant": 7214,
      "pse": 7215,
      "biodegrad": 7216,
      "expressing": 7217,
      "browser": 7218,
      "fatigue": 7219,
      "pushed": 7220,
      "301": 7221,
      "immers": 7222,
      "ecu": 7223,
      "provision": 7224,
      "selector": 7225,
      "scanner": 7226,
      "walking": 7227,
      "prel": 7228,
      "drilling": 7229,
      "overc": 7230,
      "recognizes": 7231,
      "360": 7232,
      "d2d": 7233,
      "que": 7234,
      "##etes": 7235,
      "tablet": 7236,
      "##estock": 7237,
      "peer": 7238,
      "##oidal": 7239,
      "##processor": 7240,
      "##iles": 7241,
      "cleans": 7242,
      "flexibility": 7243,
      "gall": 7244,
      "distribut": 7245,
      "wearing": 7246,
      "washed": 7247,
      "proximity": 7248,
      "ine": 7249,
      "raising": 7250,
      "assemblies": 7251,
      "##urr": 7252,
      "polypeptide": 7253,
      "pb": 7254,
      "settling": 7255,
      "##ii": 7256,
      "47": 7257,
      "##uture": 7258,
      "sulfate": 7259,
      "prelimin": 7260,
      "##idal": 7261,
      "cases": 7262,
      "park": 7263,
      "incon": 7264,
      "##onom": 7265,
      "version": 7266,
      "shear": 7267,
      "graft": 7268,
      "cream": 7269,
      "forces": 7270,
      "shorten": 7271,
      "miss": 7272,
      "guidance": 7273,
      "employing": 7274,
      "bundle": 7275,
      "dish": 7276,
      "##poses": 7277,
      "customized": 7278,
      "livestock": 7279,
      "reag": 7280,
      "'-": 7281,
      "crushed": 7282,
      "written": 7283,
      "wat": 7284,
      "military": 7285,
      "tow": 7286,
      "bowl": 7287,
      "repet": 7288,
      "frequencies": 7289,
      "contaminated": 7290,
      "conjugated": 7291,
      "consist": 7292,
      "polarizer": 7293,
      "worm": 7294,
      "##oh": 7295,
      "wearer": 7296,
      "estimate": 7297,
      "utilization": 7298,
      "stereo": 7299,
      "pp": 7300,
      "##gb": 7301,
      "fork": 7302,
      "interrupt": 7303,
      "photod": 7304,
      "roughness": 7305,
      "mu": 7306,
      "conjug": 7307,
      "##bar": 7308,
      "grasp": 7309,
      "lamps": 7310,
      "ham": 7311,
      "buffering": 7312,
      "##hex": 7313,
      "118": 7314,
      "apparatuses": 7315,
      "silicate": 7316,
      "broken": 7317,
      "mag": 7318,
      "190": 7319,
      "laun": 7320,
      "luminous": 7321,
      "nfc": 7322,
      "resins": 7323,
      "terms": 7324,
      "refresh": 7325,
      "waiting": 7326,
      "##itical": 7327,
      "insulated": 7328,
      "vul": 7329,
      "ker": 7330,
      "rates": 7331,
      "conv": 7332,
      "look": 7333,
      "510": 7334,
      "distill": 7335,
      "loess": 7336,
      "configuring": 7337,
      "synd": 7338,
      "chlorine": 7339,
      "loads": 7340,
      "sentence": 7341,
      "disinf": 7342,
      "inhibitors": 7343,
      "##icle": 7344,
      "dependent": 7345,
      "amer": 7346,
      "fused": 7347,
      "##down": 7348,
      "alkylene": 7349,
      "repairing": 7350,
      "wrapping": 7351,
      "ultrasound": 7352,
      "diesel": 7353,
      "sacrificial": 7354,
      "straw": 7355,
      "linearly": 7356,
      "pseud": 7357,
      "##ops": 7358,
      "l1": 7359,
      "##ered": 7360,
      "syring": 7361,
      "oled": 7362,
      "##conduct": 7363,
      "consid": 7364,
      "lubricating": 7365,
      "spacing": 7366,
      "inqu": 7367,
      "##agen": 7368,
      "river": 7369,
      "abnormality": 7370,
      "brought": 7371,
      "trail": 7372,
      "glove": 7373,
      "modular": 7374,
      "readable": 7375,
      "yeast": 7376,
      "shadow": 7377,
      "eco": 7378,
      "bam": 7379,
      "accidents": 7380,
      "sheath": 7381,
      "74": 7382,
      "alternatively": 7383,
      "##ends": 7384,
      "stabilizing": 7385,
      "141": 7386,
      "integrating": 7387,
      "mas": 7388,
      "absorbed": 7389,
      "hour": 7390,
      "burst": 7391,
      "establish": 7392,
      "diabetes": 7393,
      "##abric": 7394,
      "span": 7395,
      "oct": 7396,
      "##nes": 7397,
      "##ste": 7398,
      "##assium": 7399,
      "bs": 7400,
      "empty": 7401,
      "81": 7402,
      "identity": 7403,
      "##rell": 7404,
      "##80": 7405,
      "prost": 7406,
      "frictional": 7407,
      "atmospheric": 7408,
      "diodes": 7409,
      "transmittance": 7410,
      "dedicated": 7411,
      "##nowled": 7412,
      "breakage": 7413,
      "s110": 7414,
      "news": 7415,
      "environmentally": 7416,
      "kept": 7417,
      "##okes": 7418,
      "reported": 7419,
      "axle": 7420,
      "2d": 7421,
      "throt": 7422,
      "asy": 7423,
      "##mes": 7424,
      "race": 7425,
      "##gel": 7426,
      "now": 7427,
      "approval": 7428,
      "blocked": 7429,
      "inconven": 7430,
      "20a": 7431,
      "peel": 7432,
      "nanow": 7433,
      "keypad": 7434,
      "officials": 7435,
      "patients": 7436,
      "enhancement": 7437,
      "crude": 7438,
      "##inally": 7439,
      "divides": 7440,
      "transparency": 7441,
      "rare": 7442,
      "##ortex": 7443,
      "cash": 7444,
      "potassium": 7445,
      "announ": 7446,
      "lifted": 7447,
      "acknowled": 7448,
      "certificate": 7449,
      "##raft": 7450,
      "ld": 7451,
      "ts": 7452,
      "ferro": 7453,
      "tools": 7454,
      "glucose": 7455,
      "##abricated": 7456,
      "brown": 7457,
      "heterocyclic": 7458,
      "brackets": 7459,
      "fertilizer": 7460,
      "ing": 7461,
      "brit": 7462,
      "dose": 7463,
      "##net": 7464,
      "education": 7465,
      "always": 7466,
      "passive": 7467,
      "family": 7468,
      "proce": 7469,
      "servers": 7470,
      "enclosure": 7471,
      "economical": 7472,
      "incoming": 7473,
      "commands": 7474,
      "little": 7475,
      "lights": 7476,
      "examin": 7477,
      "accumulation": 7478,
      "rom": 7479,
      "spon": 7480,
      "satisfied": 7481,
      "microprocessor": 7482,
      "1b": 7483,
      "cot": 7484,
      "comes": 7485,
      "longitudinally": 7486,
      "##can": 7487,
      "retainer": 7488,
      "gesture": 7489,
      "acidic": 7490,
      "periodic": 7491,
      "quart": 7492,
      "coefficients": 7493,
      "receipt": 7494,
      "describ": 7495,
      "reporting": 7496,
      "become": 7497,
      "##rick": 7498,
      "2b": 7499,
      "##ml": 7500,
      "bambo": 7501,
      "eight": 7502,
      "nanoparticle": 7503,
      "mt": 7504,
      "prefabricated": 7505,
      "##ulsion": 7506,
      "unloading": 7507,
      "addresses": 7508,
      "##cy": 7509,
      "umbrell": 7510,
      "##urizing": 7511,
      "augment": 7512,
      "obstacle": 7513,
      "live": 7514,
      "toler": 7515,
      "leads": 7516,
      "stay": 7517,
      "rigidity": 7518,
      "says": 7519,
      "router": 7520,
      "sandw": 7521,
      "emuls": 7522,
      "##occ": 7523,
      "s50": 7524,
      "tile": 7525,
      "princip": 7526,
      "wid": 7527,
      "meta": 7528,
      "coupon": 7529,
      "deciding": 7530,
      "soundproof": 7531,
      "a2": 7532,
      "##ha": 7533,
      "pedest": 7534,
      "muscle": 7535,
      "corn": 7536,
      "gradient": 7537,
      "turns": 7538,
      "asymmet": 7539,
      "developer": 7540,
      "optimized": 7541,
      "equivalent": 7542,
      "urea": 7543,
      "tour": 7544,
      "atte": 7545,
      "glasses": 7546,
      "pyro": 7547,
      "decorative": 7548,
      "mond": 7549,
      "##arboxylic": 7550,
      "boom": 7551,
      "confirms": 7552,
      "fully": 7553,
      "syringe": 7554,
      "nonvol": 7555,
      "bamboo": 7556,
      "##aked": 7557,
      "airt": 7558,
      "outflow": 7559,
      "monday": 7560,
      "p1": 7561,
      "merchant": 7562,
      "##itrile": 7563,
      "penetrated": 7564,
      "implantation": 7565,
      "##oyl": 7566,
      "##ether": 7567,
      "truck": 7568,
      "nonvolatile": 7569,
      "find": 7570,
      "maximizing": 7571,
      "lifet": 7572,
      "forc": 7573,
      "bea": 7574,
      "lightweight": 7575,
      "animals": 7576,
      "hap": 7577,
      "oc": 7578,
      "distributor": 7579,
      "tapered": 7580,
      "ticket": 7581,
      "silicide": 7582,
      "##miss": 7583,
      "searches": 7584,
      "promoter": 7585,
      "wafers": 7586,
      "##azine": 7587,
      "multicast": 7588,
      "occurred": 7589,
      "##fficiently": 7590,
      "lifetime": 7591,
      "fung": 7592,
      "creates": 7593,
      "criter": 7594,
      "opposing": 7595,
      "allocating": 7596,
      "doping": 7597,
      "separates": 7598,
      "magnitude": 7599,
      "dynam": 7600,
      "contract": 7601,
      "##table": 7602,
      "quartz": 7603,
      "nucleotide": 7604,
      "marg": 7605,
      "##thr": 7606,
      "umbrella": 7607,
      "##berry": 7608,
      "lost": 7609,
      "##cin": 7610,
      "consecut": 7611,
      "clim": 7612,
      "polarized": 7613,
      "foods": 7614,
      "considering": 7615,
      "lining": 7616,
      "introduction": 7617,
      "satisfy": 7618,
      "watch": 7619,
      "##iture": 7620,
      "nanofiber": 7621,
      "obs": 7622,
      ".\"": 7623,
      "firing": 7624,
      "simplified": 7625,
      "contaminants": 7626,
      "multifunctional": 7627,
      "t1": 7628,
      "sufficiently": 7629,
      "dipping": 7630,
      "emot": 7631,
      "flip": 7632,
      "glycer": 7633,
      "lipid": 7634,
      "##kg": 7635,
      "##olute": 7636,
      "railway": 7637,
      "dopant": 7638,
      "passages": 7639,
      "##accharide": 7640,
      "mp": 7641,
      "ss": 7642,
      "trad": 7643,
      "saturated": 7644,
      "mam": 7645,
      "obama": 7646,
      "torch": 7647,
      "##shaft": 7648,
      "tues": 7649,
      "batteries": 7650,
      "tuesday": 7651,
      "copy": 7652,
      "dip": 7653,
      "butadiene": 7654,
      "orifice": 7655,
      "aspects": 7656,
      "sunlight": 7657,
      "interconnection": 7658,
      "leather": 7659,
      "pulled": 7660,
      "##exp": 7661,
      "##urb": 7662,
      "##oll": 7663,
      "cone": 7664,
      "quot": 7665,
      "s120": 7666,
      "##luoro": 7667,
      "stereoscopic": 7668,
      "pointer": 7669,
      "wil": 7670,
      "share": 7671,
      "cyclone": 7672,
      "absolute": 7673,
      "divers": 7674,
      "tuning": 7675,
      "chicken": 7676,
      "analyzer": 7677,
      "ranging": 7678,
      "url": 7679,
      "##gi": 7680,
      "134": 7681,
      "##udes": 7682,
      "cigarette": 7683,
      "antagon": 7684,
      "phenol": 7685,
      "crucible": 7686,
      "indirect": 7687,
      "engage": 7688,
      "allowed": 7689,
      "airc": 7690,
      "shaping": 7691,
      "inhibits": 7692,
      "pedestal": 7693,
      "##aze": 7694,
      "##ators": 7695,
      "suspended": 7696,
      "suscept": 7697,
      "surrounded": 7698,
      "pellet": 7699,
      "##uder": 7700,
      "##acet": 7701,
      "genes": 7702,
      "reports": 7703,
      "recommend": 7704,
      "##angle": 7705,
      "impregnated": 7706,
      "defines": 7707,
      "##methyl": 7708,
      "biodegradable": 7709,
      "##ros": 7710,
      "##itional": 7711,
      "defin": 7712,
      "functionality": 7713,
      "##regular": 7714,
      "protrude": 7715,
      "5a": 7716,
      "evac": 7717,
      "million": 7718,
      "irregular": 7719,
      "rid": 7720,
      "slow": 7721,
      "##ics": 7722,
      "sta": 7723,
      "microc": 7724,
      "breast": 7725,
      "##ystalline": 7726,
      "##cm": 7727,
      "205": 7728,
      "##azole": 7729,
      "mention": 7730,
      "enabled": 7731,
      "##ilane": 7732,
      "circuitry": 7733,
      "sucked": 7734,
      "##leg": 7735,
      "consideration": 7736,
      "universal": 7737,
      "sd": 7738,
      "bab": 7739,
      "cleaned": 7740,
      "toothbr": 7741,
      "defrost": 7742,
      "fixation": 7743,
      "mit": 7744,
      "##aming": 7745,
      "interactive": 7746,
      "boot": 7747,
      "gase": 7748,
      "pollut": 7749,
      "extruding": 7750,
      "copoly": 7751,
      "##page": 7752,
      "##arch": 7753,
      "decry": 7754,
      "##ancer": 7755,
      "molds": 7756,
      "realized": 7757,
      "cathe": 7758,
      "##carb": 7759,
      "gaseous": 7760,
      "extre": 7761,
      "relief": 7762,
      "archit": 7763,
      "##urance": 7764,
      "hologram": 7765,
      "applicable": 7766,
      "naph": 7767,
      "##usive": 7768,
      "monitors": 7769,
      "900": 7770,
      "aircraft": 7771,
      "##ologically": 7772,
      "##aled": 7773,
      "painting": 7774,
      "drawer": 7775,
      "enters": 7776,
      "throttle": 7777,
      "seasoning": 7778,
      "repeater": 7779,
      "##view": 7780,
      "bulb": 7781,
      "refractory": 7782,
      "latching": 7783,
      "##ises": 7784,
      "presented": 7785,
      "##ocl": 7786,
      "##gener": 7787,
      "cores": 7788,
      "decoration": 7789,
      "discovery": 7790,
      "##urable": 7791,
      "hands": 7792,
      "lactic": 7793,
      "wl": 7794,
      "photopolymer": 7795,
      "hosp": 7796,
      "attenu": 7797,
      "##mix": 7798,
      "vision": 7799,
      "##uents": 7800,
      "respons": 7801,
      "pedestrian": 7802,
      "subtr": 7803,
      "ff": 7804,
      "behind": 7805,
      "ml": 7806,
      "bucket": 7807,
      "hospital": 7808,
      "chromium": 7809,
      "impart": 7810,
      "126": 7811,
      "experience": 7812,
      "jacket": 7813,
      "restriction": 7814,
      "rendering": 7815,
      "oste": 7816,
      "potato": 7817,
      "pictures": 7818,
      "rise": 7819,
      "standing": 7820,
      "translation": 7821,
      "visually": 7822,
      "isolating": 7823,
      "skelet": 7824,
      "acquire": 7825,
      "satisfying": 7826,
      "%;": 7827,
      "tie": 7828,
      "melted": 7829,
      "advantageous": 7830,
      "##velope": 7831,
      "club": 7832,
      "recovered": 7833,
      "coverage": 7834,
      "started": 7835,
      "outwardly": 7836,
      "pap": 7837,
      "category": 7838,
      "tong": 7839,
      "##ker": 7840,
      "s200": 7841,
      "ambient": 7842,
      "pulp": 7843,
      "programm": 7844,
      "finally": 7845,
      "##alent": 7846,
      "##ulant": 7847,
      "hep": 7848,
      "fro": 7849,
      "libr": 7850,
      "envelope": 7851,
      "hash": 7852,
      "ct": 7853,
      "equation": 7854,
      "flying": 7855,
      "modulating": 7856,
      "acquires": 7857,
      "optically": 7858,
      "yarns": 7859,
      "combinations": 7860,
      "foamed": 7861,
      "##hum": 7862,
      "moly": 7863,
      "solubility": 7864,
      "wastes": 7865,
      "mammal": 7866,
      "ef": 7867,
      "soap": 7868,
      "emotion": 7869,
      "toothbrush": 7870,
      "sed": 7871,
      "tio": 7872,
      "autonom": 7873,
      "cables": 7874,
      "investment": 7875,
      "ast": 7876,
      "##benz": 7877,
      "women": 7878,
      "springs": 7879,
      "distillation": 7880,
      "international": 7881,
      "complementary": 7882,
      "medicinal": 7883,
      "mentioned": 7884,
      "pent": 7885,
      "naturally": 7886,
      "pcr": 7887,
      "sharp": 7888,
      "respond": 7889,
      "better": 7890,
      "rr": 7891,
      "preference": 7892,
      "##inic": 7893,
      "excitation": 7894,
      "touc": 7895,
      "respir": 7896,
      "buoyancy": 7897,
      "answer": 7898,
      "r5": 7899,
      "zr": 7900,
      "mattress": 7901,
      "sprock": 7902,
      "##hest": 7903,
      "delayed": 7904,
      "ferroelectric": 7905,
      "haptic": 7906,
      "death": 7907,
      "backup": 7908,
      "connectors": 7909,
      "evenly": 7910,
      "elongation": 7911,
      "photocatal": 7912,
      "syndrome": 7913,
      "sport": 7914,
      "circle": 7915,
      "protrudes": 7916,
      "microf": 7917,
      "projector": 7918,
      "remotely": 7919,
      "reproduced": 7920,
      "extruded": 7921,
      "wednes": 7922,
      "wednesday": 7923,
      "##gery": 7924,
      "him": 7925,
      "needs": 7926,
      "inev": 7927,
      "''": 7928,
      "sided": 7929,
      "ui": 7930,
      "regulation": 7931,
      "molyb": 7932,
      "developed": 7933,
      "##ressed": 7934,
      "diffusing": 7935,
      "cere": 7936,
      "unl": 7937,
      "trace": 7938,
      "capacitive": 7939,
      "##cch": 7940,
      "##oses": 7941,
      "fluoride": 7942,
      "gates": 7943,
      "excl": 7944,
      "furniture": 7945,
      "song": 7946,
      "pear": 7947,
      "quad": 7948,
      "grown": 7949,
      "conveyed": 7950,
      "##une": 7951,
      "sulfon": 7952,
      "germanium": 7953,
      "μm": 7954,
      "compet": 7955,
      "tanks": 7956,
      "chol": 7957,
      "cotton": 7958,
      "##obacillus": 7959,
      "essentially": 7960,
      "##zen": 7961,
      "gripper": 7962,
      "differ": 7963,
      "burning": 7964,
      "chit": 7965,
      "augmented": 7966,
      "killed": 7967,
      "##alc": 7968,
      "##anting": 7969,
      "##ught": 7970,
      "synthesized": 7971,
      "programmable": 7972,
      "sad": 7973,
      "##henyl": 7974,
      "penetrate": 7975,
      "##esis": 7976,
      "##hesis": 7977,
      "managed": 7978,
      "minister": 7979,
      "properly": 7980,
      "purge": 7981,
      "dropping": 7982,
      "##fo": 7983,
      "donor": 7984,
      "depl": 7985,
      "breaking": 7986,
      "drugs": 7987,
      "##ubes": 7988,
      "diffraction": 7989,
      "##enic": 7990,
      "modulus": 7991,
      "structured": 7992,
      "combine": 7993,
      "synchronized": 7994,
      "##chrom": 7995,
      "asp": 7996,
      "mor": 7997,
      "##valent": 7998,
      "caller": 7999,
      "threaded": 8000,
      "extinguishing": 8001,
      "guar": 8002,
      "labor": 8003,
      "mist": 8004,
      "##ressing": 8005,
      "matches": 8006,
      "butyl": 8007,
      "absence": 8008,
      "zig": 8009,
      "##imination": 8010,
      "dark": 8011,
      "92": 8012,
      "##ready": 8013,
      "china": 8014,
      "collagen": 8015,
      "indicate": 8016,
      "achieving": 8017,
      "bidirectional": 8018,
      "hier": 8019,
      "pool": 8020,
      "ble": 8021,
      "chemicals": 8022,
      "preliminary": 8023,
      "dup": 8024,
      "avo": 8025,
      "buttons": 8026,
      "antif": 8027,
      "trou": 8028,
      "approach": 8029,
      "anhydride": 8030,
      "s130": 8031,
      "zo": 8032,
      "resear": 8033,
      "spacers": 8034,
      "earphone": 8035,
      "giving": 8036,
      "nmos": 8037,
      "already": 8038,
      "hierarch": 8039,
      "tro": 8040,
      "analyze": 8041,
      "151": 8042,
      "catheter": 8043,
      "mand": 8044,
      "role": 8045,
      "beads": 8046,
      "events": 8047,
      "anticancer": 8048,
      "##ars": 8049,
      "parity": 8050,
      "##opy": 8051,
      "protector": 8052,
      "substituent": 8053,
      "belonging": 8054,
      "vaccine": 8055,
      "unw": 8056,
      "formulations": 8057,
      "relate": 8058,
      "strut": 8059,
      "figure": 8060,
      "##rs": 8061,
      "motors": 8062,
      "judges": 8063,
      "dynamically": 8064,
      "ore": 8065,
      "decided": 8066,
      "resonant": 8067,
      "matters": 8068,
      "multiplexer": 8069,
      "md": 8070,
      "##isocyanate": 8071,
      "basket": 8072,
      "antibiotic": 8073,
      "duplex": 8074,
      "mpa": 8075,
      "intermed": 8076,
      "similarity": 8077,
      "lactobacillus": 8078,
      "presses": 8079,
      "transforming": 8080,
      "mall": 8081,
      "reliable": 8082,
      "cationic": 8083,
      "decreased": 8084,
      "##humid": 8085,
      "spokes": 8086,
      "sunday": 8087,
      "grounding": 8088,
      "bring": 8089,
      "cav": 8090,
      "s11": 8091,
      "clearance": 8092,
      "dehumid": 8093,
      "enough": 8094,
      "boat": 8095,
      "suppressed": 8096,
      "##istan": 8097,
      "##oxic": 8098,
      "hydrogel": 8099,
      "minimizes": 8100,
      "##atom": 8101,
      "##amino": 8102,
      "bat": 8103,
      "automotive": 8104,
      "pyrid": 8105,
      "balancing": 8106,
      "tent": 8107,
      "windows": 8108,
      "elevation": 8109,
      "mimo": 8110,
      "activities": 8111,
      "ide": 8112,
      "##hz": 8113,
      "agre": 8114,
      "digit": 8115,
      "returned": 8116,
      "b1": 8117,
      "adsorbent": 8118,
      "alone": 8119,
      "109": 8120,
      "preform": 8121,
      "compensate": 8122,
      "##venth": 8123,
      "capacitors": 8124,
      "utilize": 8125,
      "automated": 8126,
      "monitored": 8127,
      "mutual": 8128,
      "bin": 8129,
      "upwardly": 8130,
      "armature": 8131,
      "physi": 8132,
      "10b": 8133,
      "pages": 8134,
      "##olith": 8135,
      "dissipation": 8136,
      "adop": 8137,
      "repeat": 8138,
      "termination": 8139,
      "sidewalls": 8140,
      "stimulation": 8141,
      "sb": 8142,
      "going": 8143,
      "constr": 8144,
      "##ids": 8145,
      "roasting": 8146,
      "##peg": 8147,
      "strand": 8148,
      "molybden": 8149,
      "nox": 8150,
      "commod": 8151,
      "##erved": 8152,
      "heterogeneous": 8153,
      "alb": 8154,
      "vicinity": 8155,
      "##itol": 8156,
      "know": 8157,
      "pvc": 8158,
      "wrist": 8159,
      "fibrous": 8160,
      "observation": 8161,
      "shutting": 8162,
      "judged": 8163,
      "##onitrile": 8164,
      "retention": 8165,
      "d1": 8166,
      "##oul": 8167,
      "coke": 8168,
      "cards": 8169,
      "##icide": 8170,
      "library": 8171,
      "hall": 8172,
      "claim": 8173,
      "brick": 8174,
      "73": 8175,
      "3b": 8176,
      "sites": 8177,
      "assigning": 8178,
      "kinase": 8179,
      "##gf": 8180,
      "scen": 8181,
      "68": 8182,
      "border": 8183,
      "civ": 8184,
      "accessory": 8185,
      "verifying": 8186,
      "soldering": 8187,
      "##sk": 8188,
      "simultaneous": 8189,
      "propagation": 8190,
      "ple": 8191,
      "304": 8192,
      "##la": 8193,
      "##roduce": 8194,
      "click": 8195,
      "meeting": 8196,
      "inventive": 8197,
      "americ": 8198,
      "earthqu": 8199,
      "removable": 8200,
      "diffuser": 8201,
      "222": 8202,
      "accompl": 8203,
      "surge": 8204,
      "predef": 8205,
      "decides": 8206,
      "chemically": 8207,
      "molybdenum": 8208,
      "folder": 8209,
      "industry": 8210,
      "430": 8211,
      "fun": 8212,
      "terephthalate": 8213,
      "lp": 8214,
      "agency": 8215,
      "trav": 8216,
      "inhibition": 8217,
      "mole": 8218,
      "capillary": 8219,
      "extruder": 8220,
      "microp": 8221,
      "##ney": 8222,
      "tightening": 8223,
      "inevitable": 8224,
      "##do": 8225,
      "methanol": 8226,
      "sealant": 8227,
      "documents": 8228,
      "inflammation": 8229,
      "vortex": 8230,
      "##rosc": 8231,
      "best": 8232,
      "resol": 8233,
      "11b": 8234,
      "finish": 8235,
      "lte": 8236,
      "rna": 8237,
      "cooker": 8238,
      "diene": 8239,
      "##umb": 8240,
      "reagent": 8241,
      "##through": 8242,
      "57": 8243,
      "gan": 8244,
      "##oside": 8245,
      "possibility": 8246,
      "inconvenience": 8247,
      "##olin": 8248,
      "##ief": 8249,
      "polymerizing": 8250,
      "hd": 8251,
      "##oys": 8252,
      "queue": 8253,
      "##eed": 8254,
      "208": 8255,
      "450": 8256,
      "bacillus": 8257,
      "##cing": 8258,
      "##lable": 8259,
      "identifies": 8260,
      "did": 8261,
      "##hel": 8262,
      "pouring": 8263,
      "predefined": 8264,
      "instit": 8265,
      "harq": 8266,
      "amide": 8267,
      "axes": 8268,
      "sale": 8269,
      "discrete": 8270,
      "sap": 8271,
      "moiety": 8272,
      "aged": 8273,
      "%)": 8274,
      "license": 8275,
      "ingot": 8276,
      "##arbon": 8277,
      "##wr": 8278,
      "neighbor": 8279,
      "vibrator": 8280,
      "pine": 8281,
      "firstly": 8282,
      "webs": 8283,
      "gum": 8284,
      "ht": 8285,
      "molar": 8286,
      "owner": 8287,
      "guarant": 8288,
      "thereafter": 8289,
      "issuing": 8290,
      "152": 8291,
      "subset": 8292,
      "sulfide": 8293,
      "interlocked": 8294,
      "prescribed": 8295,
      "cit": 8296,
      "onion": 8297,
      "49": 8298,
      "strengthen": 8299,
      "designing": 8300,
      "##nm": 8301,
      "study": 8302,
      "bellow": 8303,
      "responsive": 8304,
      "definition": 8305,
      "lc": 8306,
      "##opoly": 8307,
      "highest": 8308,
      "shrinkage": 8309,
      "extreme": 8310,
      "arg": 8311,
      "5wt": 8312,
      "nose": 8313,
      "accumulator": 8314,
      "cyano": 8315,
      "bell": 8316,
      "exhausting": 8317,
      "##azing": 8318,
      "aqu": 8319,
      "fingers": 8320,
      "reject": 8321,
      "statement": 8322,
      "explosion": 8323,
      "backing": 8324,
      "vegetation": 8325,
      "baby": 8326,
      "##fl": 8327,
      "quantit": 8328,
      "overlay": 8329,
      "downwardly": 8330,
      "sanit": 8331,
      "s7": 8332,
      "##aneous": 8333,
      "cdma": 8334,
      "blend": 8335,
      "twisted": 8336,
      "note": 8337,
      "##going": 8338,
      "viol": 8339,
      "pmos": 8340,
      "island": 8341,
[...]
