{
  "version": "1.0",
  "truncation": null,
  "padding": null,
  "added_tokens": [
    {
      "id": 0,
      "special": true,
      "content": "<unused_0>",
      "single_word": false,
      "lstrip": false,
      "rstrip": false,
      "normalized": false
    },
    {
      "id": 1,
      "special": true,
      "content": "<unused_1>",
      "single_word": false,
      "lstrip": false,
      "rstrip": false,
      "normalized": false
    },
    {
      "id": 2,
      "special": true,
      "content": "<unused_2>",
      "single_word": false,
      "lstrip": false,
      "rstrip": false,
      "normalized": false
    },
    {
      "id": 3,
      "special": true,
      "content": "<unused_3>",
      "single_word": false,
      "lstrip": false,
      "rstrip": false,
      "normalized": false
    },
    {
      "id": 4,
      "special": true,
      "content": "<unused_4>",
      "single_word": false,
      "lstrip": false,
      "rstrip": false,
      "normalized": false
    },
    {
      "id": 5,
      "special": true,
      "content": "<unused_5>",
      "single_word": false,
      "lstrip": false,
      "rstrip": false,
      "normalized": false
    },
    {
      "id": 6,
      "special": true,
      "content": "<unused_6>",
      "single_word": false,
      "lstrip": false,
      "rstrip": false,
      "normalized": false
    },
    {
      "id": 7,
      "special": true,
      "content": "<unused_7>",
      "single_word": false,
      "lstrip": false,
      "rstrip": false,
      "normalized": false
    },
    {
      "id": 8,
      "special": true,
      "content": "<unused_8>",
      "single_word": false,
      "lstrip": false,
      "rstrip": false,
      "normalized": false
    },
    {
      "id": 9,
      "special": true,
      "content": "<unused_9>",
      "single_word": false,
      "lstrip": false,
      "rstrip": false,
      "normalized": false
    },
    {
      "id": 10,
      "special": true,
      "content": "<unused_10>",
      "single_word": false,
      "lstrip": false,
      "rstrip": false,
      "normalized": false
    },
    {
      "id": 11,
      "special": true,
      "content": "<unused_11>",
      "single_word": false,
      "lstrip": false,
      "rstrip": false,
      "normalized": false
    },
    {
      "id": 12,
      "special": true,
      "content": "<unused_12>",
      "single_word": false,
      "lstrip": false,
      "rstrip": false,
      "normalized": false
    },
    {
      "id": 13,
      "special": true,
      "content": "<unused_13>",
      "single_word": false,
      "lstrip": false,
      "rstrip": false,
      "normalized": false
    },
    {
      "id": 14,
      "special": true,
      "content": "<unused_14>",
      "single_word": false,
      "lstrip": false,
      "rstrip": false,
      "normalized": false
    },
    {
      "id": 15,
      "special": true,
      "content": "<unused_15>",
      "single_word": false,
      "lstrip": false,
      "rstrip": false,
      "normalized": false
    },
    {
      "id": 16,
      "special": true,
      "content": "<unused_16>",
      "single_word": false,
      "lstrip": false,
      "rstrip": false,
      "normalized": false
    },
    {
      "id": 17,
      "special": true,
      "content": "<unused_17>",
      "single_word": false,
      "lstrip": false,
      "rstrip": false,
      "normalized": false
    },
    {
      "id": 18,
      "special": true,
      "content": "<unused_18>",
      "single_word": false,
      "lstrip": false,
      "rstrip": false,
      "normalized": false
    },
    {
      "id": 19,
      "special": true,
      "content": "<unused_19>",
      "single_word": false,
      "lstrip": false,
      "rstrip": false,
      "normalized": false
    },
    {
      "id": 20,
      "special": true,
      "content": "<unused_20>",
      "single_word": false,
      "lstrip": false,
      "rstrip": false,
      "normalized": false
    },
    {
      "id": 21,
      "special": true,
      "content": "<unused_21>",
      "single_word": false,
      "lstrip": false,
      "rstrip": false,
      "normalized": false
    },
    {
      "id": 22,
      "special": true,
      "content": "<unused_22>",
      "single_word": false,
      "lstrip": false,
      "rstrip": false,
      "normalized": false
    },
    {
      "id": 23,
      "special": true,
      "content": "<unused_23>",
      "single_word": false,
      "lstrip": false,
      "rstrip": false,
      "normalized": false
    },
    {
      "id": 24,
      "special": true,
      "content": "<unused_24>",
      "single_word": false,
      "lstrip": false,
      "rstrip": false,
      "normalized": false
    },
    {
      "id": 25,
      "special": true,
      "content": "<unused_25>",
      "single_word": false,
      "lstrip": false,
      "rstrip": false,
      "normalized": false
    },
    {
      "id": 26,
      "special": true,
      "content": "<unused_26>",
      "single_word": false,
      "lstrip": false,
      "rstrip": false,
      "normalized": false
    },
    {
      "id": 27,
      "special": true,
      "content": "<unused_27>",
      "single_word": false,
      "lstrip": false,
      "rstrip": false,
      "normalized": false
    },
    {
      "id": 28,
      "special": true,
      "content": "<unused_28>",
      "single_word": false,
      "lstrip": false,
      "rstrip": false,
      "normalized": false
    },
    {
      "id": 29,
      "special": true,
      "content": "<unused_29>",
      "single_word": false,
      "lstrip": false,
      "rstrip": false,
      "normalized": false
    },
    {
      "id": 30,
      "special": true,
      "content": "<unused_30>",
      "single_word": false,
      "lstrip": false,
      "rstrip": false,
      "normalized": false
    },
    {
      "id": 31,
      "special": true,
      "content": "<unused_31>",
      "single_word": false,
      "lstrip": false,
      "rstrip": false,
      "normalized": false
    },
    {
      "id": 32,
      "special": true,
      "content": "<unused_32>",
      "single_word": false,
      "lstrip": false,
      "rstrip": false,
      "normalized": false
    },
    {
      "id": 33,
      "special": true,
      "content": "<unused_33>",
      "single_word": false,
      "lstrip": false,
      "rstrip": false,
      "normalized": false
    },
    {
      "id": 34,
      "special": true,
      "content": "<unused_34>",
      "single_word": false,
      "lstrip": false,
      "rstrip": false,
      "normalized": false
    },
    {
      "id": 35,
      "special": true,
      "content": "<unused_35>",
      "single_word": false,
      "lstrip": false,
      "rstrip": false,
      "normalized": false
    },
    {
      "id": 36,
      "special": true,
      "content": "<unused_36>",
      "single_word": false,
      "lstrip": false,
      "rstrip": false,
      "normalized": false
    },
    {
      "id": 37,
      "special": true,
      "content": "<unused_37>",
      "single_word": false,
      "lstrip": false,
      "rstrip": false,
      "normalized": false
    },
    {
      "id": 38,
      "special": true,
      "content": "<unused_38>",
      "single_word": false,
      "lstrip": false,
      "rstrip": false,
      "normalized": false
    },
    {
      "id": 39,
      "special": true,
      "content": "<unused_39>",
      "single_word": false,
      "lstrip": false,
      "rstrip": false,
      "normalized": false
    },
    {
      "id": 40,
      "special": true,
      "content": "<unused_40>",
      "single_word": false,
      "lstrip": false,
      "rstrip": false,
      "normalized": false
    },
    {
      "id": 41,
      "special": true,
      "content": "<unused_41>",
      "single_word": false,
      "lstrip": false,
      "rstrip": false,
      "normalized": false
    },
    {
      "id": 42,
      "special": true,
      "content": "<unused_42>",
      "single_word": false,
      "lstrip": false,
      "rstrip": false,
      "normalized": false
    },
    {
      "id": 43,
      "special": true,
      "content": "<unused_43>",
      "single_word": false,
      "lstrip": false,
      "rstrip": false,
      "normalized": false
    },
    {
      "id": 44,
      "special": true,
      "content": "<unused_44>",
      "single_word": false,
      "lstrip": false,
      "rstrip": false,
      "normalized": false
    },
    {
      "id": 45,
      "special": true,
      "content": "<unused_45>",
      "single_word": false,
      "lstrip": false,
      "rstrip": false,
      "normalized": false
    },
    {
      "id": 46,
      "special": true,
      "content": "<unused_46>",
      "single_word": false,
      "lstrip": false,
      "rstrip": false,
      "normalized": false
    },
    {
      "id": 47,
      "special": true,
      "content": "<unused_47>",
      "single_word": false,
      "lstrip": false,
      "rstrip": false,
      "normalized": false
    },
    {
      "id": 48,
      "special": true,
      "content": "<unused_48>",
      "single_word": false,
      "lstrip": false,
      "rstrip": false,
      "normalized": false
    },
    {
      "id": 49,
      "special": true,
      "content": "<unused_49>",
      "single_word": false,
      "lstrip": false,
      "rstrip": false,
      "normalized": false
    },
    {
      "id": 50,
      "special": true,
      "content": "<unused_50>",
      "single_word": false,
      "lstrip": false,
      "rstrip": false,
      "normalized": false
    },
    {
      "id": 51,
      "special": true,
      "content": "<unused_51>",
      "single_word": false,
      "lstrip": false,
      "rstrip": false,
      "normalized": false
    },
    {
      "id": 52,
      "special": true,
      "content": "<unused_52>",
      "single_word": false,
      "lstrip": false,
      "rstrip": false,
      "normalized": false
    },
    {
      "id": 53,
      "special": true,
      "content": "<unused_53>",
      "single_word": false,
      "lstrip": false,
      "rstrip": false,
      "normalized": false
    },
    {
      "id": 54,
      "special": true,
      "content": "<unused_54>",
      "single_word": false,
      "lstrip": false,
      "rstrip": false,
      "normalized": false
    },
    {
      "id": 55,
      "special": true,
      "content": "<unused_55>",
      "single_word": false,
      "lstrip": false,
      "rstrip": false,
      "normalized": false
    },
    {
      "id": 56,
      "special": true,
      "content": "<unused_56>",
      "single_word": false,
      "lstrip": false,
      "rstrip": false,
      "normalized": false
    },
    {
      "id": 57,
      "special": true,
      "content": "<unused_57>",
      "single_word": false,
      "lstrip": false,
      "rstrip": false,
      "normalized": false
    },
    {
      "id": 58,
      "special": true,
      "content": "<unused_58>",
      "single_word": false,
      "lstrip": false,
      "rstrip": false,
      "normalized": false
    },
    {
      "id": 59,
      "special": true,
      "content": "<unused_59>",
      "single_word": false,
      "lstrip": false,
      "rstrip": false,
      "normalized": false
    },
    {
      "id": 60,
      "special": true,
      "content": "<unused_60>",
      "single_word": false,
      "lstrip": false,
      "rstrip": false,
      "normalized": false
    },
    {
      "id": 61,
      "special": true,
      "content": "<unused_61>",
      "single_word": false,
      "lstrip": false,
      "rstrip": false,
      "normalized": false
    },
    {
      "id": 62,
      "special": true,
      "content": "<unused_62>",
      "single_word": false,
      "lstrip": false,
      "rstrip": false,
      "normalized": false
    },
    {
      "id": 63,
      "special": true,
      "content": "<unused_63>",
      "single_word": false,
      "lstrip": false,
      "rstrip": false,
      "normalized": false
    },
    {
      "id": 64,
      "special": true,
      "content": "<unused_64>",
      "single_word": false,
      "lstrip": false,
      "rstrip": false,
      "normalized": false
    },
    {
      "id": 65,
      "special": true,
      "content": "<unused_65>",
      "single_word": false,
      "lstrip": false,
      "rstrip": false,
      "normalized": false
    },
    {
      "id": 66,
      "special": true,
      "content": "<unused_66>",
      "single_word": false,
      "lstrip": false,
      "rstrip": false,
      "normalized": false
    },
    {
      "id": 67,
      "special": true,
      "content": "<unused_67>",
      "single_word": false,
      "lstrip": false,
      "rstrip": false,
      "normalized": false
    },
    {
      "id": 68,
      "special": true,
      "content": "<unused_68>",
      "single_word": false,
      "lstrip": false,
      "rstrip": false,
      "normalized": false
    },
    {
      "id": 69,
      "special": true,
      "content": "<unused_69>",
      "single_word": false,
      "lstrip": false,
      "rstrip": false,
      "normalized": false
    },
    {
      "id": 70,
      "special": true,
      "content": "<unused_70>",
      "single_word": false,
      "lstrip": false,
      "rstrip": false,
      "normalized": false
    },
    {
      "id": 71,
      "special": true,
      "content": "<unused_71>",
      "single_word": false,
      "lstrip": false,
      "rstrip": false,
      "normalized": false
    },
    {
      "id": 72,
      "special": true,
      "content": "<unused_72>",
      "single_word": false,
      "lstrip": false,
      "rstrip": false,
      "normalized": false
    },
    {
      "id": 73,
      "special": true,
      "content": "<unused_73>",
      "single_word": false,
      "lstrip": false,
      "rstrip": false,
      "normalized": false
    },
    {
      "id": 74,
      "special": true,
      "content": "<unused_74>",
      "single_word": false,
      "lstrip": false,
      "rstrip": false,
      "normalized": false
    },
    {
      "id": 75,
      "special": true,
      "content": "<unused_75>",
      "single_word": false,
      "lstrip": false,
      "rstrip": false,
      "normalized": false
    },
    {
      "id": 76,
      "special": true,
      "content": "<unused_76>",
      "single_word": false,
      "lstrip": false,
      "rstrip": false,
      "normalized": false
    },
    {
      "id": 77,
      "special": true,
      "content": "<unused_77>",
      "single_word": false,
      "lstrip": false,
      "rstrip": false,
      "normalized": false
    },
    {
      "id": 78,
      "special": true,
      "content": "<unused_78>",
      "single_word": false,
      "lstrip": false,
      "rstrip": false,
      "normalized": false
    },
    {
      "id": 79,
      "special": true,
      "content": "<unused_79>",
      "single_word": false,
      "lstrip": false,
      "rstrip": false,
      "normalized": false
    },
    {
      "id": 80,
      "special": true,
      "content": "<unused_80>",
      "single_word": false,
      "lstrip": false,
      "rstrip": false,
      "normalized": false
    },
    {
      "id": 81,
      "special": true,
      "content": "<unused_81>",
      "single_word": false,
      "lstrip": false,
      "rstrip": false,
      "normalized": false
    },
    {
      "id": 82,
      "special": true,
      "content": "<unused_82>",
      "single_word": false,
      "lstrip": false,
      "rstrip": false,
      "normalized": false
    },
    {
      "id": 83,
      "special": true,
      "content": "<unused_83>",
      "single_word": false,
      "lstrip": false,
      "rstrip": false,
      "normalized": false
    },
    {
      "id": 84,
      "special": true,
      "content": "<unused_84>",
      "single_word": false,
      "lstrip": false,
      "rstrip": false,
      "normalized": false
    },
    {
      "id": 85,
      "special": true,
      "content": "<unused_85>",
      "single_word": false,
      "lstrip": false,
      "rstrip": false,
      "normalized": false
    },
    {
      "id": 86,
      "special": true,
      "content": "<unused_86>",
      "single_word": false,
      "lstrip": false,
      "rstrip": false,
      "normalized": false
    },
    {
      "id": 87,
      "special": true,
      "content": "<unused_87>",
      "single_word": false,
      "lstrip": false,
      "rstrip": false,
      "normalized": false
    },
    {
      "id": 88,
      "special": true,
      "content": "<unused_88>",
      "single_word": false,
      "lstrip": false,
      "rstrip": false,
      "normalized": false
    },
    {
      "id": 89,
      "special": true,
      "content": "<unused_89>",
      "single_word": false,
      "lstrip": false,
      "rstrip": false,
      "normalized": false
    },
    {
      "id": 90,
      "special": true,
      "content": "<unused_90>",
      "single_word": false,
      "lstrip": false,
      "rstrip": false,
      "normalized": false
    },
    {
      "id": 91,
      "special": true,
      "content": "<unused_91>",
      "single_word": false,
      "lstrip": false,
      "rstrip": false,
      "normalized": false
    },
    {
      "id": 92,
      "special": true,
      "content": "<unused_92>",
      "single_word": false,
      "lstrip": false,
      "rstrip": false,
      "normalized": false
    },
    {
      "id": 93,
      "special": true,
      "content": "<unused_93>",
      "single_word": false,
      "lstrip": false,
      "rstrip": false,
      "normalized": false
    },
    {
      "id": 94,
      "special": true,
      "content": "<unused_94>",
      "single_word": false,
      "lstrip": false,
      "rstrip": false,
      "normalized": false
    },
    {
      "id": 95,
      "special": true,
      "content": "<unused_95>",
      "single_word": false,
      "lstrip": false,
      "rstrip": false,
      "normalized": false
    },
    {
      "id": 96,
      "special": true,
      "content": "<unused_96>",
      "single_word": false,
      "lstrip": false,
      "rstrip": false,
      "normalized": false
    },
    {
      "id": 97,
      "special": true,
      "content": "<unused_97>",
      "single_word": false,
      "lstrip": false,
      "rstrip": false,
      "normalized": false
    },
    {
      "id": 98,
      "special": true,
      "content": "<unused_98>",
      "single_word": false,
      "lstrip": false,
      "rstrip": false,
      "normalized": false
    },
    {
      "id": 99,
      "special": true,
      "content": "<unused_99>",
      "single_word": false,
      "lstrip": false,
      "rstrip": false,
      "normalized": false
    },
    {
      "id": 100,
      "special": true,
      "content": "<eos>",
      "single_word": false,
      "lstrip": false,
      "rstrip": false,
      "normalized": false
    },
    {
      "id": 101,
      "special": true,
      "content": "<bos>",
      "single_word": false,
      "lstrip": false,
      "rstrip": false,
      "normalized": false
    },
    {
      "id": 102,
      "special": true,
      "content": "<pad>",
      "single_word": false,
      "lstrip": false,
      "rstrip": false,
      "normalized": false
    },
    {
      "id": 103,
      "special": true,
      "content": "<unk>",
      "single_word": false,
      "lstrip": false,
      "rstrip": false,
      "normalized": false
    },
    {
      "id": 104,
      "special": true,
      "content": "<cls>",
      "single_word": false,
      "lstrip": false,
      "rstrip": false,
      "normalized": false
    },
    {
      "id": 105,
      "special": true,
      "content": "<s>",
      "single_word": false,
      "lstrip": false,
      "rstrip": false,
      "normalized": false
    }
  ],
  "normalizer": {
    "type": "NFKC"
  },
  "pre_tokenizer": {
    "type": "Sequence",
    "pretokenizers": [
      {
        "type": "BertPreTokenizer"
      }
    ]
  },
  "post_processor": null,
  "decoder": null,
  "model": {
    "type": "BPE",
    "dropout": null,
    "unk_token": "<unk>",
    "continuing_subword_prefix": null,
    "end_of_word_suffix": null,
    "fuse_unk": false,
    "vocab": {
      "<unused_0>": 0,
      "<unused_1>": 1,
      "<unused_2>": 2,
      "<unused_3>": 3,
      "<unused_4>": 4,
      "<unused_5>": 5,
      "<unused_6>": 6,
      "<unused_7>": 7,
      "<unused_8>": 8,
      "<unused_9>": 9,
      "<unused_10>": 10,
      "<unused_11>": 11,
      "<unused_12>": 12,
      "<unused_13>": 13,
      "<unused_14>": 14,
      "<unused_15>": 15,
      "<unused_16>": 16,
      "<unused_17>": 17,
      "<unused_18>": 18,
      "<unused_19>": 19,
      "<unused_20>": 20,
      "<unused_21>": 21,
      "<unused_22>": 22,
      "<unused_23>": 23,
      "<unused_24>": 24,
      "<unused_25>": 25,
      "<unused_26>": 26,
      "<unused_27>": 27,
      "<unused_28>": 28,
      "<unused_29>": 29,
      "<unused_30>": 30,
      "<unused_31>": 31,
      "<unused_32>": 32,
      "<unused_33>": 33,
      "<unused_34>": 34,
      "<unused_35>": 35,
      "<unused_36>": 36,
      "<unused_37>": 37,
      "<unused_38>": 38,
      "<unused_39>": 39,
      "<unused_40>": 40,
      "<unused_41>": 41,
      "<unused_42>": 42,
      "<unused_43>": 43,
      "<unused_44>": 44,
      "<unused_45>": 45,
      "<unused_46>": 46,
      "<unused_47>": 47,
      "<unused_48>": 48,
      "<unused_49>": 49,
      "<unused_50>": 50,
      "<unused_51>": 51,
      "<unused_52>": 52,
      "<unused_53>": 53,
      "<unused_54>": 54,
      "<unused_55>": 55,
      "<unused_56>": 56,
      "<unused_57>": 57,
      "<unused_58>": 58,
      "<unused_59>": 59,
      "<unused_60>": 60,
      "<unused_61>": 61,
      "<unused_62>": 62,
      "<unused_63>": 63,
      "<unused_64>": 64,
      "<unused_65>": 65,
      "<unused_66>": 66,
      "<unused_67>": 67,
      "<unused_68>": 68,
      "<unused_69>": 69,
      "<unused_70>": 70,
      "<unused_71>": 71,
      "<unused_72>": 72,
      "<unused_73>": 73,
      "<unused_74>": 74,
      "<unused_75>": 75,
      "<unused_76>": 76,
      "<unused_77>": 77,
      "<unused_78>": 78,
      "<unused_79>": 79,
      "<unused_80>": 80,
      "<unused_81>": 81,
      "<unused_82>": 82,
      "<unused_83>": 83,
      "<unused_84>": 84,
      "<unused_85>": 85,
      "<unused_86>": 86,
      "<unused_87>": 87,
      "<unused_88>": 88,
      "<unused_89>": 89,
      "<unused_90>": 90,
      "<unused_91>": 91,
      "<unused_92>": 92,
      "<unused_93>": 93,
      "<unused_94>": 94,
      "<unused_95>": 95,
      "<unused_96>": 96,
      "<unused_97>": 97,
      "<unused_98>": 98,
      "<unused_99>": 99,
      "<eos>": 100,
      "<bos>": 101,
      "<pad>": 102,
      "<unk>": 103,
      "<cls>": 104,
      "<s>": 105,
      "!": 106,
      "\"": 107,
      "#": 108,
      "$": 109,
      "%": 110,
      "&": 111,
      "'": 112,
      "(": 113,
      ")": 114,
      "*": 115,
      "+": 116,
      ",": 117,
      "-": 118,
      ".": 119,
      "/": 120,
      "0": 121,
      "1": 122,
      "2": 123,
      "3": 124,
      "4": 125,
      "5": 126,
      "6": 127,
      "7": 128,
      "8": 129,
      "9": 130,
      ":": 131,
      ";": 132,
      "<": 133,
      "=": 134,
      ">": 135,
      "?": 136,
      "@": 137,
      "A": 138,
      "B": 139,
      "C": 140,
      "D": 141,
      "E": 142,
      "F": 143,
      "G": 144,
      "H": 145,
      "I": 146,
      "J": 147,
      "K": 148,
      "L": 149,
      "M": 150,
      "N": 151,
      "O": 152,
      "P": 153,
      "Q": 154,
      "R": 155,
      "S": 156,
      "T": 157,
      "U": 158,
      "V": 159,
      "W": 160,
      "X": 161,
      "Y": 162,
      "Z": 163,
      "[": 164,
      "\\": 165,
      "]": 166,
      "^": 167,
      "_": 168,
      "`": 169,
      "a": 170,
      "b": 171,
      "c": 172,
      "d": 173,
      "e": 174,
      "f": 175,
      "g": 176,
      "h": 177,
      "i": 178,
      "j": 179,
      "k": 180,
      "l": 181,
      "m": 182,
      "n": 183,
      "o": 184,
      "p": 185,
      "q": 186,
      "r": 187,
      "s": 188,
      "t": 189,
      "u": 190,
      "v": 191,
      "w": 192,
      "x": 193,
      "y": 194,
      "z": 195,
      "{": 196,
      "|": 197,
      "}": 198,
      "~": 199,
      "": 200,
      "": 201,
      "": 202,
      "": 203,
      "": 204,
      "": 205,
      "": 206,
      "": 207,
      "": 208,
      "": 209,
      "¡": 210,
      "¢": 211,
      "£": 212,
      "¤": 213,
      "¥": 214,
      "¦": 215,
      "§": 216,
      "¬": 217,
      "­": 218,
      "®": 219,
      "°": 220,
      "±": 221,
      "¶": 222,
      "·": 223,
      "¿": 224,
      "À": 225,
      "Á": 226,
      "Â": 227,
      "Ã": 228,
      "Ä": 229,
      "Å": 230,
      "Ç": 231,
      "È": 232,
      "Ê": 233,
      "Ë": 234,
      "Ì": 235,
      "Í": 236,
      "Î": 237,
      "Ï": 238,
      "Ñ": 239,
      "Ò": 240,
      "Ó": 241,
      "Ô": 242,
      "Õ": 243,
      "Ö": 244,
      "×": 245,
      "Ø": 246,
      "Ù": 247,
      "Ü": 248,
      "Ý": 249,
      "Þ": 250,
      "ß": 251,
      "à": 252,
      "á": 253,
      "â": 254,
      "ã": 255,
      "ç": 256,
      "è": 257,
      "é": 258,
      "ê": 259,
      "ë": 260,
      "í": 261,
      "î": 262,
      "ð": 263,
      "ñ": 264,
      "ó": 265,
      "õ": 266,
      "ö": 267,
      "÷": 268,
      "ø": 269,
      "ù": 270,
      "ú": 271,
      "û": 272,
      "ü": 273,
      "ý": 274,
      "ĸ": 275,
      "Ɣ": 276,
      "ˇ": 277,
      "́": 278,
      "̄": 279,
      "̇": 280,
      "̈": 281,
      "̊": 282,
      "̋": 283,
      "̧": 284,
      "Α": 285,
      "Β": 286,
      "Γ": 287,
      "Δ": 288,
      "Ε": 289,
      "Ζ": 290,
      "Θ": 291,
      "Ι": 292,
      "Κ": 293,
      "Λ": 294,
      "Μ": 295,
      "Ν": 296,
      "Ξ": 297,
      "Ο": 298,
      "Π": 299,
      "Ρ": 300,
      "Σ": 301,
      "Τ": 302,
      "Υ": 303,
      "Φ": 304,
      "Χ": 305,
      "Ψ": 306,
      "Ω": 307,
      "Ϊ": 308,
      "α": 309,
      "β": 310,
      "γ": 311,
      "δ": 312,
      "ε": 313,
      "ζ": 314,
      "η": 315,
      "θ": 316,
      "ι": 317,
      "κ": 318,
      "λ": 319,
      "μ": 320,
      "ν": 321,
      "ξ": 322,
      "ο": 323,
      "π": 324,
      "ρ": 325,
      "σ": 326,
      "τ": 327,
      "υ": 328,
      "φ": 329,
      "χ": 330,
      "ψ": 331,
      "ω": 332,
      "К": 333,
      "М": 334,
      "Н": 335,
      "О": 336,
      "П": 337,
      "Р": 338,
      "Т": 339,
      "Ф": 340,
      "Х": 341,
      "а": 342,
      "г": 343,
      "к": 344,
      "о": 345,
      "р": 346,
      "х": 347,
      "ц": 348,
      "ᄀ": 349,
      "ᄁ": 350,
      "ᄂ": 351,
      "ᄃ": 352,
      "ᄄ": 353,
      "ᄅ": 354,
      "ᄆ": 355,
      "ᄇ": 356,
      "ᄈ": 357,
      "ᄉ": 358,
      "ᄊ": 359,
      "ᄋ": 360,
      "ᄌ": 361,
      "ᄍ": 362,
      "ᄎ": 363,
      "ᄏ": 364,
      "ᄐ": 365,
      "ᄑ": 366,
      "ᄒ": 367,
      "ᄚ": 368,
      "ᄡ": 369,
      "ᅀ": 370,
      "ᅗ": 371,
      "ᅡ": 372,
      "ᅢ": 373,
      "ᅣ": 374,
      "ᅤ": 375,
      "ᅥ": 376,
      "ᅦ": 377,
      "ᅧ": 378,
      "ᅨ": 379,
      "ᅩ": 380,
      "ᅪ": 381,
      "ᅫ": 382,
      "ᅬ": 383,
      "ᅭ": 384,
      "ᅮ": 385,
      "ᅯ": 386,
      "ᅰ": 387,
      "ᅱ": 388,
      "ᅲ": 389,
      "ᅳ": 390,
      "ᅴ": 391,
      "ᅵ": 392,
      "ᆞ": 393,
      "ᆪ": 394,
      "ᆬ": 395,
      "ᆭ": 396,
      "ᆰ": 397,
      "ᆱ": 398,
      "ᆲ": 399,
      "ᆳ": 400,
      "ᆴ": 401,
      "ᆵ": 402,
      "ᇇ": 403,
      "–": 404,
      "—": 405,
      "―": 406,
      "‘": 407,
      "’": 408,
      "“": 409,
      "”": 410,
      "•": 411,
      "‰": 412,
      "′": 413,
      "※": 414,
      "⁄": 415,
      "←": 416,
      "↑": 417,
      "→": 418,
      "↓": 419,
      "↔": 420,
      "↘": 421,
      "↙": 422,
      "⇒": 423,
      "⇔": 424,
      "∀": 425,
      "∂": 426,
      "∃": 427,
      "∇": 428,
      "∈": 429,
      "∏": 430,
      "∑": 431,
      "−": 432,
      "∕": 433,
      "∗": 434,
      "√": 435,
      "∝": 436,
      "∞": 437,
      "∠": 438,
      "∥": 439,
      "∧": 440,
      "∨": 441,
      "∩": 442,
      "∪": 443,
      "∫": 444,
      "∴": 445,
      "∼": 446,
      "∽": 447,
      "≈": 448,
      "≒": 449,
      "≠": 450,
      "≡": 451,
      "≤": 452,
      "≥": 453,
      "≪": 454,
      "≫": 455,
      "⊂": 456,
      "⊃": 457,
      "⊆": 458,
      "⊕": 459,
      "⊙": 460,
      "⊥": 461,
      "⋅": 462,
      "─": 463,
      "━": 464,
      "│": 465,
      "┃": 466,
      "┌": 467,
      "┍": 468,
      "┎": 469,
      "┏": 470,
      "┐": 471,
      "┑": 472,
      "┒": 473,
      "┓": 474,
      "└": 475,
      "┕": 476,
      "┖": 477,
      "┗": 478,
      "┘": 479,
      "┙": 480,
      "┚": 481,
      "┛": 482,
      "├": 483,
      "┣": 484,
      "┤": 485,
      "┫": 486,
      "┬": 487,
      "┯": 488,
      "┰": 489,
      "┳": 490,
      "┴": 491,
      "┻": 492,
      "┼": 493,
      "╂": 494,
      "╋": 495,
      "■": 496,
      "□": 497,
      "▣": 498,
      "▲": 499,
      "△": 500,
      "▵": 501,
      "▶": 502,
      "▷": 503,
      "▼": 504,
      "▽": 505,
      "◀": 506,
      "◁": 507,
      "◆": 508,
      "◇": 509,
      "○": 510,
      "◎": 511,
      "●": 512,
      "◐": 513,
      "★": 514,
      "☞": 515,
      "♀": 516,
      "♂": 517,
      "♠": 518,
      "♡": 519,
      "♣": 520,
      "♥": 521,
      "、": 522,
      "。": 523,
      "〈": 524,
      "〉": 525,
      "《": 526,
      "》": 527,
      "「": 528,
      "」": 529,
      "『": 530,
      "』": 531,
      "【": 532,
      "】": 533,
      "〓": 534,
      "〔": 535,
      "〕": 536,
      "〜": 537,
      "あ": 538,
      "い": 539,
      "う": 540,
      "え": 541,
      "お": 542,
      "か": 543,
      "が": 544,
      "き": 545,
      "く": 546,
      "け": 547,
      "こ": 548,
      "さ": 549,
      "ざ": 550,
      "し": 551,
      "す": 552,
      "そ": 553,
      "た": 554,
      "だ": 555,
      "て": 556,
      "と": 557,
      "な": 558,
      "に": 559,
      "ぬ": 560,
      "ね": 561,
      "の": 562,
      "は": 563,
      "ば": 564,
      "び": 565,
      "ぶ": 566,
      "ぷ": 567,
      "へ": 568,
      "ま": 569,
      "み": 570,
      "や": 571,
      "よ": 572,
      "ら": 573,
      "り": 574,
      "れ": 575,
      "わ": 576,
      "を": 577,
      "ん": 578,
      "ア": 579,
      "イ": 580,
      "ウ": 581,
      "エ": 582,
      "オ": 583,
      "ケ": 584,
      "コ": 585,
      "サ": 586,
      "シ": 587,
      "ス": 588,
      "ツ": 589,
      "ノ": 590,
      "ハ": 591,
      "フ": 592,
      "ヘ": 593,
      "ペ": 594,
      "ム": 595,
      "ョ": 596,
      "ル": 597,
      "ロ": 598,
      "ワ": 599,
      "ヲ": 600,
      "ン": 601,
      "ヶ": 602,
      "・": 603,
      "一": 604,
      "丁": 605,
      "七": 606,
      "万": 607,
      "三": 608,
      "上": 609,
      "下": 610,
      "不": 611,
      "丑": 612,
      "世": 613,
      "丘": 614,
      "丙": 615,
      "中": 616,
      "丸": 617,
      "丹": 618,
      "主": 619,
      "乃": 620,
      "久": 621,
      "之": 622,
      "乎": 623,
      "乏": 624,
      "乘": 625,
      "乙": 626,
      "九": 627,
      "乳": 628,
      "乾": 629,
      "亂": 630,
      "事": 631,
      "二": 632,
      "互": 633,
      "五": 634,
      "井": 635,
      "亞": 636,
      "亡": 637,
      "交": 638,
      "京": 639,
      "亮": 640,
      "人": 641,
      "仁": 642,
      "今": 643,
      "介": 644,
      "仔": 645,
      "仕": 646,
      "他": 647,
      "付": 648,
      "仙": 649,
      "代": 650,
      "令": 651,
      "以": 652,
      "仰": 653,
      "仲": 654,
      "件": 655,
      "任": 656,
      "伏": 657,
      "休": 658,
      "伴": 659,
      "伸": 660,
      "似": 661,
      "伽": 662,
      "位": 663,
      "低": 664,
      "住": 665,
      "佐": 666,
      "何": 667,
      "余": 668,
      "佛": 669,
      "作": 670,
      "使": 671,
      "來": 672,
      "侍": 673,
      "侑": 674,
      "供": 675,
      "依": 676,
      "侵": 677,
      "便": 678,
      "係": 679,
      "促": 680,
      "俑": 681,
      "俓": 682,
      "保": 683,
      "俠": 684,
      "信": 685,
      "修": 686,
      "俳": 687,
      "倂": 688,
      "倉": 689,
      "個": 690,
      "倍": 691,
      "倒": 692,
      "候": 693,
      "倚": 694,
      "値": 695,
      "假": 696,
      "偏": 697,
      "停": 698,
      "健": 699,
      "側": 700,
      "偶": 701,
      "傀": 702,
      "傍": 703,
      "傘": 704,
      "備": 705,
      "傳": 706,
      "傷": 707,
      "傾": 708,
      "像": 709,
      "僞": 710,
      "僧": 711,
      "價": 712,
      "儀": 713,
      "億": 714,
      "償": 715,
      "優": 716,
      "元": 717,
      "充": 718,
      "兆": 719,
      "先": 720,
      "光": 721,
      "克": 722,
      "免": 723,
      "兎": 724,
      "兒": 725,
      "入": 726,
      "內": 727,
      "全": 728,
      "兩": 729,
      "兪": 730,
      "八": 731,
      "公": 732,
      "六": 733,
      "共": 734,
      "兵": 735,
      "其": 736,
      "具": 737,
      "典": 738,
      "兼": 739,
      "円": 740,
      "冊": 741,
      "再": 742,
      "冒": 743,
      "冗": 744,
      "冠": 745,
      "冬": 746,
      "冶": 747,
      "冷": 748,
      "凉": 749,
      "凋": 750,
      "凍": 751,
      "凝": 752,
      "凡": 753,
      "凶": 754,
      "凸": 755,
      "凹": 756,
      "出": 757,
      "函": 758,
      "刀": 759,
      "刃": 760,
      "分": 761,
      "切": 762,
      "刈": 763,
      "刑": 764,
      "列": 765,
      "初": 766,
      "判": 767,
      "別": 768,
      "利": 769,
      "到": 770,
      "制": 771,
      "刷": 772,
      "券": 773,
      "刺": 774,
      "刻": 775,
      "則": 776,
      "削": 777,
      "剋": 778,
      "前": 779,
      "剖": 780,
      "剛": 781,
      "剝": 782,
      "剩": 783,
      "剪": 784,
      "副": 785,
      "割": 786,
      "創": 787,
      "劃": 788,
      "劇": 789,
      "劈": 790,
      "劉": 791,
      "劍": 792,
      "劑": 793,
      "力": 794,
      "加": 795,
      "劣": 796,
      "助": 797,
      "勃": 798,
      "動": 799,
      "勘": 800,
      "務": 801,
      "勝": 802,
      "勞": 803,
      "勢": 804,
      "勵": 805,
      "勾": 806,
      "包": 807,
      "匐": 808,
      "化": 809,
      "北": 810,
      "匠": 811,
      "匣": 812,
      "匯": 813,
      "匹": 814,
      "匿": 815,
      "區": 816,
      "十": 817,
      "千": 818,
      "升": 819,
      "午": 820,
      "半": 821,
      "卍": 822,
      "卑": 823,
      "卓": 824,
      "協": 825,
      "南": 826,
      "博": 827,
      "卜": 828,
      "占": 829,
      "卦": 830,
      "印": 831,
      "危": 832,
      "却": 833,
      "卵": 834,
      "卷": 835,
      "卽": 836,
      "卿": 837,
      "厚": 838,
      "原": 839,
      "厭": 840,
      "去": 841,
      "參": 842,
      "叉": 843,
      "及": 844,
      "反": 845,
      "取": 846,
      "受": 847,
      "口": 848,
      "古": 849,
      "句": 850,
      "叩": 851,
      "可": 852,
      "台": 853,
      "右": 854,
      "司": 855,
      "吃": 856,
      "各": 857,
      "合": 858,
      "吉": 859,
      "同": 860,
      "名": 861,
      "吐": 862,
      "向": 863,
      "君": 864,
      "吟": 865,
      "否": 866,
      "含": 867,
      "吳": 868,
      "吸": 869,
      "吹": 870,
      "呈": 871,
      "告": 872,
      "周": 873,
      "味": 874,
      "呼": 875,
      "命": 876,
      "咀": 877,
      "和": 878,
      "咬": 879,
      "咳": 880,
      "咽": 881,
      "品": 882,
      "員": 883,
      "商": 884,
      "問": 885,
      "善": 886,
      "喉": 887,
      "喘": 888,
      "喩": 889,
      "喫": 890,
      "單": 891,
      "嗜": 892,
      "嗽": 893,
      "嘉": 894,
      "器": 895,
      "噴": 896,
      "嚴": 897,
      "嚼": 898,
      "囊": 899,
      "四": 900,
      "回": 901,
      "因": 902,
      "固": 903,
      "圃": 904,
      "圈": 905,
      "國": 906,
      "圍": 907,
      "園": 908,
      "圓": 909,
      "圖": 910,
      "團": 911,
      "土": 912,
      "在": 913,
      "地": 914,
      "均": 915,
      "坐": 916,
      "坑": 917,
      "坤": 918,
      "坦": 919,
      "坪": 920,
      "坮": 921,
      "坰": 922,
      "垂": 923,
      "垈": 924,
      "型": 925,
      "垓": 926,
      "垠": 927,
      "埃": 928,
      "埋": 929,
      "城": 930,
      "域": 931,
      "埴": 932,
      "執": 933,
      "培": 934,
      "基": 935,
      "堀": 936,
      "堂": 937,
      "堅": 938,
      "堆": 939,
      "堤": 940,
      "堰": 941,
      "報": 942,
      "場": 943,
      "塊": 944,
      "塑": 945,
      "塔": 946,
      "塗": 947,
      "塞": 948,
      "塡": 949,
      "塵": 950,
      "境": 951,
      "墓": 952,
      "墜": 953,
      "增": 954,
      "墨": 955,
      "壁": 956,
      "壇": 957,
      "壓": 958,
      "壞": 959,
      "壤": 960,
      "士": 961,
      "壬": 962,
      "壯": 963,
      "壽": 964,
      "夏": 965,
      "外": 966,
      "多": 967,
      "夜": 968,
      "大": 969,
      "天": 970,
      "太": 971,
      "夫": 972,
      "失": 973,
      "夷": 974,
      "夾": 975,
      "奇": 976,
      "奉": 977,
      "奏": 978,
      "契": 979,
      "奔": 980,
      "奧": 981,
      "奪": 982,
      "奬": 983,
      "女": 984,
      "奴": 985,
      "好": 986,
      "如": 987,
      "妊": 988,
      "妙": 989,
      "妨": 990,
      "始": 991,
      "姓": 992,
      "姿": 993,
      "威": 994,
      "婚": 995,
      "婦": 996,
      "媒": 997,
      "嫌": 998,
      "嫩": 999,
      "子": 1000,
      "孔": 1001,
      "字": 1002,
      "存": 1003,
      "孟": 1004,
      "季": 1005,
      "孩": 1006,
      "孫": 1007,
      "學": 1008,
      "宅": 1009,
      "宇": 1010,
      "安": 1011,
      "完": 1012,
      "宗": 1013,
      "官": 1014,
      "定": 1015,
      "宜": 1016,
      "客": 1017,
      "室": 1018,
      "宥": 1019,
      "宮": 1020,
      "害": 1021,
      "家": 1022,
      "容": 1023,
      "宿": 1024,
      "寄": 1025,
      "密": 1026,
      "富": 1027,
      "寒": 1028,
      "察": 1029,
      "寡": 1030,
      "寢": 1031,
      "實": 1032,
      "寧": 1033,
      "審": 1034,
      "寫": 1035,
      "寬": 1036,
      "寶": 1037,
      "寸": 1038,
      "寺": 1039,
      "封": 1040,
      "射": 1041,
      "專": 1042,
      "對": 1043,
      "導": 1044,
      "小": 1045,
      "少": 1046,
      "尖": 1047,
      "尤": 1048,
      "尺": 1049,
      "尾": 1050,
      "尿": 1051,
      "局": 1052,
      "居": 1053,
      "屈": 1054,
      "屋": 1055,
      "屍": 1056,
      "屑": 1057,
      "展": 1058,
      "屠": 1059,
      "層": 1060,
      "履": 1061,
      "屬": 1062,
      "山": 1063,
      "岐": 1064,
      "岩": 1065,
      "岸": 1066,
      "峰": 1067,
      "島": 1068,
      "峻": 1069,
      "峽": 1070,
      "崗": 1071,
      "崩": 1072,
      "嵌": 1073,
      "嵩": 1074,
      "嶪": 1075,
      "嶼": 1076,
      "巖": 1077,
      "川": 1078,
      "州": 1079,
      "巡": 1080,
      "巢": 1081,
      "工": 1082,
      "左": 1083,
      "差": 1084,
      "己": 1085,
      "巳": 1086,
      "巴": 1087,
      "市": 1088,
      "布": 1089,
      "帆": 1090,
      "希": 1091,
      "帖": 1092,
      "帛": 1093,
      "師": 1094,
      "席": 1095,
      "帳": 1096,
      "帶": 1097,
      "常": 1098,
      "帽": 1099,
      "幀": 1100,
      "幅": 1101,
      "幕": 1102,
      "幣": 1103,
      "干": 1104,
      "平": 1105,
      "年": 1106,
      "幹": 1107,
      "幻": 1108,
      "幼": 1109,
      "幽": 1110,
      "庄": 1111,
      "床": 1112,
      "序": 1113,
      "底": 1114,
      "店": 1115,
      "庚": 1116,
      "度": 1117,
      "座": 1118,
      "庫": 1119,
      "庭": 1120,
      "康": 1121,
      "廉": 1122,
      "廓": 1123,
      "廚": 1124,
      "廢": 1125,
      "廣": 1126,
      "延": 1127,
      "建": 1128,
      "廻": 1129,
      "弁": 1130,
      "弊": 1131,
      "式": 1132,
      "弓": 1133,
      "弔": 1134,
      "引": 1135,
      "弗": 1136,
      "弛": 1137,
      "弦": 1138,
      "弧": 1139,
      "弩": 1140,
      "弱": 1141,
      "張": 1142,
      "强": 1143,
      "彈": 1144,
      "彎": 1145,
      "形": 1146,
      "彩": 1147,
      "彫": 1148,
      "影": 1149,
      "役": 1150,
      "彼": 1151,
      "彿": 1152,
      "往": 1153,
      "待": 1154,
      "律": 1155,
      "後": 1156,
      "徐": 1157,
      "徑": 1158,
      "徒": 1159,
      "得": 1160,
      "從": 1161,
      "御": 1162,
      "復": 1163,
      "循": 1164,
      "微": 1165,
      "徵": 1166,
      "德": 1167,
      "徹": 1168,
      "心": 1169,
      "必": 1170,
      "忌": 1171,
      "忍": 1172,
      "志": 1173,
      "忘": 1174,
      "念": 1175,
      "思": 1176,
      "急": 1177,
      "性": 1178,
      "恒": 1179,
      "恥": 1180,
      "恩": 1181,
      "息": 1182,
      "患": 1183,
      "情": 1184,
      "惑": 1185,
      "惡": 1186,
      "想": 1187,
      "惹": 1188,
      "愁": 1189,
      "意": 1190,
      "愕": 1191,
      "愚": 1192,
      "愛": 1193,
      "感": 1194,
      "慈": 1195,
      "態": 1196,
      "慕": 1197,
      "慣": 1198,
      "慮": 1199,
      "慶": 1200,
      "慽": 1201,
      "慾": 1202,
      "憶": 1203,
      "應": 1204,
      "懶": 1205,
      "懷": 1206,
      "懸": 1207,
      "戀": 1208,
      "成": 1209,
      "截": 1210,
      "戮": 1211,
      "戰": 1212,
      "戱": 1213,
      "戶": 1214,
      "房": 1215,
      "所": 1216,
      "扁": 1217,
      "扇": 1218,
      "手": 1219,
      "打": 1220,
      "扱": 1221,
      "承": 1222,
      "技": 1223,
      "抄": 1224,
      "把": 1225,
      "抑": 1226,
      "投": 1227,
      "抗": 1228,
      "折": 1229,
      "披": 1230,
      "抱": 1231,
      "抵": 1232,
      "押": 1233,
      "抽": 1234,
      "拂": 1235,
      "拌": 1236,
      "拒": 1237,
      "拔": 1238,
      "拘": 1239,
      "拜": 1240,
      "括": 1241,
      "拭": 1242,
      "拮": 1243,
      "拱": 1244,
      "持": 1245,
      "指": 1246,
      "挫": 1247,
      "振": 1248,
      "挾": 1249,
      "捉": 1250,
      "捏": 1251,
      "捕": 1252,
      "捨": 1253,
      "据": 1254,
      "捲": 1255,
      "捺": 1256,
      "捻": 1257,
      "掃": 1258,
      "授": 1259,
      "掌": 1260,
      "排": 1261,
      "掘": 1262,
      "掛": 1263,
      "採": 1264,
      "探": 1265,
      "接": 1266,
      "控": 1267,
      "推": 1268,
      "描": 1269,
      "提": 1270,
      "揚": 1271,
      "換": 1272,
      "握": 1273,
      "揭": 1274,
      "揮": 1275,
      "援": 1276,
      "揷": 1277,
      "損": 1278,
      "搔": 1279,
      "搖": 1280,
      "搗": 1281,
      "搬": 1282,
      "搭": 1283,
      "携": 1284,
      "搾": 1285,
      "摘": 1286,
      "摩": 1287,
      "摯": 1288,
      "摺": 1289,
      "撒": 1290,
      "撓": 1291,
      "撚": 1292,
      "撤": 1293,
      "撥": 1294,
      "播": 1295,
      "撮": 1296,
      "擁": 1297,
      "擇": 1298,
      "擊": 1299,
      "操": 1300,
      "擔": 1301,
      "據": 1302,
      "擦": 1303,
      "擧": 1304,
      "擬": 1305,
      "擲": 1306,
      "擴": 1307,
      "攀": 1308,
      "攪": 1309,
      "支": 1310,
      "收": 1311,
      "改": 1312,
      "放": 1313,
      "故": 1314,
      "效": 1315,
      "敎": 1316,
      "敏": 1317,
      "救": 1318,
      "敗": 1319,
      "敢": 1320,
      "散": 1321,
      "整": 1322,
      "敵": 1323,
      "敷": 1324,
      "數": 1325,
      "斂": 1326,
      "斃": 1327,
      "文": 1328,
      "斌": 1329,
      "斑": 1330,
      "料": 1331,
      "斜": 1332,
      "斥": 1333,
      "新": 1334,
      "斷": 1335,
      "方": 1336,
      "施": 1337,
      "旋": 1338,
      "族": 1339,
      "旗": 1340,
      "旣": 1341,
      "日": 1342,
      "旨": 1343,
      "早": 1344,
      "昇": 1345,
      "明": 1346,
      "易": 1347,
      "星": 1348,
      "映": 1349,
      "春": 1350,
      "是": 1351,
      "時": 1352,
      "晉": 1353,
      "晝": 1354,
      "普": 1355,
      "景": 1356,
      "晴": 1357,
      "晶": 1358,
      "智": 1359,
      "暖": 1360,
      "暗": 1361,
      "暢": 1362,
      "暴": 1363,
      "曆": 1364,
      "曇": 1365,
      "曜": 1366,
      "曝": 1367,
      "曰": 1368,
      "曲": 1369,
      "曳": 1370,
      "更": 1371,
      "書": 1372,
      "曹": 1373,
      "曺": 1374,
      "曾": 1375,
      "替": 1376,
      "最": 1377,
      "會": 1378,
      "月": 1379,
      "有": 1380,
      "服": 1381,
      "朔": 1382,
      "朝": 1383,
      "期": 1384,
      "木": 1385,
      "未": 1386,
      "末": 1387,
      "本": 1388,
      "朮": 1389,
      "朱": 1390,
      "朴": 1391,
      "朽": 1392,
      "杆": 1393,
      "李": 1394,
      "杏": 1395,
      "材": 1396,
      "杜": 1397,
      "杞": 1398,
      "束": 1399,
      "杭": 1400,
      "東": 1401,
      "松": 1402,
      "板": 1403,
      "析": 1404,
      "枕": 1405,
      "林": 1406,
      "枚": 1407,
      "果": 1408,
      "枝": 1409,
      "枯": 1410,
      "枳": 1411,
      "架": 1412,
      "枷": 1413,
      "枸": 1414,
      "枾": 1415,
      "柄": 1416,
      "柏": 1417,
      "柑": 1418,
      "染": 1419,
      "柔": 1420,
      "柚": 1421,
      "柯": 1422,
      "柱": 1423,
      "柳": 1424,
      "柴": 1425,
      "柵": 1426,
      "柶": 1427,
      "査": 1428,
      "栓": 1429,
      "栗": 1430,
      "校": 1431,
      "栢": 1432,
      "株": 1433,
      "核": 1434,
      "根": 1435,
      "格": 1436,
      "栽": 1437,
      "桁": 1438,
      "桂": 1439,
      "桃": 1440,
      "案": 1441,
      "桑": 1442,
      "桔": 1443,
      "桶": 1444,
      "梁": 1445,
      "梅": 1446,
      "梔": 1447,
      "條": 1448,
      "梢": 1449,
      "梨": 1450,
      "梯": 1451,
      "械": 1452,
      "梱": 1453,
      "梳": 1454,
      "棄": 1455,
      "棋": 1456,
      "棒": 1457,
      "棗": 1458,
      "棚": 1459,
      "棟": 1460,
      "棧": 1461,
      "棲": 1462,
      "棺": 1463,
      "椀": 1464,
      "植": 1465,
      "椎": 1466,
      "椒": 1467,
      "椽": 1468,
      "楊": 1469,
      "楕": 1470,
      "業": 1471,
      "楮": 1472,
      "極": 1473,
      "榴": 1474,
      "構": 1475,
      "槍": 1476,
      "槐": 1477,
      "槪": 1478,
      "槽": 1479,
      "樂": 1480,
      "樓": 1481,
      "樗": 1482,
      "標": 1483,
      "樞": 1484,
      "樟": 1485,
      "模": 1486,
      "樣": 1487,
      "樹": 1488,
      "橄": 1489,
      "橈": 1490,
      "橋": 1491,
      "橙": 1492,
      "機": 1493,
      "橫": 1494,
      "檄": 1495,
      "檜": 1496,
      "檢": 1497,
      "檳": 1498,
      "欄": 1499,
      "權": 1500,
      "欖": 1501,
      "欠": 1502,
      "次": 1503,
      "止": 1504,
      "正": 1505,
      "步": 1506,
      "歪": 1507,
      "歲": 1508,
      "歷": 1509,
      "歸": 1510,
      "死": 1511,
      "殖": 1512,
      "殘": 1513,
      "段": 1514,
      "殺": 1515,
      "殼": 1516,
      "殿": 1517,
      "毁": 1518,
      "母": 1519,
      "每": 1520,
      "毒": 1521,
      "比": 1522,
      "毛": 1523,
      "毬": 1524,
      "氏": 1525,
      "民": 1526,
      "氣": 1527,
      "水": 1528,
      "氷": 1529,
      "永": 1530,
      "汁": 1531,
      "求": 1532,
      "汎": 1533,
      "汐": 1534,
      "汗": 1535,
      "汚": 1536,
      "江": 1537,
      "池": 1538,
      "汰": 1539,
      "決": 1540,
      "汽": 1541,
      "沈": 1542,
      "沒": 1543,
      "沕": 1544,
      "沖": 1545,
      "沙": 1546,
      "沫": 1547,
      "沮": 1548,
      "河": 1549,
      "沸": 1550,
      "油": 1551,
      "治": 1552,
      "沼": 1553,
      "沿": 1554,
      "泄": 1555,
      "泉": 1556,
      "泊": 1557,
      "法": 1558,
      "泡": 1559,
      "波": 1560,
      "泥": 1561,
      "注": 1562,
      "泰": 1563,
      "泳": 1564,
      "洋": 1565,
      "洑": 1566,
      "洗": 1567,
      "洞": 1568,
      "津": 1569,
      "洪": 1570,
      "活": 1571,
      "派": 1572,
      "流": 1573,
      "浅": 1574,
      "浚": 1575,
      "浪": 1576,
      "浮": 1577,
      "浴": 1578,
      "海": 1579,
      "浸": 1580,
      "消": 1581,
      "涉": 1582,
      "液": 1583,
      "淘": 1584,
      "淚": 1585,
      "淡": 1586,
      "淨": 1587,
      "淫": 1588,
      "深": 1589,
      "混": 1590,
      "淸": 1591,
      "淺": 1592,
      "添": 1593,
      "渗": 1594,
      "減": 1595,
      "渟": 1596,
      "渠": 1597,
      "渡": 1598,
      "渣": 1599,
      "渦": 1600,
      "渫": 1601,
      "測": 1602,
      "港": 1603,
      "渴": 1604,
      "游": 1605,
      "湖": 1606,
      "湛": 1607,
      "湧": 1608,
      "湯": 1609,
      "源": 1610,
      "準": 1611,
      "溜": 1612,
      "溝": 1613,
      "溢": 1614,
      "溪": 1615,
      "溫": 1616,
      "溶": 1617,
      "滅": 1618,
      "滋": 1619,
      "滌": 1620,
      "滑": 1621,
      "滓": 1622,
      "滯": 1623,
      "滴": 1624,
      "滿": 1625,
      "漁": 1626,
      "漂": 1627,
      "漆": 1628,
      "漏": 1629,
      "漑": 1630,
      "演": 1631,
      "漕": 1632,
      "漢": 1633,
      "漬": 1634,
      "漸": 1635,
      "漿": 1636,
      "潑": 1637,
      "潔": 1638,
      "潗": 1639,
      "潘": 1640,
      "潛": 1641,
      "潟": 1642,
      "潤": 1643,
      "潭": 1644,
      "潮": 1645,
      "潰": 1646,
      "澁": 1647,
      "澄": 1648,
      "澎": 1649,
      "澤": 1650,
      "澱": 1651,
      "激": 1652,
      "濁": 1653,
      "濃": 1654,
      "濕": 1655,
      "濟": 1656,
      "濠": 1657,
      "濡": 1658,
      "濤": 1659,
      "濯": 1660,
      "濱": 1661,
      "濾": 1662,
      "瀉": 1663,
      "瀋": 1664,
      "瀑": 1665,
      "瀘": 1666,
      "瀝": 1667,
      "瀷": 1668,
      "灌": 1669,
      "灣": 1670,
      "火": 1671,
      "灰": 1672,
      "灸": 1673,
      "灼": 1674,
      "災": 1675,
      "炊": 1676,
      "炎": 1677,
      "炒": 1678,
      "炙": 1679,
      "炭": 1680,
      "炷": 1681,
      "炸": 1682,
      "点": 1683,
      "烈": 1684,
      "烏": 1685,
      "烝": 1686,
      "烹": 1687,
      "焙": 1688,
      "焚": 1689,
      "無": 1690,
      "焦": 1691,
      "焰": 1692,
      "然": 1693,
      "焼": 1694,
      "煇": 1695,
      "煉": 1696,
      "煎": 1697,
      "煖": 1698,
      "煙": 1699,
      "煤": 1700,
      "照": 1701,
      "煩": 1702,
      "煮": 1703,
      "熔": 1704,
      "熟": 1705,
      "熱": 1706,
      "燃": 1707,
      "燈": 1708,
      "燐": 1709,
      "燒": 1710,
      "燕": 1711,
      "營": 1712,
      "燥": 1713,
      "燭": 1714,
      "燻": 1715,
      "爆": 1716,
      "爐": 1717,
      "爛": 1718,
      "爪": 1719,
      "爲": 1720,
      "父": 1721,
      "爻": 1722,
      "爾": 1723,
      "牀": 1724,
      "片": 1725,
      "版": 1726,
      "牌": 1727,
      "牙": 1728,
      "牛": 1729,
      "牡": 1730,
      "牢": 1731,
      "物": 1732,
      "牲": 1733,
      "特": 1734,
      "牽": 1735,
      "犧": 1736,
      "犬": 1737,
      "犯": 1738,
      "狀": 1739,
      "狹": 1740,
      "猪": 1741,
      "猫": 1742,
      "獨": 1743,
      "獲": 1744,
      "獸": 1745,
      "玄": 1746,
      "率": 1747,
      "玉": 1748,
      "王": 1749,
      "玲": 1750,
      "珀": 1751,
      "珊": 1752,
      "珠": 1753,
      "珪": 1754,
      "現": 1755,
      "球": 1756,
      "理": 1757,
      "琥": 1758,
      "琺": 1759,
      "瑕": 1760,
      "瑚": 1761,
      "瑯": 1762,
      "璟": 1763,
      "璧": 1764,
      "環": 1765,
      "瓊": 1766,
      "瓚": 1767,
      "瓜": 1768,
      "瓦": 1769,
      "瓷": 1770,
      "甁": 1771,
      "甕": 1772,
      "甘": 1773,
      "生": 1774,
      "産": 1775,
      "用": 1776,
      "田": 1777,
      "由": 1778,
      "甲": 1779,
      "申": 1780,
      "男": 1781,
      "界": 1782,
      "畓": 1783,
      "留": 1784,
      "畜": 1785,
      "略": 1786,
      "畦": 1787,
      "番": 1788,
      "異": 1789,
      "畵": 1790,
      "當": 1791,
      "疊": 1792,
      "疎": 1793,
      "疏": 1794,
      "疑": 1795,
      "疫": 1796,
      "疲": 1797,
      "疵": 1798,
      "疼": 1799,
      "疾": 1800,
      "痂": 1801,
      "病": 1802,
      "症": 1803,
      "痒": 1804,
      "痔": 1805,
      "痕": 1806,
      "痘": 1807,
      "痛": 1808,
      "痢": 1809,
      "痰": 1810,
      "痲": 1811,
      "痼": 1812,
      "瘀": 1813,
      "瘡": 1814,
      "療": 1815,
      "癌": 1816,
      "癒": 1817,
      "癖": 1818,
      "登": 1819,
      "發": 1820,
      "白": 1821,
      "百": 1822,
      "的": 1823,
      "皇": 1824,
      "皮": 1825,
      "皺": 1826,
      "盆": 1827,
      "益": 1828,
      "盛": 1829,
      "盜": 1830,
      "盡": 1831,
      "盤": 1832,
      "盧": 1833,
      "目": 1834,
      "盲": 1835,
      "直": 1836,
      "相": 1837,
      "省": 1838,
      "眞": 1839,
      "眠": 1840,
      "眩": 1841,
      "眼": 1842,
      "着": 1843,
      "督": 1844,
      "睾": 1845,
      "瞬": 1846,
      "瞭": 1847,
      "瞰": 1848,
      "瞳": 1849,
      "瞼": 1850,
      "知": 1851,
      "矩": 1852,
      "短": 1853,
      "矯": 1854,
      "石": 1855,
      "砂": 1856,
      "砒": 1857,
      "砥": 1858,
      "砲": 1859,
      "破": 1860,
      "硅": 1861,
      "硏": 1862,
      "硝": 1863,
      "硫": 1864,
      "硬": 1865,
      "硯": 1866,
      "硼": 1867,
      "碇": 1868,
      "碍": 1869,
      "碎": 1870,
      "碑": 1871,
      "確": 1872,
      "磁": 1873,
      "磨": 1874,
      "礁": 1875,
      "礎": 1876,
      "礬": 1877,
      "示": 1878,
      "社": 1879,
      "祈": 1880,
      "祖": 1881,
      "祛": 1882,
      "祝": 1883,
      "神": 1884,
      "票": 1885,
      "祭": 1886,
      "祿": 1887,
      "禁": 1888,
      "禍": 1889,
      "福": 1890,
      "禮": 1891,
      "禽": 1892,
      "秀": 1893,
      "私": 1894,
      "秉": 1895,
      "科": 1896,
      "秒": 1897,
      "秘": 1898,
      "租": 1899,
      "秤": 1900,
      "秦": 1901,
      "秩": 1902,
      "移": 1903,
      "稀": 1904,
      "稈": 1905,
      "程": 1906,
      "稗": 1907,
      "稚": 1908,
      "稜": 1909,
      "稠": 1910,
      "種": 1911,
      "稱": 1912,
      "稻": 1913,
      "稼": 1914,
      "穀": 1915,
      "積": 1916,
      "穗": 1917,
      "穩": 1918,
      "穫": 1919,
      "穴": 1920,
      "究": 1921,
      "空": 1922,
      "穿": 1923,
      "突": 1924,
      "窄": 1925,
      "窒": 1926,
      "窓": 1927,
      "窩": 1928,
      "窪": 1929,
      "窯": 1930,
      "窺": 1931,
      "竄": 1932,
      "竊": 1933,
      "立": 1934,
      "竝": 1935,
      "章": 1936,
      "童": 1937,
      "竪": 1938,
      "端": 1939,
      "竹": 1940,
      "竺": 1941,
      "竿": 1942,
      "笑": 1943,
      "笛": 1944,
      "笠": 1945,
      "笭": 1946,
      "筆": 1947,
      "等": 1948,
      "筋": 1949,
      "筍": 1950,
      "筐": 1951,
      "筒": 1952,
      "答": 1953,
      "策": 1954,
      "筮": 1955,
      "箇": 1956,
      "箔": 1957,
      "算": 1958,
      "管": 1959,
      "箱": 1960,
      "箸": 1961,
      "節": 1962,
      "範": 1963,
      "篇": 1964,
      "築": 1965,
      "篩": 1966,
      "簡": 1967,
      "簾": 1968,
      "籍": 1969,
      "籬": 1970,
      "米": 1971,
      "粉": 1972,
      "粒": 1973,
      "粕": 1974,
      "粗": 1975,
      "粘": 1976,
      "粥": 1977,
      "粧": 1978,
      "粹": 1979,
      "精": 1980,
      "糊": 1981,
      "糖": 1982,
      "糞": 1983,
      "糠": 1984,
      "系": 1985,
      "約": 1986,
      "紅": 1987,
      "紋": 1988,
      "納": 1989,
      "純": 1990,
      "紗": 1991,
      "紙": 1992,
      "級": 1993,
      "紛": 1994,
      "素": 1995,
      "紡": 1996,
      "索": 1997,
      "紫": 1998,
      "紮": 1999,
      "累": 2000,
      "細": 2001,
      "終": 2002,
      "絃": 2003,
      "組": 2004,
      "結": 2005,
      "絡": 2006,
      "絢": 2007,
      "給": 2008,
      "絨": 2009,
      "統": 2010,
      "絲": 2011,
      "絶": 2012,
      "絹": 2013,
      "經": 2014,
      "綠": 2015,
      "維": 2016,
      "綱": 2017,
      "網": 2018,
      "綴": 2019,
      "綾": 2020,
      "綿": 2021,
      "緊": 2022,
      "線": 2023,
      "緞": 2024,
      "締": 2025,
      "緣": 2026,
      "編": 2027,
      "緩": 2028,
      "緯": 2029,
      "練": 2030,
      "緻": 2031,
      "縞": 2032,
      "縣": 2033,
      "縫": 2034,
      "縮": 2035,
      "縱": 2036,
      "總": 2037,
      "績": 2038,
      "繃": 2039,
      "織": 2040,
      "繞": 2041,
      "繡": 2042,
      "繪": 2043,
      "繫": 2044,
      "繰": 2045,
      "繼": 2046,
      "續": 2047,
      "纏": 2048,
      "纖": 2049,
      "缺": 2050,
      "罐": 2051,
      "罪": 2052,
      "罫": 2053,
      "置": 2054,
      "羅": 2055,
      "羊": 2056,
      "羌": 2057,
      "美": 2058,
      "群": 2059,
      "義": 2060,
      "羹": 2061,
      "羽": 2062,
      "習": 2063,
      "翔": 2064,
      "翡": 2065,
      "翹": 2066,
      "翼": 2067,
      "老": 2068,
      "考": 2069,
      "者": 2070,
      "耆": 2071,
      "耐": 2072,
      "耕": 2073,
      "耗": 2074,
      "耘": 2075,
      "耳": 2076,
      "聖": 2077,
      "聚": 2078,
      "聯": 2079,
      "聲": 2080,
      "職": 2081,
      "聽": 2082,
      "肅": 2083,
      "肉": 2084,
      "肋": 2085,
      "肛": 2086,
      "肝": 2087,
      "股": 2088,
      "肢": 2089,
      "肥": 2090,
      "肩": 2091,
      "肪": 2092,
      "育": 2093,
      "肺": 2094,
      "胃": 2095,
      "背": 2096,
      "胚": 2097,
      "胞": 2098,
      "胡": 2099,
      "胴": 2100,
      "胸": 2101,
      "能": 2102,
      "脂": 2103,
      "脆": 2104,
      "脇": 2105,
      "脈": 2106,
      "脊": 2107,
      "脚": 2108,
      "脣": 2109,
      "脫": 2110,
      "脯": 2111,
      "脹": 2112,
      "脾": 2113,
      "腎": 2114,
      "腐": 2115,
      "腑": 2116,
      "腔": 2117,
      "腕": 2118,
      "腦": 2119,
      "腫": 2120,
      "腰": 2121,
      "腱": 2122,
      "腸": 2123,
      "腹": 2124,
      "腺": 2125,
      "腿": 2126,
      "膈": 2127,
      "膊": 2128,
      "膏": 2129,
      "膚": 2130,
      "膜": 2131,
      "膝": 2132,
      "膠": 2133,
      "膣": 2134,
      "膨": 2135,
      "膳": 2136,
      "膵": 2137,
      "膽": 2138,
      "臀": 2139,
      "臂": 2140,
      "臘": 2141,
      "臟": 2142,
      "臣": 2143,
      "臥": 2144,
      "臨": 2145,
      "自": 2146,
      "臭": 2147,
      "至": 2148,
      "致": 2149,
      "臺": 2150,
      "臼": 2151,
      "與": 2152,
      "舊": 2153,
      "舌": 2154,
      "舍": 2155,
      "舒": 2156,
      "航": 2157,
      "舵": 2158,
      "舶": 2159,
      "舷": 2160,
      "船": 2161,
      "艀": 2162,
      "艇": 2163,
      "艤": 2164,
      "艦": 2165,
      "良": 2166,
      "色": 2167,
      "艾": 2168,
      "芍": 2169,
      "芎": 2170,
      "芒": 2171,
      "芝": 2172,
      "芥": 2173,
      "芩": 2174,
      "芯": 2175,
      "花": 2176,
      "芳": 2177,
      "芷": 2178,
      "芹": 2179,
      "芽": 2180,
      "苔": 2181,
      "苗": 2182,
      "苛": 2183,
      "苡": 2184,
      "苦": 2185,
      "英": 2186,
      "茄": 2187,
      "茫": 2188,
      "茯": 2189,
      "茴": 2190,
      "茶": 2191,
      "茸": 2192,
      "茹": 2193,
      "草": 2194,
      "荊": 2195,
      "荑": 2196,
      "荷": 2197,
      "莎": 2198,
      "莖": 2199,
      "菊": 2200,
      "菌": 2201,
      "菓": 2202,
      "菜": 2203,
      "華": 2204,
      "菱": 2205,
      "菲": 2206,
      "萍": 2207,
      "萬": 2208,
      "落": 2209,
      "葉": 2210,
      "著": 2211,
      "葛": 2212,
      "董": 2213,
      "葫": 2214,
      "葬": 2215,
      "葯": 2216,
      "蒜": 2217,
      "蒲": 2218,
      "蒸": 2219,
      "蒼": 2220,
      "蒿": 2221,
      "蓄": 2222,
      "蓋": 2223,
      "蓚": 2224,
      "蓮": 2225,
      "蔓": 2226,
      "蔔": 2227,
      "蔗": 2228,
      "蔘": 2229,
      "蔣": 2230,
      "蔬": 2231,
      "蔽": 2232,
      "蕎": 2233,
      "蕪": 2234,
      "薄": 2235,
      "薇": 2236,
      "薏": 2237,
      "薑": 2238,
      "薔": 2239,
      "薯": 2240,
      "薰": 2241,
      "藏": 2242,
      "藝": 2243,
      "藥": 2244,
      "藻": 2245,
      "藿": 2246,
      "蘆": 2247,
      "蘇": 2248,
      "蘚": 2249,
      "蘭": 2250,
      "蘿": 2251,
      "處": 2252,
      "虛": 2253,
      "號": 2254,
      "蚣": 2255,
      "蛇": 2256,
      "蛋": 2257,
      "蛭": 2258,
      "蜀": 2259,
      "蜂": 2260,
      "蜈": 2261,
      "蜜": 2262,
      "蝕": 2263,
      "融": 2264,
      "螢": 2265,
      "螺": 2266,
      "蟲": 2267,
      "蠟": 2268,
      "蠣": 2269,
      "蠶": 2270,
      "血": 2271,
      "衆": 2272,
      "行": 2273,
      "術": 2274,
      "街": 2275,
      "衛": 2276,
      "衝": 2277,
      "衡": 2278,
      "衣": 2279,
      "表": 2280,
      "衰": 2281,
      "衲": 2282,
      "袋": 2283,
      "被": 2284,
      "袴": 2285,
      "裁": 2286,
      "裂": 2287,
      "裏": 2288,
      "裕": 2289,
      "補": 2290,
      "裝": 2291,
      "裳": 2292,
      "裸": 2293,
      "製": 2294,
      "複": 2295,
      "褙": 2296,
      "褥": 2297,
      "褶": 2298,
      "襲": 2299,
      "西": 2300,
      "要": 2301,
      "覆": 2302,
      "見": 2303,
      "規": 2304,
      "視": 2305,
      "覩": 2306,
      "親": 2307,
      "覺": 2308,
      "觀": 2309,
      "角": 2310,
      "解": 2311,
      "觸": 2312,
      "言": 2313,
      "訂": 2314,
      "計": 2315,
      "訓": 2316,
      "記": 2317,
      "訟": 2318,
      "設": 2319,
      "許": 2320,
      "訶": 2321,
      "診": 2322,
      "註": 2323,
      "詞": 2324,
      "詠": 2325,
      "詣": 2326,
      "試": 2327,
      "詩": 2328,
      "話": 2329,
      "該": 2330,
      "詳": 2331,
      "誌": 2332,
      "認": 2333,
      "誘": 2334,
      "語": 2335,
      "誤": 2336,
      "說": 2337,
      "課": 2338,
      "調": 2339,
      "談": 2340,
      "論": 2341,
      "諡": 2342,
      "諸": 2343,
      "謀": 2344,
      "謝": 2345,
      "證": 2346,
      "識": 2347,
      "譜": 2348,
      "警": 2349,
      "護": 2350,
      "讀": 2351,
      "變": 2352,
      "讓": 2353,
      "谷": 2354,
      "豆": 2355,
      "豈": 2356,
      "豊": 2357,
      "豚": 2358,
      "象": 2359,
      "豫": 2360,
      "貝": 2361,
      "負": 2362,
      "財": 2363,
      "貢": 2364,
      "貧": 2365,
      "貨": 2366,
      "販": 2367,
      "貫": 2368,
      "貯": 2369,
      "貴": 2370,
      "買": 2371,
      "貸": 2372,
      "費": 2373,
      "貼": 2374,
      "資": 2375,
      "賈": 2376,
      "賞": 2377,
      "賣": 2378,
      "賦": 2379,
      "質": 2380,
      "賴": 2381,
      "購": 2382,
      "赤": 2383,
      "走": 2384,
      "起": 2385,
      "超": 2386,
      "越": 2387,
      "趣": 2388,
      "足": 2389,
      "趾": 2390,
      "跋": 2391,
      "距": 2392,
      "跡": 2393,
      "跨": 2394,
      "路": 2395,
      "跳": 2396,
      "踏": 2397,
      "蹄": 2398,
      "蹊": 2399,
      "身": 2400,
      "軀": 2401,
      "車": 2402,
      "軋": 2403,
      "軌": 2404,
      "軍": 2405,
      "軟": 2406,
      "軸": 2407,
      "較": 2408,
      "載": 2409,
      "輔": 2410,
      "輕": 2411,
      "輝": 2412,
      "輪": 2413,
      "輯": 2414,
      "輳": 2415,
      "輸": 2416,
      "輻": 2417,
      "輿": 2418,
      "轉": 2419,
      "辛": 2420,
      "辦": 2421,
      "辭": 2422,
      "農": 2423,
      "迂": 2424,
      "近": 2425,
      "返": 2426,
      "迫": 2427,
      "述": 2428,
      "迷": 2429,
      "追": 2430,
      "退": 2431,
      "送": 2432,
      "逃": 2433,
      "逆": 2434,
      "透": 2435,
      "逐": 2436,
      "途": 2437,
      "通": 2438,
      "速": 2439,
      "造": 2440,
      "連": 2441,
      "逮": 2442,
      "週": 2443,
      "進": 2444,
      "遊": 2445,
      "運": 2446,
      "過": 2447,
      "道": 2448,
      "達": 2449,
      "違": 2450,
      "遞": 2451,
      "遠": 2452,
      "遡": 2453,
      "遣": 2454,
      "適": 2455,
      "遮": 2456,
      "遲": 2457,
      "遷": 2458,
      "選": 2459,
      "遺": 2460,
      "遼": 2461,
      "避": 2462,
      "還": 2463,
      "邊": 2464,
      "邦": 2465,
      "邱": 2466,
      "邸": 2467,
      "郎": 2468,
      "郞": 2469,
      "郡": 2470,
      "部": 2471,
      "郭": 2472,
      "都": 2473,
      "鄕": 2474,
      "配": 2475,
      "酒": 2476,
      "酢": 2477,
      "酬": 2478,
      "酵": 2479,
      "酷": 2480,
      "酸": 2481,
      "醇": 2482,
      "醉": 2483,
      "醋": 2484,
      "醒": 2485,
      "醜": 2486,
      "醫": 2487,
      "醬": 2488,
      "醯": 2489,
      "醱": 2490,
      "釉": 2491,
      "釋": 2492,
      "里": 2493,
      "重": 2494,
      "野": 2495,
      "量": 2496,
      "金": 2497,
      "釘": 2498,
      "釜": 2499,
      "針": 2500,
      "釣": 2501,
      "鈍": 2502,
      "鉛": 2503,
      "鉤": 2504,
      "銀": 2505,
      "銅": 2506,
      "銑": 2507,
      "銳": 2508,
      "銹": 2509,
      "鋪": 2510,
      "鋸": 2511,
      "鋼": 2512,
      "錄": 2513,
      "錐": 2514,
      "錘": 2515,
      "錠": 2516,
      "錢": 2517,
      "錦": 2518,
      "錨": 2519,
      "錫": 2520,
      "錯": 2521,
      "鍊": 2522,
      "鍋": 2523,
      "鍍": 2524,
      "鍛": 2525,
      "鍵": 2526,
      "鍼": 2527,
      "鎌": 2528,
      "鎔": 2529,
      "鎖": 2530,
      "鎭": 2531,
      "鏡": 2532,
      "鐘": 2533,
      "鐵": 2534,
      "鑄": 2535,
      "鑑": 2536,
      "鑛": 2537,
      "鑿": 2538,
      "長": 2539,
      "門": 2540,
      "閃": 2541,
      "閉": 2542,
      "開": 2543,
      "間": 2544,
      "閣": 2545,
      "關": 2546,
      "防": 2547,
      "阿": 2548,
      "附": 2549,
      "降": 2550,
      "限": 2551,
      "除": 2552,
      "陰": 2553,
      "陳": 2554,
      "陵": 2555,
      "陶": 2556,
      "陷": 2557,
      "陸": 2558,
      "陽": 2559,
      "隅": 2560,
      "隆": 2561,
      "隊": 2562,
      "階": 2563,
      "隔": 2564,
      "隘": 2565,
      "隙": 2566,
      "際": 2567,
      "障": 2568,
      "隣": 2569,
      "隨": 2570,
      "險": 2571,
      "隱": 2572,
      "雀": 2573,
      "雁": 2574,
      "雄": 2575,
      "雅": 2576,
      "集": 2577,
      "雇": 2578,
      "雌": 2579,
      "雙": 2580,
      "雜": 2581,
      "離": 2582,
      "難": 2583,
      "雨": 2584,
      "雪": 2585,
      "雰": 2586,
      "雲": 2587,
      "零": 2588,
      "雷": 2589,
      "雹": 2590,
      "電": 2591,
      "需": 2592,
      "震": 2593,
      "霜": 2594,
      "霧": 2595,
      "露": 2596,
      "靈": 2597,
      "靑": 2598,
      "靜": 2599,
      "非": 2600,
      "面": 2601,
      "革": 2602,
      "靭": 2603,
      "靴": 2604,
      "靷": 2605,
      "鞭": 2606,
      "韓": 2607,
      "韜": 2608,
      "音": 2609,
      "響": 2610,
      "頁": 2611,
      "頂": 2612,
      "項": 2613,
      "順": 2614,
      "頓": 2615,
      "領": 2616,
      "頭": 2617,
      "頰": 2618,
      "頸": 2619,
      "頻": 2620,
      "顆": 2621,
      "題": 2622,
      "額": 2623,
      "顎": 2624,
      "顔": 2625,
      "願": 2626,
      "顚": 2627,
      "類": 2628,
      "顧": 2629,
      "顯": 2630,
      "風": 2631,
      "飛": 2632,
      "食": 2633,
      "飢": 2634,
      "飮": 2635,
      "飯": 2636,
      "飼": 2637,
      "飽": 2638,
      "飾": 2639,
      "養": 2640,
      "餘": 2641,
      "餠": 2642,
      "館": 2643,
      "首": 2644,
      "香": 2645,
      "馬": 2646,
      "駐": 2647,
      "駒": 2648,
      "駝": 2649,
      "騰": 2650,
      "騷": 2651,
      "驅": 2652,
      "驗": 2653,
      "驚": 2654,
      "驛": 2655,
      "骨": 2656,
      "骸": 2657,
      "髓": 2658,
      "體": 2659,
      "高": 2660,
      "髮": 2661,
      "鬪": 2662,
      "鬱": 2663,
      "魏": 2664,
      "魚": 2665,
      "鮮": 2666,
      "鰒": 2667,
      "鰕": 2668,
      "鱗": 2669,
      "鳥": 2670,
      "鳩": 2671,
      "鳴": 2672,
      "鷄": 2673,
      "鹹": 2674,
      "鹽": 2675,
      "鹿": 2676,
      "麗": 2677,
      "麥": 2678,
      "麴": 2679,
      "麵": 2680,
      "麻": 2681,
      "黃": 2682,
      "黑": 2683,
      "默": 2684,
      "黛": 2685,
      "點": 2686,
      "黨": 2687,
      "黴": 2688,
      "鼓": 2689,
      "鼠": 2690,
      "鼻": 2691,
      "齒": 2692,
      "齧": 2693,
      "龍": 2694,
      "龜": 2695,
      "가": 2696,
      "각": 2697,
      "간": 2698,
      "갇": 2699,
      "갈": 2700,
      "갉": 2701,
      "감": 2702,
      "갑": 2703,
      "값": 2704,
      "갓": 2705,
      "갔": 2706,
      "강": 2707,
      "갖": 2708,
      "갗": 2709,
      "같": 2710,
      "갚": 2711,
      "갛": 2712,
      "개": 2713,
      "객": 2714,
      "갠": 2715,
      "갤": 2716,
      "갬": 2717,
      "갭": 2718,
      "갯": 2719,
      "갰": 2720,
      "갱": 2721,
      "갸": 2722,
      "갹": 2723,
      "갼": 2724,
      "걀": 2725,
      "걋": 2726,
      "걍": 2727,
      "걔": 2728,
      "거": 2729,
      "걱": 2730,
      "건": 2731,
      "걷": 2732,
      "걸": 2733,
      "걺": 2734,
      "검": 2735,
      "겁": 2736,
      "것": 2737,
      "겄": 2738,
      "겅": 2739,
      "겆": 2740,
      "겉": 2741,
      "겊": 2742,
      "겋": 2743,
      "게": 2744,
      "겐": 2745,
      "겔": 2746,
      "겖": 2747,
      "겜": 2748,
      "겝": 2749,
      "겟": 2750,
      "겠": 2751,
      "겡": 2752,
      "겨": 2753,
      "격": 2754,
      "겪": 2755,
      "견": 2756,
      "겯": 2757,
      "결": 2758,
      "겸": 2759,
      "겹": 2760,
      "겻": 2761,
      "겼": 2762,
      "경": 2763,
      "곁": 2764,
      "계": 2765,
      "곗": 2766,
      "고": 2767,
      "곡": 2768,
      "곤": 2769,
      "곧": 2770,
      "골": 2771,
      "곪": 2772,
      "곬": 2773,
      "곰": 2774,
      "곱": 2775,
      "곳": 2776,
      "공": 2777,
      "곶": 2778,
      "과": 2779,
      "곽": 2780,
      "관": 2781,
      "괄": 2782,
      "괌": 2783,
      "광": 2784,
      "괘": 2785,
      "괜": 2786,
      "괭": 2787,
      "괴": 2788,
      "괵": 2789,
      "괸": 2790,
      "괼": 2791,
      "굄": 2792,
      "굉": 2793,
      "교": 2794,
      "굔": 2795,
      "구": 2796,
      "국": 2797,
      "군": 2798,
      "굳": 2799,
      "굴": 2800,
      "굵": 2801,
      "굶": 2802,
      "굻": 2803,
      "굼": 2804,
      "굽": 2805,
      "굿": 2806,
      "궁": 2807,
      "궂": 2808,
      "궈": 2809,
      "권": 2810,
      "궐": 2811,
      "궜": 2812,
      "궝": 2813,
      "궤": 2814,
      "귀": 2815,
      "귄": 2816,
      "귈": 2817,
      "귑": 2818,
      "귓": 2819,
      "규": 2820,
      "균": 2821,
      "귤": 2822,
      "그": 2823,
      "극": 2824,
      "근": 2825,
      "귿": 2826,
      "글": 2827,
      "긁": 2828,
      "금": 2829,
      "급": 2830,
      "긋": 2831,
      "긍": 2832,
      "긔": 2833,
      "기": 2834,
      "긱": 2835,
      "긴": 2836,
      "긷": 2837,
      "길": 2838,
      "김": 2839,
      "깁": 2840,
      "깃": 2841,
      "깅": 2842,
      "깆": 2843,
      "깊": 2844,
      "까": 2845,
      "깍": 2846,
      "깎": 2847,
      "깐": 2848,
      "깔": 2849,
      "깜": 2850,
      "깝": 2851,
      "깡": 2852,
      "깥": 2853,
      "깨": 2854,
      "깬": 2855,
      "깰": 2856,
      "깸": 2857,
      "깻": 2858,
      "깼": 2859,
      "깽": 2860,
      "꺼": 2861,
      "꺽": 2862,
      "꺾": 2863,
      "껀": 2864,
      "껄": 2865,
      "껌": 2866,
      "껍": 2867,
      "껏": 2868,
      "껐": 2869,
      "껑": 2870,
      "께": 2871,
      "껴": 2872,
      "꼇": 2873,
      "꼈": 2874,
      "꼐": 2875,
      "꼬": 2876,
      "꼭": 2877,
      "꼰": 2878,
      "꼴": 2879,
      "꼼": 2880,
      "꼽": 2881,
      "꼿": 2882,
      "꽁": 2883,
      "꽂": 2884,
      "꽃": 2885,
      "꽈": 2886,
      "꽉": 2887,
      "꽝": 2888,
      "꽤": 2889,
      "꽥": 2890,
      "꽹": 2891,
      "꾀": 2892,
      "꾐": 2893,
      "꾸": 2894,
      "꾹": 2895,
      "꾼": 2896,
      "꿀": 2897,
      "꿇": 2898,
      "꿈": 2899,
      "꿉": 2900,
      "꿋": 2901,
      "꿍": 2902,
      "꿔": 2903,
      "꿜": 2904,
      "꿨": 2905,
      "꿩": 2906,
      "꿰": 2907,
      "꿴": 2908,
      "꿸": 2909,
      "뀀": 2910,
      "뀌": 2911,
      "뀐": 2912,
      "뀔": 2913,
      "뀜": 2914,
      "뀝": 2915,
      "끄": 2916,
      "끈": 2917,
      "끊": 2918,
      "끌": 2919,
      "끓": 2920,
      "끔": 2921,
      "끗": 2922,
      "끝": 2923,
      "끼": 2924,
      "끽": 2925,
      "낀": 2926,
      "낄": 2927,
      "낌": 2928,
      "낍": 2929,
      "낑": 2930,
      "나": 2931,
      "낙": 2932,
      "낚": 2933,
      "난": 2934,
      "낟": 2935,
      "날": 2936,
      "낡": 2937,
      "남": 2938,
      "납": 2939,
      "낫": 2940,
      "났": 2941,
      "낭": 2942,
      "낮": 2943,
      "낯": 2944,
      "낱": 2945,
      "낳": 2946,
      "내": 2947,
      "낵": 2948,
      "낸": 2949,
      "낼": 2950,
      "냄": 2951,
      "냅": 2952,
      "냇": 2953,
      "냈": 2954,
      "냉": 2955,
      "냐": 2956,
      "냑": 2957,
      "냔": 2958,
      "냥": 2959,
      "넁": 2960,
      "너": 2961,
      "넉": 2962,
      "넋": 2963,
      "넌": 2964,
      "널": 2965,
      "넒": 2966,
      "넓": 2967,
      "넘": 2968,
      "넙": 2969,
      "넛": 2970,
      "넜": 2971,
      "넝": 2972,
      "넣": 2973,
      "네": 2974,
      "넥": 2975,
      "넨": 2976,
      "넬": 2977,
      "넴": 2978,
      "넵": 2979,
      "넷": 2980,
      "넸": 2981,
      "넹": 2982,
      "녀": 2983,
      "녁": 2984,
      "년": 2985,
      "녈": 2986,
      "념": 2987,
      "녑": 2988,
      "녔": 2989,
      "녕": 2990,
      "녘": 2991,
      "녠": 2992,
      "노": 2993,
      "녹": 2994,
      "논": 2995,
      "놀": 2996,
      "놈": 2997,
      "놉": 2998,
      "놋": 2999,
      "농": 3000,
      "높": 3001,
      "놓": 3002,
      "놔": 3003,
      "놨": 3004,
      "뇌": 3005,
      "뇐": 3006,
      "뇨": 3007,
      "뇰": 3008,
      "뇽": 3009,
      "누": 3010,
      "눅": 3011,
      "눈": 3012,
      "눋": 3013,
      "눌": 3014,
      "눔": 3015,
      "눕": 3016,
      "눗": 3017,
      "눙": 3018,
      "눠": 3019,
      "눴": 3020,
      "뉘": 3021,
      "뉜": 3022,
      "뉠": 3023,
      "뉨": 3024,
      "뉴": 3025,
      "뉼": 3026,
      "늄": 3027,
      "늉": 3028,
      "느": 3029,
      "늑": 3030,
      "는": 3031,
      "늘": 3032,
      "늙": 3033,
      "늠": 3034,
      "능": 3035,
      "늦": 3036,
      "늪": 3037,
      "늬": 3038,
      "늴": 3039,
      "니": 3040,
      "닉": 3041,
      "닌": 3042,
      "닐": 3043,
      "님": 3044,
      "닙": 3045,
      "닛": 3046,
      "닝": 3047,
      "닢": 3048,
      "다": 3049,
      "닥": 3050,
      "닦": 3051,
      "단": 3052,
      "닫": 3053,
      "달": 3054,
      "닭": 3055,
      "닮": 3056,
      "닯": 3057,
      "닳": 3058,
      "담": 3059,
      "답": 3060,
      "닷": 3061,
      "당": 3062,
      "닺": 3063,
      "닻": 3064,
      "닿": 3065,
      "대": 3066,
      "댁": 3067,
      "댄": 3068,
      "댈": 3069,
      "댐": 3070,
      "댑": 3071,
      "댓": 3072,
      "댔": 3073,
      "댕": 3074,
      "댜": 3075,
      "더": 3076,
      "덕": 3077,
      "덖": 3078,
      "던": 3079,
      "덛": 3080,
      "덜": 3081,
      "덟": 3082,
      "덤": 3083,
      "덥": 3084,
      "덧": 3085,
      "덩": 3086,
      "덫": 3087,
      "덮": 3088,
      "데": 3089,
      "덱": 3090,
      "덴": 3091,
      "델": 3092,
      "뎀": 3093,
      "뎁": 3094,
      "뎃": 3095,
      "뎅": 3096,
      "뎌": 3097,
      "뎠": 3098,
      "도": 3099,
      "독": 3100,
      "돈": 3101,
      "돋": 3102,
      "돌": 3103,
      "돎": 3104,
      "돐": 3105,
      "돔": 3106,
      "돕": 3107,
      "돗": 3108,
      "동": 3109,
      "돛": 3110,
      "돝": 3111,
      "돠": 3112,
      "돤": 3113,
      "돨": 3114,
      "돼": 3115,
      "됐": 3116,
      "되": 3117,
      "된": 3118,
      "될": 3119,
      "됨": 3120,
      "됩": 3121,
      "두": 3122,
      "둑": 3123,
      "둔": 3124,
      "둘": 3125,
      "둠": 3126,
      "둡": 3127,
      "둣": 3128,
      "둥": 3129,
      "둬": 3130,
      "뒀": 3131,
      "뒈": 3132,
      "뒤": 3133,
      "뒷": 3134,
      "뒹": 3135,
      "듀": 3136,
      "듈": 3137,
      "듐": 3138,
      "드": 3139,
      "득": 3140,
      "든": 3141,
      "듣": 3142,
      "들": 3143,
      "듦": 3144,
      "듬": 3145,
      "듭": 3146,
      "듯": 3147,
      "등": 3148,
      "듸": 3149,
      "디": 3150,
      "딕": 3151,
      "딘": 3152,
      "딛": 3153,
      "딜": 3154,
      "딤": 3155,
      "딥": 3156,
      "딧": 3157,
      "딩": 3158,
      "딪": 3159,
      "따": 3160,
      "딱": 3161,
      "딴": 3162,
      "딸": 3163,
      "땀": 3164,
      "땃": 3165,
      "땄": 3166,
      "땅": 3167,
      "땋": 3168,
      "때": 3169,
      "땐": 3170,
      "땔": 3171,
      "땜": 3172,
      "땝": 3173,
      "땟": 3174,
      "땠": 3175,
      "땡": 3176,
      "떄": 3177,
      "떠": 3178,
      "떡": 3179,
      "떤": 3180,
      "떨": 3181,
      "떪": 3182,
      "떫": 3183,
      "떳": 3184,
      "떴": 3185,
      "떻": 3186,
      "떼": 3187,
      "뗀": 3188,
      "뗄": 3189,
      "뗌": 3190,
      "뗏": 3191,
      "뗐": 3192,
      "또": 3193,
      "똑": 3194,
      "똔": 3195,
      "똘": 3196,
      "똥": 3197,
      "똬": 3198,
      "뙤": 3199,
      "뙨": 3200,
      "뚜": 3201,
      "뚝": 3202,
      "뚤": 3203,
      "뚫": 3204,
      "뚱": 3205,
      "뛰": 3206,
      "뛴": 3207,
      "뛸": 3208,
      "뜀": 3209,
      "뜨": 3210,
      "뜩": 3211,
      "뜬": 3212,
      "뜯": 3213,
      "뜰": 3214,
      "뜸": 3215,
      "뜻": 3216,
      "띄": 3217,
      "띈": 3218,
      "띌": 3219,
      "띔": 3220,
      "띠": 3221,
      "띤": 3222,
      "띨": 3223,
      "띰": 3224,
      "띳": 3225,
      "띵": 3226,
      "라": 3227,
      "락": 3228,
      "란": 3229,
      "랄": 3230,
      "람": 3231,
      "랍": 3232,
      "랏": 3233,
      "랐": 3234,
      "랑": 3235,
      "랒": 3236,
      "랗": 3237,
      "래": 3238,
      "랙": 3239,
      "랜": 3240,
      "랠": 3241,
      "램": 3242,
      "랩": 3243,
      "랫": 3244,
      "랬": 3245,
      "랭": 3246,
      "랴": 3247,
      "략": 3248,
      "랸": 3249,
      "럇": 3250,
      "량": 3251,
      "러": 3252,
      "럭": 3253,
      "런": 3254,
      "럴": 3255,
      "럼": 3256,
      "럽": 3257,
      "럿": 3258,
      "렀": 3259,
      "렁": 3260,
      "렇": 3261,
      "레": 3262,
      "렉": 3263,
      "렌": 3264,
      "렐": 3265,
      "렘": 3266,
      "렙": 3267,
      "렛": 3268,
      "렝": 3269,
      "려": 3270,
      "력": 3271,
      "련": 3272,
      "렬": 3273,
      "렴": 3274,
      "렵": 3275,
      "렷": 3276,
      "렸": 3277,
      "령": 3278,
      "례": 3279,
      "롁": 3280,
      "롄": 3281,
      "로": 3282,
      "록": 3283,
      "론": 3284,
      "롤": 3285,
      "롬": 3286,
      "롭": 3287,
      "롯": 3288,
      "롱": 3289,
      "롸": 3290,
      "롼": 3291,
      "뢰": 3292,
      "뢴": 3293,
      "뢸": 3294,
      "료": 3295,
      "룔": 3296,
      "룡": 3297,
      "루": 3298,
      "룩": 3299,
      "룬": 3300,
      "룰": 3301,
      "룸": 3302,
      "룹": 3303,
      "룻": 3304,
      "룽": 3305,
      "뤄": 3306,
      "뤘": 3307,
      "뤼": 3308,
      "뤽": 3309,
      "류": 3310,
      "륙": 3311,
      "륜": 3312,
      "률": 3313,
      "륨": 3314,
      "륩": 3315,
      "륫": 3316,
      "륭": 3317,
      "르": 3318,
      "륵": 3319,
      "른": 3320,
      "를": 3321,
      "름": 3322,
      "릅": 3323,
      "릇": 3324,
      "릉": 3325,
      "릍": 3326,
      "릎": 3327,
      "리": 3328,
      "릭": 3329,
      "린": 3330,
      "릴": 3331,
      "림": 3332,
      "립": 3333,
      "릿": 3334,
      "링": 3335,
      "맇": 3336,
      "마": 3337,
      "막": 3338,
      "만": 3339,
      "많": 3340,
      "맏": 3341,
      "말": 3342,
      "맑": 3343,
      "맘": 3344,
      "맙": 3345,
      "맛": 3346,
      "망": 3347,
      "맞": 3348,
      "맟": 3349,
      "맡": 3350,
      "맣": 3351,
      "매": 3352,
      "맥": 3353,
      "맨": 3354,
      "맬": 3355,
      "맴": 3356,
      "맵": 3357,
      "맷": 3358,
      "맸": 3359,
      "맹": 3360,
      "맺": 3361,
      "먀": 3362,
      "먕": 3363,
      "머": 3364,
      "먹": 3365,
      "먼": 3366,
      "멀": 3367,
      "멈": 3368,
      "멉": 3369,
      "멋": 3370,
      "멍": 3371,
      "멎": 3372,
      "멓": 3373,
      "메": 3374,
      "멕": 3375,
      "멘": 3376,
      "멜": 3377,
      "멤": 3378,
      "멥": 3379,
      "멧": 3380,
      "멩": 3381,
      "며": 3382,
      "멱": 3383,
      "면": 3384,
      "멸": 3385,
      "몄": 3386,
      "명": 3387,
      "몇": 3388,
      "몌": 3389,
      "모": 3390,
      "목": 3391,
      "몫": 3392,
      "몬": 3393,
      "몰": 3394,
      "몸": 3395,
      "몹": 3396,
      "못": 3397,
      "몽": 3398,
      "뫄": 3399,
      "뫼": 3400,
      "묏": 3401,
      "묑": 3402,
      "묘": 3403,
      "무": 3404,
      "묵": 3405,
      "묶": 3406,
      "문": 3407,
      "묻": 3408,
      "물": 3409,
      "묽": 3410,
      "뭄": 3411,
      "뭇": 3412,
      "뭉": 3413,
      "뭍": 3414,
      "뭐": 3415,
      "뭔": 3416,
      "뭘": 3417,
      "뭣": 3418,
      "뮈": 3419,
      "뮌": 3420,
      "뮐": 3421,
      "뮤": 3422,
      "뮨": 3423,
      "뮬": 3424,
      "뮴": 3425,
      "므": 3426,
      "믄": 3427,
      "믈": 3428,
      "믐": 3429,
      "믓": 3430,
      "미": 3431,
      "믹": 3432,
      "민": 3433,
      "믿": 3434,
      "밀": 3435,
      "밂": 3436,
      "밈": 3437,
      "밉": 3438,
      "밋": 3439,
      "밌": 3440,
      "밍": 3441,
      "및": 3442,
      "밑": 3443,
      "바": 3444,
      "박": 3445,
      "밖": 3446,
      "반": 3447,
      "받": 3448,
      "발": 3449,
      "밝": 3450,
      "밞": 3451,
      "밟": 3452,
      "밤": 3453,
      "밥": 3454,
      "밧": 3455,
      "방": 3456,
      "밭": 3457,
      "배": 3458,
      "백": 3459,
      "밴": 3460,
      "밸": 3461,
      "뱀": 3462,
      "뱁": 3463,
      "뱃": 3464,
      "뱅": 3465,
      "뱉": 3466,
      "뱌": 3467,
      "버": 3468,
      "벅": 3469,
      "번": 3470,
      "벋": 3471,
      "벌": 3472,
      "범": 3473,
      "법": 3474,
      "벗": 3475,
      "벙": 3476,
      "벚": 3477,
      "벛": 3478,
      "베": 3479,
      "벡": 3480,
      "벤": 3481,
      "벧": 3482,
      "벨": 3483,
      "벰": 3484,
      "벳": 3485,
      "벴": 3486,
      "벵": 3487,
      "벼": 3488,
      "벽": 3489,
      "변": 3490,
      "별": 3491,
      "볍": 3492,
      "볏": 3493,
      "볐": 3494,
      "병": 3495,
      "볕": 3496,
      "볘": 3497,
      "볜": 3498,
      "보": 3499,
      "복": 3500,
      "볶": 3501,
      "본": 3502,
      "볼": 3503,
      "봄": 3504,
      "봅": 3505,
      "봇": 3506,
      "봉": 3507,
      "봐": 3508,
      "봤": 3509,
      "뵈": 3510,
      "뵘": 3511,
      "뵙": 3512,
      "뵨": 3513,
      "부": 3514,
      "북": 3515,
      "분": 3516,
      "붇": 3517,
      "불": 3518,
      "붉": 3519,
      "붐": 3520,
      "붑": 3521,
      "붓": 3522,
      "붕": 3523,
      "붙": 3524,
      "붜": 3525,
      "붸": 3526,
      "뷔": 3527,
      "뷜": 3528,
      "뷰": 3529,
      "뷴": 3530,
      "뷸": 3531,
      "븀": 3532,
      "브": 3533,
      "븍": 3534,
      "븐": 3535,
      "블": 3536,
      "븝": 3537,
      "븟": 3538,
      "비": 3539,
      "빅": 3540,
      "빈": 3541,
      "빌": 3542,
      "빔": 3543,
      "빕": 3544,
      "빗": 3545,
      "빙": 3546,
      "빚": 3547,
      "빛": 3548,
      "빠": 3549,
      "빡": 3550,
      "빤": 3551,
      "빨": 3552,
      "빰": 3553,
      "빳": 3554,
      "빴": 3555,
      "빵": 3556,
      "빻": 3557,
      "빼": 3558,
      "빽": 3559,
      "뺀": 3560,
      "뺄": 3561,
      "뺌": 3562,
      "뺏": 3563,
      "뺐": 3564,
      "뺑": 3565,
      "뺨": 3566,
      "뻐": 3567,
      "뻑": 3568,
      "뻔": 3569,
      "뻗": 3570,
      "뻘": 3571,
      "뻣": 3572,
      "뻤": 3573,
      "뻥": 3574,
      "뻬": 3575,
      "뼈": 3576,
      "뼉": 3577,
      "뼘": 3578,
      "뼛": 3579,
      "뽀": 3580,
      "뽁": 3581,
      "뽈": 3582,
      "뽐": 3583,
      "뽑": 3584,
      "뽕": 3585,
      "뾰": 3586,
      "뿌": 3587,
      "뿍": 3588,
      "뿐": 3589,
      "뿔": 3590,
      "뿜": 3591,
      "쁘": 3592,
      "쁜": 3593,
      "쁠": 3594,
      "쁨": 3595,
      "쁩": 3596,
      "삐": 3597,
      "삑": 3598,
      "삔": 3599,
      "삡": 3600,
      "사": 3601,
      "삭": 3602,
      "삯": 3603,
      "산": 3604,
      "삳": 3605,
      "살": 3606,
      "삵": 3607,
      "삶": 3608,
      "삼": 3609,
      "삽": 3610,
      "삿": 3611,
      "샀": 3612,
      "상": 3613,
      "샅": 3614,
      "새": 3615,
      "색": 3616,
      "샌": 3617,
      "샐": 3618,
      "샘": 3619,
      "샙": 3620,
      "샛": 3621,
      "생": 3622,
      "샤": 3623,
      "샥": 3624,
      "샨": 3625,
      "샬": 3626,
      "샴": 3627,
      "샵": 3628,
      "샷": 3629,
      "샹": 3630,
      "섀": 3631,
      "섈": 3632,
      "섕": 3633,
      "서": 3634,
      "석": 3635,
      "섞": 3636,
      "선": 3637,
      "섣": 3638,
      "설": 3639,
      "섧": 3640,
      "섬": 3641,
      "섭": 3642,
      "섯": 3643,
      "섰": 3644,
      "성": 3645,
      "섶": 3646,
      "세": 3647,
      "섹": 3648,
      "센": 3649,
      "셀": 3650,
      "셈": 3651,
      "셉": 3652,
      "셋": 3653,
      "셌": 3654,
      "셍": 3655,
      "셔": 3656,
      "셕": 3657,
      "션": 3658,
      "셜": 3659,
      "셤": 3660,
      "셥": 3661,
      "셧": 3662,
      "셨": 3663,
      "셩": 3664,
      "셰": 3665,
      "셴": 3666,
      "셸": 3667,
      "솀": 3668,
      "솅": 3669,
      "소": 3670,
      "속": 3671,
      "솎": 3672,
      "손": 3673,
      "솔": 3674,
      "솜": 3675,
      "솝": 3676,
      "솟": 3677,
      "송": 3678,
      "솥": 3679,
      "솨": 3680,
      "솬": 3681,
      "솽": 3682,
      "쇄": 3683,
      "쇠": 3684,
      "쇤": 3685,
      "쇨": 3686,
      "쇱": 3687,
      "쇳": 3688,
      "쇼": 3689,
      "쇽": 3690,
      "숀": 3691,
      "숄": 3692,
      "숍": 3693,
      "숏": 3694,
      "숑": 3695,
      "수": 3696,
      "숙": 3697,
      "순": 3698,
      "숟": 3699,
      "술": 3700,
      "숨": 3701,
      "숩": 3702,
      "숫": 3703,
      "숭": 3704,
      "숯": 3705,
      "숱": 3706,
      "숲": 3707,
      "숴": 3708,
      "쉈": 3709,
      "쉐": 3710,
      "쉔": 3711,
      "쉘": 3712,
      "쉠": 3713,
      "쉥": 3714,
      "쉬": 3715,
      "쉭": 3716,
      "쉰": 3717,
      "쉴": 3718,
      "쉼": 3719,
      "쉽": 3720,
      "쉿": 3721,
      "슁": 3722,
      "슈": 3723,
      "슐": 3724,
      "슘": 3725,
      "슛": 3726,
      "슝": 3727,
      "스": 3728,
      "슥": 3729,
      "슨": 3730,
      "슬": 3731,
      "슭": 3732,
      "슴": 3733,
      "습": 3734,
      "슷": 3735,
      "승": 3736,
      "시": 3737,
      "식": 3738,
      "신": 3739,
      "싣": 3740,
      "실": 3741,
      "싫": 3742,
      "심": 3743,
      "십": 3744,
      "싯": 3745,
      "싰": 3746,
      "싱": 3747,
      "싶": 3748,
      "싸": 3749,
      "싹": 3750,
      "싼": 3751,
      "쌀": 3752,
      "쌈": 3753,
      "쌉": 3754,
      "쌌": 3755,
      "쌍": 3756,
      "쌓": 3757,
      "쌔": 3758,
      "쌕": 3759,
      "쌜": 3760,
      "쌤": 3761,
      "쌩": 3762,
      "써": 3763,
      "썩": 3764,
      "썬": 3765,
      "썰": 3766,
      "썸": 3767,
      "썹": 3768,
      "썼": 3769,
      "썽": 3770,
      "쎄": 3771,
      "쎈": 3772,
      "쎌": 3773,
      "쏘": 3774,
      "쏙": 3775,
      "쏜": 3776,
      "쏟": 3777,
      "쏠": 3778,
      "쏴": 3779,
      "쐈": 3780,
      "쐐": 3781,
      "쐬": 3782,
      "쐴": 3783,
      "쐼": 3784,
      "쑈": 3785,
      "쑤": 3786,
      "쑥": 3787,
      "쑨": 3788,
      "쒀": 3789,
      "쒸": 3790,
      "쓰": 3791,
      "쓱": 3792,
      "쓴": 3793,
      "쓸": 3794,
      "씀": 3795,
      "씁": 3796,
      "씌": 3797,
      "씨": 3798,
      "씩": 3799,
      "씬": 3800,
      "씰": 3801,
      "씸": 3802,
      "씹": 3803,
      "씻": 3804,
      "씽": 3805,
      "아": 3806,
      "악": 3807,
      "안": 3808,
      "앉": 3809,
      "않": 3810,
      "알": 3811,
      "앓": 3812,
      "암": 3813,
      "압": 3814,
      "앗": 3815,
      "았": 3816,
      "앙": 3817,
      "앝": 3818,
      "앞": 3819,
      "애": 3820,
      "액": 3821,
      "앤": 3822,
      "앨": 3823,
      "앰": 3824,
      "앱": 3825,
      "앳": 3826,
      "앴": 3827,
      "앵": 3828,
      "야": 3829,
      "약": 3830,
      "얀": 3831,
      "얄": 3832,
      "얇": 3833,
      "얌": 3834,
      "얍": 3835,
      "얏": 3836,
      "양": 3837,
      "얕": 3838,
      "얗": 3839,
      "얘": 3840,
      "어": 3841,
      "억": 3842,
      "언": 3843,
      "얹": 3844,
      "얻": 3845,
      "얼": 3846,
      "얽": 3847,
      "얾": 3848,
      "엄": 3849,
      "업": 3850,
      "없": 3851,
      "엇": 3852,
      "었": 3853,
      "엉": 3854,
      "엊": 3855,
      "엌": 3856,
      "엎": 3857,
      "에": 3858,
      "엑": 3859,
      "엔": 3860,
      "엘": 3861,
      "엠": 3862,
      "엡": 3863,
      "엣": 3864,
      "엥": 3865,
      "여": 3866,
      "역": 3867,
      "엮": 3868,
      "연": 3869,
      "열": 3870,
      "엶": 3871,
      "엷": 3872,
      "염": 3873,
      "엽": 3874,
      "엾": 3875,
      "엿": 3876,
      "였": 3877,
      "영": 3878,
      "옅": 3879,
      "옆": 3880,
      "옇": 3881,
      "예": 3882,
      "옌": 3883,
      "옐": 3884,
      "옛": 3885,
      "옜": 3886,
      "오": 3887,
      "옥": 3888,
      "온": 3889,
      "올": 3890,
      "옭": 3891,
      "옮": 3892,
      "옳": 3893,
      "옴": 3894,
      "옵": 3895,
      "옷": 3896,
      "옹": 3897,
      "옻": 3898,
      "와": 3899,
      "왁": 3900,
      "완": 3901,
      "왈": 3902,
      "왑": 3903,
      "왓": 3904,
      "왔": 3905,
      "왕": 3906,
      "왜": 3907,
      "왝": 3908,
      "왠": 3909,
      "왯": 3910,
      "외": 3911,
      "왹": 3912,
      "왼": 3913,
      "욈": 3914,
      "욋": 3915,
      "욍": 3916,
      "요": 3917,
      "욕": 3918,
      "욘": 3919,
      "욜": 3920,
      "욤": 3921,
      "욥": 3922,
      "용": 3923,
      "우": 3924,
      "욱": 3925,
      "운": 3926,
      "울": 3927,
      "욺": 3928,
      "움": 3929,
      "웁": 3930,
      "웃": 3931,
      "웅": 3932,
      "워": 3933,
      "웍": 3934,
      "원": 3935,
      "월": 3936,
      "웜": 3937,
      "웝": 3938,
      "웠": 3939,
      "웡": 3940,
      "웨": 3941,
      "웩": 3942,
      "웬": 3943,
      "웰": 3944,
      "웸": 3945,
      "웹": 3946,
      "웻": 3947,
      "웽": 3948,
      "위": 3949,
      "윅": 3950,
      "윈": 3951,
      "윌": 3952,
      "윔": 3953,
      "윕": 3954,
      "윗": 3955,
      "윙": 3956,
      "유": 3957,
      "육": 3958,
      "윤": 3959,
      "율": 3960,
      "윰": 3961,
      "윱": 3962,
      "윳": 3963,
      "융": 3964,
      "윷": 3965,
      "윺": 3966,
      "으": 3967,
      "윽": 3968,
      "은": 3969,
      "을": 3970,
      "읊": 3971,
      "음": 3972,
      "읍": 3973,
      "응": 3974,
      "읕": 3975,
      "읖": 3976,
      "읗": 3977,
      "의": 3978,
      "읜": 3979,
      "읠": 3980,
      "이": 3981,
      "익": 3982,
      "인": 3983,
      "일": 3984,
      "읽": 3985,
      "잃": 3986,
      "임": 3987,
      "입": 3988,
      "잇": 3989,
      "있": 3990,
      "잉": 3991,
      "잊": 3992,
      "잎": 3993,
      "자": 3994,
      "작": 3995,
      "잔": 3996,
      "잖": 3997,
      "잗": 3998,
      "잘": 3999,
      "잠": 4000,
      "잡": 4001,
      "잣": 4002,
      "잤": 4003,
      "장": 4004,
      "잦": 4005,
      "재": 4006,
      "잭": 4007,
      "잰": 4008,
      "잴": 4009,
      "잼": 4010,
      "잽": 4011,
      "잿": 4012,
      "쟀": 4013,
      "쟁": 4014,
      "쟈": 4015,
      "쟉": 4016,
      "쟌": 4017,
      "쟘": 4018,
      "쟝": 4019,
      "저": 4020,
      "적": 4021,
      "전": 4022,
      "절": 4023,
      "젊": 4024,
      "점": 4025,
      "접": 4026,
      "젓": 4027,
      "정": 4028,
      "젖": 4029,
      "제": 4030,
      "젝": 4031,
      "젠": 4032,
      "젤": 4033,
      "젬": 4034,
      "젭": 4035,
      "젯": 4036,
      "젱": 4037,
      "져": 4038,
      "젼": 4039,
      "졀": 4040,
      "졈": 4041,
      "졉": 4042,
      "졌": 4043,
      "졍": 4044,
      "졔": 4045,
      "조": 4046,
      "족": 4047,
      "존": 4048,
      "졸": 4049,
      "좀": 4050,
      "좁": 4051,
      "좃": 4052,
      "종": 4053,
      "좇": 4054,
      "좋": 4055,
      "좌": 4056,
      "좍": 4057,
      "좔": 4058,
      "죄": 4059,
      "죈": 4060,
      "죌": 4061,
      "죔": 4062,
      "죙": 4063,
      "죠": 4064,
      "죡": 4065,
      "죤": 4066,
      "죵": 4067,
      "주": 4068,
      "죽": 4069,
      "준": 4070,
      "줄": 4071,
      "줌": 4072,
      "줍": 4073,
      "줏": 4074,
      "중": 4075,
      "줘": 4076,
      "줬": 4077,
      "쥐": 4078,
      "쥔": 4079,
      "쥘": 4080,
      "쥠": 4081,
      "쥣": 4082,
      "쥬": 4083,
      "쥴": 4084,
      "쥼": 4085,
      "즈": 4086,
      "즉": 4087,
      "즌": 4088,
      "즐": 4089,
      "즘": 4090,
      "즙": 4091,
      "즛": 4092,
      "증": 4093,
      "지": 4094,
      "직": 4095,
      "진": 4096,
      "짇": 4097,
      "질": 4098,
      "짊": 4099,
      "짐": 4100,
      "집": 4101,
      "짓": 4102,
      "징": 4103,
      "짖": 4104,
      "짙": 4105,
      "짚": 4106,
      "짜": 4107,
      "짝": 4108,
      "짠": 4109,
      "짢": 4110,
      "짤": 4111,
      "짧": 4112,
      "짬": 4113,
      "짭": 4114,
      "짰": 4115,
      "짱": 4116,
      "째": 4117,
      "짹": 4118,
      "쨈": 4119,
      "쨋": 4120,
      "쨌": 4121,
      "쨍": 4122,
      "쩌": 4123,
      "쩍": 4124,
      "쩔": 4125,
      "쩡": 4126,
      "쩨": 4127,
      "쪄": 4128,
      "쪘": 4129,
      "쪼": 4130,
      "쪽": 4131,
      "쫀": 4132,
      "쫄": 4133,
      "쫏": 4134,
      "쫑": 4135,
      "쫓": 4136,
      "쫙": 4137,
      "쫴": 4138,
      "쬐": 4139,
      "쬔": 4140,
      "쬘": 4141,
      "쭈": 4142,
      "쭉": 4143,
      "쭐": 4144,
      "쮜": 4145,
      "쮸": 4146,
      "쯔": 4147,
      "쯤": 4148,
      "찌": 4149,
      "찍": 4150,
      "찐": 4151,
      "찔": 4152,
      "찜": 4153,
      "찝": 4154,
      "찟": 4155,
      "찡": 4156,
      "찢": 4157,
      "찧": 4158,
      "차": 4159,
      "착": 4160,
      "찬": 4161,
      "찮": 4162,
      "찰": 4163,
      "참": 4164,
      "찹": 4165,
      "찻": 4166,
      "찼": 4167,
      "창": 4168,
      "찾": 4169,
      "채": 4170,
      "책": 4171,
      "챈": 4172,
      "챌": 4173,
      "챔": 4174,
      "챕": 4175,
      "챗": 4176,
      "챘": 4177,
      "챙": 4178,
      "챠": 4179,
      "챤": 4180,
      "챨": 4181,
      "챵": 4182,
      "처": 4183,
      "척": 4184,
      "천": 4185,
      "철": 4186,
      "첨": 4187,
      "첩": 4188,
      "첫": 4189,
      "청": 4190,
      "체": 4191,
      "첵": 4192,
      "첸": 4193,
      "첼": 4194,
      "쳄": 4195,
      "쳅": 4196,
      "쳇": 4197,
      "쳉": 4198,
      "쳐": 4199,
      "쳔": 4200,
      "쳤": 4201,
      "쳬": 4202,
      "쳴": 4203,
      "초": 4204,
      "촉": 4205,
      "촌": 4206,
      "촐": 4207,
      "촘": 4208,
      "촙": 4209,
      "촛": 4210,
      "총": 4211,
      "촤": 4212,
      "촨": 4213,
      "촬": 4214,
      "최": 4215,
      "쵤": 4216,
      "쵸": 4217,
      "춀": 4218,
      "추": 4219,
      "축": 4220,
      "춘": 4221,
      "출": 4222,
      "춤": 4223,
      "춥": 4224,
      "춧": 4225,
      "충": 4226,
      "춰": 4227,
      "췄": 4228,
      "췌": 4229,
      "취": 4230,
      "췬": 4231,
      "췸": 4232,
      "췹": 4233,
      "츄": 4234,
      "츈": 4235,
      "츌": 4236,
      "츠": 4237,
      "측": 4238,
      "츤": 4239,
      "츨": 4240,
      "츰": 4241,
      "츱": 4242,
      "층": 4243,
      "치": 4244,
      "칙": 4245,
      "친": 4246,
      "칠": 4247,
      "칡": 4248,
      "침": 4249,
      "칩": 4250,
      "칫": 4251,
      "칭": 4252,
      "카": 4253,
      "칵": 4254,
      "칸": 4255,
      "칼": 4256,
      "캄": 4257,
      "캅": 4258,
      "캇": 4259,
      "캉": 4260,
      "캐": 4261,
      "캑": 4262,
      "캔": 4263,
      "캘": 4264,
      "캠": 4265,
      "캡": 4266,
      "캣": 4267,
      "캥": 4268,
      "캬": 4269,
      "커": 4270,
      "컥": 4271,
      "컨": 4272,
      "컫": 4273,
      "컬": 4274,
      "컴": 4275,
      "컵": 4276,
      "컷": 4277,
      "컸": 4278,
      "컹": 4279,
      "케": 4280,
      "켁": 4281,
      "켄": 4282,
      "켈": 4283,
      "켐": 4284,
      "켑": 4285,
      "켓": 4286,
      "켕": 4287,
      "켜": 4288,
      "켠": 4289,
      "켤": 4290,
      "켬": 4291,
      "켭": 4292,
      "켯": 4293,
      "켰": 4294,
      "켸": 4295,
      "코": 4296,
      "콕": 4297,
      "콘": 4298,
      "콜": 4299,
      "콤": 4300,
      "콥": 4301,
      "콧": 4302,
      "콩": 4303,
      "콰": 4304,
      "콱": 4305,
      "콴": 4306,
      "콸": 4307,
      "쾀": 4308,
      "쾅": 4309,
      "쾌": 4310,
      "쾡": 4311,
      "쾨": 4312,
      "쾰": 4313,
      "쿄": 4314,
      "쿠": 4315,
      "쿡": 4316,
      "쿤": 4317,
      "쿨": 4318,
      "쿰": 4319,
      "쿱": 4320,
      "쿳": 4321,
      "쿵": 4322,
      "쿼": 4323,
      "퀀": 4324,
      "퀄": 4325,
      "퀘": 4326,
      "퀜": 4327,
      "퀠": 4328,
      "퀴": 4329,
      "퀵": 4330,
      "퀸": 4331,
      "퀼": 4332,
      "큄": 4333,
      "큇": 4334,
      "큉": 4335,
      "큐": 4336,
      "큘": 4337,
      "큠": 4338,
      "크": 4339,
      "큭": 4340,
      "큰": 4341,
      "클": 4342,
      "큼": 4343,
      "큽": 4344,
      "킁": 4345,
      "키": 4346,
      "킥": 4347,
      "킨": 4348,
      "킬": 4349,
      "킴": 4350,
      "킵": 4351,
      "킷": 4352,
      "킹": 4353,
      "타": 4354,
      "탁": 4355,
      "탄": 4356,
      "탈": 4357,
      "탉": 4358,
      "탐": 4359,
      "탑": 4360,
      "탓": 4361,
      "탔": 4362,
      "탕": 4363,
      "태": 4364,
      "택": 4365,
      "탠": 4366,
      "탤": 4367,
      "탬": 4368,
      "탭": 4369,
      "탯": 4370,
      "탰": 4371,
      "탱": 4372,
      "탸": 4373,
      "턍": 4374,
      "터": 4375,
      "턱": 4376,
      "턴": 4377,
      "털": 4378,
      "텀": 4379,
      "텁": 4380,
      "텃": 4381,
      "텄": 4382,
      "텅": 4383,
      "테": 4384,
      "텍": 4385,
      "텐": 4386,
      "텔": 4387,
      "템": 4388,
      "텝": 4389,
      "텟": 4390,
      "텡": 4391,
      "텨": 4392,
      "텬": 4393,
      "텼": 4394,
      "톈": 4395,
      "토": 4396,
      "톡": 4397,
      "톤": 4398,
      "톨": 4399,
      "톰": 4400,
      "톱": 4401,
      "톳": 4402,
      "통": 4403,
      "퇀": 4404,
      "퇘": 4405,
      "퇴": 4406,
      "툐": 4407,
      "투": 4408,
      "툭": 4409,
      "툰": 4410,
      "툴": 4411,
      "툼": 4412,
      "툽": 4413,
      "툿": 4414,
      "퉁": 4415,
      "퉈": 4416,
      "퉜": 4417,
      "퉤": 4418,
      "튀": 4419,
      "튄": 4420,
      "튈": 4421,
      "튐": 4422,
      "튕": 4423,
      "튜": 4424,
      "튠": 4425,
      "튤": 4426,
      "튬": 4427,
      "트": 4428,
      "특": 4429,
      "튼": 4430,
      "튿": 4431,
      "틀": 4432,
      "틂": 4433,
      "틈": 4434,
      "틉": 4435,
      "틋": 4436,
      "틔": 4437,
      "티": 4438,
      "틱": 4439,
      "틴": 4440,
      "틸": 4441,
      "팀": 4442,
      "팁": 4443,
      "팃": 4444,
      "팅": 4445,
      "파": 4446,
      "팍": 4447,
      "팎": 4448,
      "판": 4449,
      "팔": 4450,
      "팜": 4451,
      "팝": 4452,
      "팟": 4453,
      "팠": 4454,
      "팡": 4455,
      "팥": 4456,
      "패": 4457,
      "팩": 4458,
      "팬": 4459,
      "팰": 4460,
      "팸": 4461,
      "팹": 4462,
      "팻": 4463,
      "팽": 4464,
      "퍄": 4465,
      "퍼": 4466,
      "퍽": 4467,
      "펀": 4468,
      "펄": 4469,
      "펌": 4470,
      "펍": 4471,
      "펏": 4472,
      "펐": 4473,
      "펑": 4474,
      "페": 4475,
      "펙": 4476,
      "펜": 4477,
      "펠": 4478,
      "펨": 4479,
      "펩": 4480,
      "펫": 4481,
      "펭": 4482,
      "펴": 4483,
      "편": 4484,
      "펼": 4485,
      "폄": 4486,
      "폅": 4487,
      "폈": 4488,
      "평": 4489,
      "폐": 4490,
      "폘": 4491,
      "포": 4492,
      "폭": 4493,
      "폰": 4494,
      "폴": 4495,
      "폼": 4496,
      "폽": 4497,
      "폿": 4498,
      "퐁": 4499,
      "퐈": 4500,
      "푀": 4501,
      "푄": 4502,
      "표": 4503,
      "푠": 4504,
      "푤": 4505,
      "푯": 4506,
      "푸": 4507,
      "푹": 4508,
      "푼": 4509,
      "풀": 4510,
      "풂": 4511,
      "품": 4512,
      "풉": 4513,
      "풋": 4514,
      "풍": 4515,
      "퓌": 4516,
      "퓨": 4517,
      "퓰": 4518,
      "퓸": 4519,
      "퓽": 4520,
      "프": 4521,
      "픈": 4522,
      "플": 4523,
      "픔": 4524,
      "피": 4525,
      "픽": 4526,
      "핀": 4527,
      "필": 4528,
      "핌": 4529,
      "핍": 4530,
      "핏": 4531,
      "핑": 4532,
      "하": 4533,
      "학": 4534,
      "한": 4535,
      "할": 4536,
      "핥": 4537,
      "함": 4538,
      "합": 4539,
      "핫": 4540,
      "항": 4541,
      "해": 4542,
      "핵": 4543,
      "핸": 4544,
      "핼": 4545,
      "햄": 4546,
      "햅": 4547,
      "햇": 4548,
      "했": 4549,
      "행": 4550,
      "햐": 4551,
      "향": 4552,
      "허": 4553,
      "헉": 4554,
      "헌": 4555,
      "헐": 4556,
      "험": 4557,
      "헙": 4558,
      "헛": 4559,
      "헝": 4560,
      "헤": 4561,
      "헥": 4562,
      "헨": 4563,
      "헬": 4564,
      "헴": 4565,
      "헵": 4566,
      "헷": 4567,
      "헹": 4568,
      "혀": 4569,
      "혁": 4570,
      "현": 4571,
      "혈": 4572,
      "혐": 4573,
      "협": 4574,
      "혓": 4575,
      "혔": 4576,
      "형": 4577,
      "혜": 4578,
      "호": 4579,
      "혹": 4580,
      "혼": 4581,
      "홀": 4582,
      "홅": 4583,
      "홈": 4584,
      "홉": 4585,
      "홋": 4586,
      "홍": 4587,
      "홑": 4588,
      "화": 4589,
      "확": 4590,
      "환": 4591,
      "활": 4592,
      "홧": 4593,
      "황": 4594,
      "홰": 4595,
      "홴": 4596,
      "횃": 4597,
      "회": 4598,
      "획": 4599,
      "횐": 4600,
      "횔": 4601,
      "횟": 4602,
      "횡": 4603,
      "효": 4604,
      "후": 4605,
      "훅": 4606,
      "훈": 4607,
      "훌": 4608,
      "훑": 4609,
      "훔": 4610,
      "훗": 4611,
      "훙": 4612,
      "훜": 4613,
      "훠": 4614,
      "훤": 4615,
      "훨": 4616,
      "훰": 4617,
      "훵": 4618,
      "훼": 4619,
      "훽": 4620,
      "휀": 4621,
      "휄": 4622,
      "휑": 4623,
      "휘": 4624,
      "휙": 4625,
      "휜": 4626,
      "휠": 4627,
      "휨": 4628,
      "휩": 4629,
      "휫": 4630,
      "휭": 4631,
      "휴": 4632,
      "휼": 4633,
      "흄": 4634,
      "흉": 4635,
      "흐": 4636,
      "흑": 4637,
      "흔": 4638,
      "흘": 4639,
      "흙": 4640,
      "흠": 4641,
      "흡": 4642,
      "흥": 4643,
      "흩": 4644,
      "희": 4645,
      "흰": 4646,
      "흴": 4647,
      "힁": 4648,
      "히": 4649,
      "힉": 4650,
      "힌": 4651,
      "힐": 4652,
      "힘": 4653,
      "힙": 4654,
      "힛": 4655,
      "힝": 4656,
      "": 4657,
      "": 4658,
      "󕇑": 4659,
      "상기": 4660,
      "하는": 4661,
      "으로": 4662,
      "하여": 4663,
      "발명": 4664,
      "되는": 4665,
      "포함": 4666,
      "발명은": 4667,
      "에서": 4668,
      "장치": 4669,
      "한다": 4670,
      "관한": 4671,
      "하고": 4672,
      "방법": 4673,
      "형성": 4674,
      "도록": 4675,
      "이다": 4676,
      "있다": 4677,
      "사용": 4678,
      "단계": 4679,
      "되어": 4680,
      "제공": 4681,
      "하게": 4682,
      "있는": 4683,
      "것이다": 4684,
      "또는": 4685,
      "제1": 4686,
      "것으로": 4687,
      "레이": 4688,
      "제어": 4689,
      "적으로": 4690,
      "이용": 4691,
      "부터": 4692,
      "위한": 4693,
      "시키": 4694,
      "하기": 4695,
      "신호": 4696,
      "10": 4697,
      "제조": 4698,
      "이터": 4699,
      "포함하는": 4700,
      "정보": 4701,
      "된다": 4702,
      "구성": 4703,
      "제2": 4704,
      "연결": 4705,
      "데이터": 4706,
      "시스": 4707,
      "부에": 4708,
      "위치": 4709,
      "시스템": 4710,
      "가능": 4711,
      "의해": 4712,
      "따라": 4713,
      "설치": 4714,
      "구비": 4715,
      "것을": 4716,
      "방법에": 4717,
      "되고": 4718,
      "으로써": 4719,
      "부를": 4720,
      "하나": 4721,
      "방향": 4722,
      "사이": 4723,
      "이스": 4724,
      "수의": 4725,
      "로부터": 4726,
      "발생": 4727,
      "회전": 4728,
      "결합": 4729,
      "기판": 4730,
      "고정": 4731,
      "구조": 4732,
      "처리": 4733,
      "20": 4734,
      "특징": 4735,
      "이동": 4736,
      "공급": 4737,
      "상의": 4738,
      "있어": 4739,
      "부재": 4740,
      "면에": 4741,
      "이루": 4742,
      "하도록": 4743,
      "하며": 4744,
      "시키는": 4745,
      "포함한다": 4746,
      "갖는": 4747,
      "사용자": 4748,
      "방지": 4749,
      "수신": 4750,
      "함으로써": 4751,
      "있도록": 4752,
      "효과": 4753,
      "지지": 4754,
      "발명에": 4755,
      "장치에": 4756,
      "따른": 4757,
      "특징으로": 4758,
      "어도": 4759,
      "발명의": 4760,
      "영역": 4761,
      "적어도": 4762,
      "이루어": 4763,
      "통해": 4764,
      "스트": 4765,
      "기를": 4766,
      "물을": 4767,
      "상태": 4768,
      "단말": 4769,
      "이를": 4770,
      "구동": 4771,
      "조성": 4772,
      "출력": 4773,
      "되며": 4774,
      "저장": 4775,
      "프로": 4776,
      "전극": 4777,
      "표시": 4778,
      "대한": 4779,
      "지는": 4780,
      "플레이": 4781,
      "성을": 4782,
      "입력": 4783,
      "각각": 4784,
      "프레": 4785,
      "정보를": 4786,
      "시간": 4787,
      "수단": 4788,
      "하면": 4789,
      "이트": 4790,
      "생성": 4791,
      "통신": 4792,
      "있어서": 4793,
      "이용하여": 4794,
      "보다": 4795,
      "선택": 4796,
      "도체": 4797,
      "형성된": 4798,
      "또한": 4799,
      "전자": 4800,
      "것으로서": 4801,
      "기의": 4802,
      "개의": 4803,
      "향상": 4804,
      "배치": 4805,
      "개시": 4806,
      "공정": 4807,
      "30": 4808,
      "전송": 4809,
      "복수의": 4810,
      "프레임": 4811,
      "부의": 4812,
      "상에": 4813,
      "디스": 4814,
      "가스": 4815,
      "회로": 4816,
      "전기": 4817,
      "제공한다": 4818,
      "시켜": 4819,
      "신호를": 4820,
      "위해": 4821,
      "시킬": 4822,
      "조성물": 4823,
      "부와": 4824,
      "이드": 4825,
      "측정": 4826,
      "들을": 4827,
      "하나의": 4828,
      "금속": 4829,
      "자동": 4830,
      "되도록": 4831,
      "차량": 4832,
      "경우": 4833,
      "소자": 4834,
      "반도체": 4835,
      "영상": 4836,
      "중량": 4837,
      "지를": 4838,
      "전압": 4839,
      "이용한": 4840,
      "폴리": 4841,
      "부분": 4842,
      "센서": 4843,
      "모듈": 4844,
      "이상의": 4845,
      "공간": 4846,
      "체의": 4847,
      "기에": 4848,
      "검출": 4849,
      "조절": 4850,
      "도를": 4851,
      "시에": 4852,
      "있으": 4853,
      "라인": 4854,
      "기능": 4855,
      "수행": 4856,
      "적인": 4857,
      "부가": 4858,
      "물질": 4859,
      "11": 4860,
      "설정": 4861,
      "혼합": 4862,
      "으로부터": 4863,
      "라이": 4864,
      "실시": 4865,
      "동작": 4866,
      "장치를": 4867,
      "방향으로": 4868,
      "분리": 4869,
      "체를": 4870,
      "제거": 4871,
      "in": 4872,
      "장치는": 4873,
      "유닛": 4874,
      "측에": 4875,
      "결정": 4876,
      "외부": 4877,
      "산화": 4878,
      "12": 4879,
      "용이": 4880,
      "단계를": 4881,
      "하게는": 4882,
      "가능한": 4883,
      "스크": 4884,
      "유지": 4885,
      "사이에": 4886,
      "내지": 4887,
      "방법은": 4888,
      "표면": 4889,
      "내부": 4890,
      "패턴": 4891,
      "있고": 4892,
      "작업": 4893,
      "제공하는": 4894,
      "이어": 4895,
      "감지": 4896,
      "삽입": 4897,
      "함유": 4898,
      "비스": 4899,
      "상세": 4900,
      "디스플레이": 4901,
      "다른": 4902,
      "수용": 4903,
      "er": 4904,
      "데이터를": 4905,
      "50": 4906,
      "력을": 4907,
      "상부": 4908,
      "장착": 4909,
      "무선": 4910,
      "패널": 4911,
      "배출": 4912,
      "므로": 4913,
      "방법을": 4914,
      "40": 4915,
      "수지": 4916,
      "서비스": 4917,
      "접속": 4918,
      "화합": 4919,
      "공기": 4920,
      "있으며": 4921,
      "효율": 4922,
      "온도": 4923,
      "상세하게는": 4924,
      "의한": 4925,
      "성이": 4926,
      "메모": 4927,
      "반응": 4928,
      "하부": 4929,
      "같은": 4930,
      "on": 4931,
      "하우": 4932,
      "거나": 4933,
      "채널": 4934,
      "대응": 4935,
      "메모리": 4936,
      "하지": 4937,
      "효과가": 4938,
      "테이": 4939,
      "전원": 4940,
      "트를": 4941,
      "전달": 4942,
      "이미": 4943,
      "포함하고": 4944,
      "가능하게": 4945,
      "스터": 4946,
      "관리": 4947,
      "내부에": 4948,
      "로서": 4949,
      "작동": 4950,
      "특히": 4951,
      "조립": 4952,
      "인터": 4953,
      "에는": 4954,
      "물의": 4955,
      "하우징": 4956,
      "본체": 4957,
      "밸브": 4958,
      "100": 4959,
      "접촉": 4960,
      "서버": 4961,
      "일정": 4962,
      "케이": 4963,
      "들의": 4964,
      "형태": 4965,
      "부착": 4966,
      "서로": 4967,
      "추출": 4968,
      "내에": 4969,
      "블록": 4970,
      "성분": 4971,
      "모터": 4972,
      "이에": 4973,
      "발광": 4974,
      "수를": 4975,
      "냉각": 4976,
      "드를": 4977,
      "소정": 4978,
      "성형": 4979,
      "동시에": 4980,
      "변환": 4981,
      "베이스": 4982,
      "필터": 4983,
      "형성하는": 4984,
      "다수의": 4985,
      "이루어진": 4986,
      "입자": 4987,
      "층을": 4988,
      "그리": 4989,
      "우수": 4990,
      "따라서": 4991,
      "장치의": 4992,
      "이송": 4993,
      "게이트": 4994,
      "실시예": 4995,
      "네트": 4996,
      "포함하여": 4997,
      "단계와": 4998,
      "ti": 4999,
      "필름": 5000,
      "이상": 5001,
      "활성": 5002,
      "안정": 5003,
      "워크": 5004,
      "유기": 5005,
      "전류": 5006,
      "이고": 5007,
      "가지": 5008,
      "필요": 5009,
      "따르": 5010,
      "과정": 5011,
      "전지": 5012,
      "절연": 5013,
      "이러": 5014,
      "더욱": 5015,
      "커버": 5016,
      "보호": 5017,
      "기초": 5018,
      "형성되는": 5019,
      "제를": 5020,
      "화학": 5021,
      "주파": 5022,
      "중합": 5023,
      "개선": 5024,
      "하면서": 5025,
      "트의": 5026,
      "있게": 5027,
      "연료": 5028,
      "감소": 5029,
      "가열": 5030,
      "목적": 5031,
      "등의": 5032,
      "전력": 5033,
      "대해": 5034,
      "면서": 5035,
      "압축": 5036,
      "네트워크": 5037,
      "따르면": 5038,
      "바이스": 5039,
      "기술": 5040,
      "그리고": 5041,
      "방식": 5042,
      "유입": 5043,
      "디바이스": 5044,
      "재료": 5045,
      "연장": 5046,
      "상을": 5047,
      "가공": 5048,
      "체에": 5049,
      "가이드": 5050,
      "기준": 5051,
      "생산": 5052,
      "코팅": 5053,
      "위하여": 5054,
      "섬유": 5055,
      "실리": 5056,
      "트랜": 5057,
      "나타": 5058,
      "에서의": 5059,
      "송신": 5060,
      "시킨": 5061,
      "시스템에": 5062,
      "케이스": 5063,
      "으로서": 5064,
      "화합물": 5065,
      "개시된다": 5066,
      "건조": 5067,
      "수직": 5068,
      "치료": 5069,
      "이나": 5070,
      "차단": 5071,
      "위에": 5072,
      "들이": 5073,
      "en": 5074,
      "자의": 5075,
      "복수": 5076,
      "단말기": 5077,
      "제조방법에": 5078,
      "면을": 5079,
      "아니": 5080,
      "모드": 5081,
      "롤러": 5082,
      "소화": 5083,
      "플라": 5084,
      "각각의": 5085,
      "웨이": 5086,
      "14": 5087,
      "변화": 5088,
      "가지는": 5089,
      "접착": 5090,
      "량을": 5091,
      "적용": 5092,
      "제품": 5093,
      "교환": 5094,
      "크로": 5095,
      "13": 5096,
      "다양": 5097,
      "이러한": 5098,
      "제공된다": 5099,
      "효과를": 5100,
      "챔버": 5101,
      "설치되는": 5102,
      "시키고": 5103,
      "00": 5104,
      "구성된": 5105,
      "돌출": 5106,
      "환경": 5107,
      "에게": 5108,
      "휴대": 5109,
      "도어": 5110,
      "통하여": 5111,
      "형성되어": 5112,
      "기록": 5113,
      "메시": 5114,
      "다이": 5115,
      "특정": 5116,
      "요소": 5117,
      "없이": 5118,
      "시트": 5119,
      "15": 5120,
      "al": 5121,
      "막을": 5122,
      "의하면": 5123,
      "디오": 5124,
      "의하여": 5125,
      "체결": 5126,
      "프트": 5127,
      "방지할": 5128,
      "길이": 5129,
      "결과": 5130,
      "전체": 5131,
      "내의": 5132,
      "스를": 5133,
      "이온": 5134,
      "or": 5135,
      "것이": 5136,
      "압력": 5137,
      "충전": 5138,
      "반사": 5139,
      "기반": 5140,
      "점이": 5141,
      "단에": 5142,
      "텐츠": 5143,
      "거리": 5144,
      "세포": 5145,
      "이미지": 5146,
      "아니라": 5147,
      "an": 5148,
      "지스터": 5149,
      "파일": 5150,
      "부는": 5151,
      "그램": 5152,
      "액정": 5153,
      "되지": 5154,
      "다양한": 5155,
      "탄소": 5156,
      "에너": 5157,
      "안전": 5158,
      "억제": 5159,
      "중심": 5160,
      "포함하며": 5161,
      "관련": 5162,
      "터리": 5163,
      "분석": 5164,
      "파이": 5165,
      "이하": 5166,
      "22": 5167,
      "인쇄": 5168,
      "몸체": 5169,
      "도로": 5170,
      "사용자의": 5171,
      "플레이트": 5172,
      "설치된": 5173,
      "기능을": 5174,
      "판단": 5175,
      "확인": 5176,
      "증가": 5177,
      "구조를": 5178,
      "프로세": 5179,
      "대상": 5180,
      "않고": 5181,
      "방법이": 5182,
      "분사": 5183,
      "분자": 5184,
      "스위치": 5185,
      "도의": 5186,
      "링크": 5187,
      "용이하게": 5188,
      "마이": 5189,
      "이루어지는": 5190,
      "설치되어": 5191,
      "해당": 5192,
      "스테": 5193,
      "제작": 5194,
      "장치가": 5195,
      "동일": 5196,
      "나노": 5197,
      "기가": 5198,
      "적층": 5199,
      "ing": 5200,
      "헤드": 5201,
      "높은": 5202,
      "re": 5203,
      "자동차": 5204,
      "16": 5205,
      "시키기": 5206,
      "엔진": 5207,
      "실리콘": 5208,
      "유리": 5209,
      "향상시킬": 5210,
      "탄성": 5211,
      "제어하는": 5212,
      "에어": 5213,
      "메인": 5214,
      "함께": 5215,
      "개구": 5216,
      "디지": 5217,
      "종래": 5218,
      "되게": 5219,
      "우수한": 5220,
      "하다": 5221,
      "도전": 5222,
      "이의": 5223,
      "값을": 5224,
      "실시예에": 5225,
      "실린": 5226,
      "at": 5227,
      "프로그램": 5228,
      "진동": 5229,
      "인가": 5230,
      "배터리": 5231,
      "단자": 5232,
      "부품": 5233,
      "요청": 5234,
      "바닥": 5235,
      "화된": 5236,
      "조정": 5237,
      "웨이퍼": 5238,
      "사용하여": 5239,
      "컴퓨": 5240,
      "기구": 5241,
      "비교": 5242,
      "200": 5243,
      "발생하는": 5244,
      "차량의": 5245,
      "측면": 5246,
      "사이의": 5247,
      "수평": 5248,
      "실린더": 5249,
      "렌즈": 5250,
      "복합": 5251,
      "개폐": 5252,
      "기어": 5253,
      "분말": 5254,
      "단위": 5255,
      "간격": 5256,
      "구비한": 5257,
      "대하여": 5258,
      "도가": 5259,
      "펌프": 5260,
      "지의": 5261,
      "페이스": 5262,
      "주파수": 5263,
      "형상": 5264,
      "탱크": 5265,
      "들은": 5266,
      "메라": 5267,
      "관통": 5268,
      "저항": 5269,
      "용기": 5270,
      "식별": 5271,
      "수소": 5272,
      "드레": 5273,
      "le": 5274,
      "중앙": 5275,
      "트랜지스터": 5276,
      "촉매": 5277,
      "상부에": 5278,
      "동안": 5279,
      "함에": 5280,
      "카메라": 5281,
      "첨가": 5282,
      "유도": 5283,
      "코일": 5284,
      "드의": 5285,
      "경로": 5286,
      "조작": 5287,
      "액을": 5288,
      "마련": 5289,
      "재생": 5290,
      "간의": 5291,
      "주입": 5292,
      "정확": 5293,
      "기초하여": 5294,
      "터를": 5295,
      "제조하는": 5296,
      "스프": 5297,
      "들에": 5298,
      "뿐만": 5299,
      "시킴": 5300,
      "알킬": 5301,
      "표면에": 5302,
      "인식": 5303,
      "파이프": 5304,
      "흡수": 5305,
      "ic": 5306,
      "튜브": 5307,
      "통과": 5308,
      "했다": 5309,
      "나타내": 5310,
      "서브": 5311,
      "구현": 5312,
      "측으로": 5313,
      "형성되고": 5314,
      "°C": 5315,
      "생성하는": 5316,
      "디지털": 5317,
      "구비하는": 5318,
      "연결된": 5319,
      "21": 5320,
      "리어": 5321,
      "에서는": 5322,
      "일체": 5323,
      "운동": 5324,
      "두께": 5325,
      "노즐": 5326,
      "개방": 5327,
      "화학식": 5328,
      "사용자가": 5329,
      "하거나": 5330,
      "합성": 5331,
      "보조": 5332,
      "작용": 5333,
      "터치": 5334,
      "조성물에": 5335,
      "연속": 5336,
      "테나": 5337,
      "기는": 5338,
      "획득": 5339,
      "유동": 5340,
      "하되": 5341,
      "ro": 5342,
      "성능": 5343,
      "광학": 5344,
      "안테나": 5345,
      "소정의": 5346,
      "페이": 5347,
      "디스크": 5348,
      "함유하는": 5349,
      "대응하는": 5350,
      "레이저": 5351,
      "60": 5352,
      "시스템은": 5353,
      "최소화": 5354,
      "설정된": 5355,
      "검사": 5356,
      "연결되는": 5357,
      "방사": 5358,
      "변경": 5359,
      "전도": 5360,
      "트리": 5361,
      "들어": 5362,
      "제3": 5363,
      "조건": 5364,
      "점을": 5365,
      "구체": 5366,
      "안내": 5367,
      "자가": 5368,
      "구비된": 5369,
      "광고": 5370,
      "되면": 5371,
      "레벨": 5372,
      "기판의": 5373,
      "등을": 5374,
      "절단": 5375,
      "경화": 5376,
      "ar": 5377,
      "경사": 5378,
      "가진": 5379,
      "절감": 5380,
      "연결되어": 5381,
      "이루어지": 5382,
      "램프": 5383,
      "기존": 5384,
      "컴퓨터": 5385,
      "신호에": 5386,
      "tion": 5387,
      "구성되는": 5388,
      "문에": 5389,
      "배기": 5390,
      "비용": 5391,
      "마스크": 5392,
      "노출": 5393,
      "흡입": 5394,
      "기지": 5395,
      "상태를": 5396,
      "코어": 5397,
      "포함할": 5398,
      "그룹": 5399,
      "부재를": 5400,
      "로드": 5401,
      "st": 5402,
      "추가": 5403,
      "재를": 5404,
      "사용되는": 5405,
      "상호": 5406,
      "와이어": 5407,
      "문제": 5408,
      "형의": 5409,
      "해결": 5410,
      "실행": 5411,
      "패드": 5412,
      "배선": 5413,
      "수신하는": 5414,
      "ac": 5415,
      "진공": 5416,
      "물에": 5417,
      "가압": 5418,
      "쌍의": 5419,
      "접합": 5420,
      "스프링": 5421,
      "분산": 5422,
      "범위": 5423,
      "ED": 5424,
      "기와": 5425,
      "영역을": 5426,
      "않는": 5427,
      "배열": 5428,
      "플라즈": 5429,
      "노드": 5430,
      "투명": 5431,
      "소스": 5432,
      "상태에서": 5433,
      "용접": 5434,
      "기계": 5435,
      "멀티": 5436,
      "어느": 5437,
      "물이": 5438,
      "조명": 5439,
      "층의": 5440,
      "간단": 5441,
      "호화": 5442,
      "상태로": 5443,
      "유체": 5444,
      "플라즈마": 5445,
      "응답": 5446,
      "110": 5447,
      "음성": 5448,
      "까지": 5449,
      "트에": 5450,
      "투입": 5451,
      "분해": 5452,
      "태양": 5453,
      "조사": 5454,
      "받아": 5455,
      "제공할": 5456,
      "변형": 5457,
      "리드": 5458,
      "결합되는": 5459,
      "18": 5460,
      "에너지": 5461,
      "마이크로": 5462,
      "활용": 5463,
      "때문에": 5464,
      "수단을": 5465,
      "예방": 5466,
      "배치되는": 5467,
      "크리": 5468,
      "하므로": 5469,
      "전환": 5470,
      "이와": 5471,
      "번호": 5472,
      "판의": 5473,
      "출력하는": 5474,
      "현재": 5475,
      "전압을": 5476,
      "수가": 5477,
      "오일": 5478,
      "물질을": 5479,
      "도포": 5480,
      "모니": 5481,
      "사용할": 5482,
      "수납": 5483,
      "다음": 5484,
      "검색": 5485,
      "피스": 5486,
      "자기": 5487,
      "시스템을": 5488,
      "기지국": 5489,
      "개시한다": 5490,
      "공급하는": 5491,
      "방송": 5492,
      "프리": 5493,
      "이격": 5494,
      "코드": 5495,
      "코딩": 5496,
      "LED": 5497,
      "비트": 5498,
      "수행하는": 5499,
      "구멍": 5500,
      "인터페이스": 5501,
      "전송하는": 5502,
      "함과": 5503,
      "단부": 5504,
      "케이블": 5505,
      "유로": 5506,
      "미세": 5507,
      "인접": 5508,
      "위치를": 5509,
      "세척": 5510,
      "공정을": 5511,
      "외선": 5512,
      "영역에": 5513,
      "리를": 5514,
      "균일": 5515,
      "플리": 5516,
      "일측": 5517,
      "미리": 5518,
      "화소": 5519,
      "레일": 5520,
      "위치에": 5521,
      "선택된": 5522,
      "다수": 5523,
      "신호의": 5524,
      "오프": 5525,
      "자를": 5526,
      "상하": 5527,
      "토출": 5528,
      "ol": 5529,
      "내에서": 5530,
      "주행": 5531,
      "상이": 5532,
      "선택적으로": 5533,
      "가능하도록": 5534,
      "촬영": 5535,
      "it": 5536,
      "존재": 5537,
      "유용": 5538,
      "보강": 5539,
      "분할": 5540,
      "중합체": 5541,
      "여부를": 5542,
      "배치된": 5543,
      "특성을": 5544,
      "구를": 5545,
      "산출": 5546,
      "직접": 5547,
      "그래": 5548,
      "소자의": 5549,
      "시간을": 5550,
      "어링": 5551,
      "인터넷": 5552,
      "전화": 5553,
      "유효": 5554,
      "영상을": 5555,
      "경우에": 5556,
      "대역": 5557,
      "2차": 5558,
      "바람": 5559,
      "이며": 5560,
      "다중": 5561,
      "박막": 5562,
      "터의": 5563,
      "판을": 5564,
      "오염": 5565,
      "그의": 5566,
      "속도": 5567,
      "시스템의": 5568,
      "조성물을": 5569,
      "방출": 5570,
      "충격": 5571,
      "PC": 5572,
      "바이": 5573,
      "원하는": 5574,
      "인증": 5575,
      "순환": 5576,
      "화상": 5577,
      "브레이": 5578,
      "중간": 5579,
      "중에": 5580,
      "동기": 5581,
      "전방": 5582,
      "주변": 5583,
      "케이션": 5584,
      "품질": 5585,
      "25": 5586,
      "구성된다": 5587,
      "필요한": 5588,
      "24": 5589,
      "일측에": 5590,
      "가스를": 5591,
      "저장된": 5592,
      "사용하는": 5593,
      "바디": 5594,
      "패턴을": 5595,
      "형성하고": 5596,
      "형태로": 5597,
      "열교환": 5598,
      "단부에": 5599,
      "증착": 5600,
      "아이": 5601,
      "세스": 5602,
      "하부에": 5603,
      "쉽게": 5604,
      "외주": 5605,
      "광원": 5606,
      "기판을": 5607,
      "주는": 5608,
      "발생되는": 5609,
      "연소": 5610,
      "일반": 5611,
      "정보에": 5612,
      "기재": 5613,
      "콘크리": 5614,
      "스위": 5615,
      "시공": 5616,
      "예측": 5617,
      "카드": 5618,
      "이는": 5619,
      "계산": 5620,
      "가변": 5621,
      "70": 5622,
      "32": 5623,
      "특성": 5624,
      "de": 5625,
      "라이트": 5626,
      "기로": 5627,
      "부로": 5628,
      "포함된": 5629,
      "증폭": 5630,
      "알루": 5631,
      "세정": 5632,
      "패킷": 5633,
      "같이": 5634,
      "패시": 5635,
      "동일한": 5636,
      "포장": 5637,
      "내측": 5638,
      "보정": 5639,
      "신뢰": 5640,
      "시킴으로써": 5641,
      "움직": 5642,
      "플리케이션": 5643,
      "치환": 5644,
      "효율을": 5645,
      "스크린": 5646,
      "방전": 5647,
      "갖는다": 5648,
      "내용": 5649,
      "하였": 5650,
      "가장": 5651,
      "패키": 5652,
      "공간을": 5653,
      "구비한다": 5654,
      "se": 5655,
      "120": 5656,
      "발전": 5657,
      "화를": 5658,
      "전해": 5659,
      "후방": 5660,
      "테스트": 5661,
      "컨텐츠": 5662,
      "스위칭": 5663,
      "커넥": 5664,
      "복수개의": 5665,
      "세탁": 5666,
      "효과적으로": 5667,
      "구체적으로": 5668,
      "모니터": 5669,
      "안착": 5670,
      "방향을": 5671,
      "비디오": 5672,
      "슬라이": 5673,
      "명령": 5674,
      "고분자": 5675,
      "내장": 5676,
      "게임": 5677,
      "아크": 5678,
      "알루미": 5679,
      "원료": 5680,
      "고무": 5681,
      "스마": 5682,
      "상대": 5683,
      "나사": 5684,
      "운전": 5685,
      "구조에": 5686,
      "구비하고": 5687,
      "부하": 5688,
      "지에": 5689,
      "신속": 5690,
      "있을": 5691,
      "아미": 5692,
      "단백": 5693,
      "화장": 5694,
      "전기적으로": 5695,
      "브라": 5696,
      "외측": 5697,
      "라미": 5698,
      "확보": 5699,
      "부재의": 5700,
      "체가": 5701,
      "공기를": 5702,
      "식물": 5703,
      "식각": 5704,
      "형성되며": 5705,
      "여기": 5706,
      "면의": 5707,
      "제조된": 5708,
      "조합": 5709,
      "편리": 5710,
      "형태의": 5711,
      "으며": 5712,
      "하고자": 5713,
      "광을": 5714,
      "스의": 5715,
      "사이드": 5716,
      "진행": 5717,
      "회동": 5718,
      "수집": 5719,
      "산소": 5720,
      "형상의": 5721,
      "부위": 5722,
      "량의": 5723,
      "단이": 5724,
      "배관": 5725,
      "단백질": 5726,
      "외부로": 5727,
      "프로세서": 5728,
      "보관": 5729,
      "피스톤": 5730,
      "et": 5731,
      "셈블": 5732,
      "31": 5733,
      "인한": 5734,
      "장비": 5735,
      "피부": 5736,
      "자원": 5737,
      "어셈블": 5738,
      "동작을": 5739,
      "테이블": 5740,
      "고리": 5741,
      "간편": 5742,
      "요구": 5743,
      "자동으로": 5744,
      "할당": 5745,
      "울러": 5746,
      "장치와": 5747,
      "질환": 5748,
      "드라이": 5749,
      "열을": 5750,
      "스마트": 5751,
      "1차": 5752,
      "대로": 5753,
      "투과": 5754,
      "부에서": 5755,
      "바람직": 5756,
      "냉매": 5757,
      "재의": 5758,
      "레인": 5759,
      "연마": 5760,
      "로운": 5761,
      "플러": 5762,
      "조성물은": 5763,
      "콘텐츠": 5764,
      "si": 5765,
      "저장하는": 5766,
      "별도의": 5767,
      "ID": 5768,
      "등록": 5769,
      "폴리에": 5770,
      "상에서": 5771,
      "el": 5772,
      "상품": 5773,
      "량이": 5774,
      "회전축": 5775,
      "상승": 5776,
      "통로": 5777,
      "2개의": 5778,
      "면적": 5779,
      "임의": 5780,
      "힌지": 5781,
      "틸렌": 5782,
      "저감": 5783,
      "Si": 5784,
      "관계": 5785,
      "어레이": 5786,
      "시스템에서": 5787,
      "시킨다": 5788,
      "화합물을": 5789,
      "선을": 5790,
      "브레이크": 5791,
      "컨트": 5792,
      "하는데": 5793,
      "구비되는": 5794,
      "과의": 5795,
      "300": 5796,
      "제조방법": 5797,
      "다이오": 5798,
      "액체": 5799,
      "모델": 5800,
      "변속": 5801,
      "유압": 5802,
      "후에": 5803,
      "인트": 5804,
      "여과": 5805,
      "승강": 5806,
      "줄일": 5807,
      "이동통신": 5808,
      "지지하는": 5809,
      "산화물": 5810,
      "것에": 5811,
      "대향": 5812,
      "진단": 5813,
      "기간": 5814,
      "제한": 5815,
      "실시간": 5816,
      "콘크리트": 5817,
      "도에": 5818,
      "스트림": 5819,
      "본체의": 5820,
      "나타내는": 5821,
      "캐리어": 5822,
      "각종": 5823,
      "매우": 5824,
      "홀더": 5825,
      "리는": 5826,
      "받침": 5827,
      "포트": 5828,
      "물론": 5829,
      "지연": 5830,
      "높이": 5831,
      "가지며": 5832,
      "발효": 5833,
      "인해": 5834,
      "가상": 5835,
      "흡착": 5836,
      "과제": 5837,
      "식품": 5838,
      "었다": 5839,
      "프레임의": 5840,
      "스테르": 5841,
      "80": 5842,
      "서비스를": 5843,
      "도금": 5844,
      "등에": 5845,
      "스토": 5846,
      "달성": 5847,
      "금형": 5848,
      "23": 5849,
      "실내": 5850,
      "정렬": 5851,
      "베어링": 5852,
      "디어": 5853,
      "들과": 5854,
      "설비": 5855,
      "연산": 5856,
      "소음": 5857,
      "목적으로": 5858,
      "기존의": 5859,
      "최적": 5860,
      "치를": 5861,
      "갖고": 5862,
      "ation": 5863,
      "메시지를": 5864,
      "비닐": 5865,
      "밀착": 5866,
      "구간": 5867,
      "샤프트": 5868,
      "층과": 5869,
      "관을": 5870,
      "전에": 5871,
      "클로": 5872,
      "종래의": 5873,
      "공급되는": 5874,
      "알루미늄": 5875,
      "용융": 5876,
      "효율적으로": 5877,
      "ed": 5878,
      "결합되어": 5879,
      "설치되고": 5880,
      "소비": 5881,
      "오디오": 5882,
      "전극을": 5883,
      "새로운": 5884,
      "면과": 5885,
      "확산": 5886,
      "수신된": 5887,
      "증대": 5888,
      "차원": 5889,
      "용매": 5890,
      "결합된": 5891,
      "반복": 5892,
      "스테이": 5893,
      "방식으로": 5894,
      "타이어": 5895,
      "RF": 5896,
      "함을": 5897,
      "차량용": 5898,
      "관의": 5899,
      "낮은": 5900,
      "중에서": 5901,
      "음파": 5902,
      "세라": 5903,
      "적합": 5904,
      "로의": 5905,
      "연결하는": 5906,
      "미디어": 5907,
      "아크릴": 5908,
      "율을": 5909,
      "슬러": 5910,
      "시험": 5911,
      "형성하여": 5912,
      "해서": 5913,
      "중공": 5914,
      "레이트": 5915,
      "않은": 5916,
      "슬라": 5917,
      "않도록": 5918,
      "기판에": 5919,
      "타입": 5920,
      "메시지": 5921,
      "웨어": 5922,
      "원격": 5923,
      "클러": 5924,
      "설계": 5925,
      "얻을": 5926,
      "합금": 5927,
      "부분을": 5928,
      "CH": 5929,
      "모듈을": 5930,
      "관련된": 5931,
      "전원을": 5932,
      "이중": 5933,
      "초기": 5934,
      "타이": 5935,
      "원자": 5936,
      "세트": 5937,
      "잉크": 5938,
      "프린": 5939,
      "로봇": 5940,
      "학적": 5941,
      "아울러": 5942,
      "좌우": 5943,
      "전면": 5944,
      "리브": 5945,
      "밀봉": 5946,
      "데이터의": 5947,
      "어드레": 5948,
      "세라믹": 5949,
      "부로부터": 5950,
      "생성된": 5951,
      "정의": 5952,
      "화면": 5953,
      "CD": 5954,
      "됨으로써": 5955,
      "단일": 5956,
      "일정한": 5957,
      "온도를": 5958,
      "액세스": 5959,
      "부재와": 5960,
      "기기": 5961,
      "결정하는": 5962,
      "영역의": 5963,
      "원통": 5964,
      "구성되어": 5965,
      "증발": 5966,
      "17": 5967,
      "허용": 5968,
      "학습": 5969,
      "용액": 5970,
      "걸림": 5971,
      "끼워": 5972,
      "분쇄": 5973,
      "가지고": 5974,
      "예를": 5975,
      "위치하는": 5976,
      "차를": 5977,
      "샘플": 5978,
      "일체로": 5979,
      "장점이": 5980,
      "여러": 5981,
      "단말기의": 5982,
      "패널의": 5983,
      "사용될": 5984,
      "펄스": 5985,
      "상황": 5986,
      "단축": 5987,
      "슬라이딩": 5988,
      "해제": 5989,
      "회수": 5990,
      "력이": 5991,
      "고온": 5992,
      "에이터": 5993,
      "버퍼": 5994,
      "어진": 5995,
      "평균": 5996,
      "보안": 5997,
      "스틱": 5998,
      "측면에": 5999,
      "위상": 6000,
      "소성": 6001,
      "성분으로": 6002,
      "대화": 6003,
      "확장": 6004,
      "모바": 6005,
      "질의": 6006,
      "플랜": 6007,
      "터에": 6008,
      "드럼": 6009,
      "모바일": 6010,
      "레버": 6011,
      "ch": 6012,
      "연통": 6013,
      "보드": 6014,
      "있으므로": 6015,
      "전도성": 6016,
      "움직임": 6017,
      "스케": 6018,
      "구조의": 6019,
      "구성하는": 6020,
      "배치되어": 6021,
      "리튬": 6022,
      "박스": 6023,
      "레지": 6024,
      "여기서": 6025,
      "통한": 6026,
      "포토": 6027,
      "로그": 6028,
      "체와": 6029,
      "추정": 6030,
      "독립": 6031,
      "개인": 6032,
      "DC": 6033,
      "내부의": 6034,
      "구비되어": 6035,
      "이루어진다": 6036,
      "정지": 6037,
      "흐름": 6038,
      "시키도록": 6039,
      "제어부를": 6040,
      "파라미": 6041,
      "발열": 6042,
      "냉장": 6043,
      "라도": 6044,
      "회로를": 6045,
      "가로": 6046,
      "다공": 6047,
      "26": 6048,
      "지지대": 6049,
      "단순": 6050,
      "되면서": 6051,
      "신규": 6052,
      "수분": 6053,
      "파장": 6054,
      "전력을": 6055,
      "음극": 6056,
      "저하": 6057,
      "픽셀": 6058,
      "콘택": 6059,
      "유전자": 6060,
      "반송": 6061,
      "없는": 6062,
      "순차": 6063,
      "되므로": 6064,
      "설치되며": 6065,
      "브라켓": 6066,
      "장애": 6067,
      "마그": 6068,
      "이로": 6069,
      "테이프": 6070,
      "스티": 6071,
      "자석": 6072,
      "팽창": 6073,
      "먼트": 6074,
      "밀폐": 6075,
      "ce": 6076,
      "선형": 6077,
      "구조물": 6078,
      "로우": 6079,
      "연결되고": 6080,
      "탄화": 6081,
      "일부": 6082,
      "제공하기": 6083,
      "크게": 6084,
      "제거하는": 6085,
      "다운": 6086,
      "정상": 6087,
      "모니터링": 6088,
      "제어부": 6089,
      "IP": 6090,
      "보상": 6091,
      "90": 6092,
      "레지스트": 6093,
      "제의": 6094,
      "매트": 6095,
      "드레인": 6096,
      "면이": 6097,
      "가동": 6098,
      "폴리머": 6099,
      "동력": 6100,
      "지역": 6101,
      "목적이": 6102,
      "절연막": 6103,
      "배수": 6104,
      "수행할": 6105,
      "초음파": 6106,
      "소자를": 6107,
      "클라이": 6108,
      "문자": 6109,
      "활성화": 6110,
      "손잡": 6111,
      "층이": 6112,
      "mm": 6113,
      "통합": 6114,
      "청소": 6115,
      "적외선": 6116,
      "강도": 6117,
      "형상으로": 6118,
      "무기": 6119,
      "다이오드": 6120,
      "리에": 6121,
      "표시하는": 6122,
      "연동": 6123,
      "고속": 6124,
      "내부로": 6125,
      "유닛을": 6126,
      "하이": 6127,
      "와의": 6128,
      "사고": 6129,
      "수도": 6130,
      "둘레": 6131,
      "마찰": 6132,
      "기에서": 6133,
      "가능하다": 6134,
      "ra": 6135,
      "네이트": 6136,
      "받는": 6137,
      "수성": 6138,
      "검출하는": 6139,
      "신호가": 6140,
      "모두": 6141,
      "수단과": 6142,
      "처리하는": 6143,
      "별로": 6144,
      "ent": 6145,
      "대응되는": 6146,
      "성장": 6147,
      "ul": 6148,
      "형광": 6149,
      "부분에": 6150,
      "평가": 6151,
      "전류를": 6152,
      "NA": 6153,
      "모든": 6154,
      "체는": 6155,
      "배치되고": 6156,
      "속도를": 6157,
      "데이터베이스": 6158,
      "중량부": 6159,
      "적재": 6160,
      "과정에서": 6161,
      "130": 6162,
      "이미지를": 6163,
      "물리": 6164,
      "선박": 6165,
      "메틸": 6166,
      "목적은": 6167,
      "클라이언": 6168,
      "간섭": 6169,
      "종류": 6170,
      "제품의": 6171,
      "거치": 6172,
      "판에": 6173,
      "포함한": 6174,
      "주기": 6175,
      "개시된": 6176,
      "대기": 6177,
      "실을": 6178,
      "양측": 6179,
      "성능을": 6180,
      "변조": 6181,
      "휴대용": 6182,
      "소재": 6183,
      "로부터의": 6184,
      "직경": 6185,
      "거래": 6186,
      "작은": 6187,
      "버튼": 6188,
      "측정하는": 6189,
      "배양": 6190,
      "오버": 6191,
      "ss": 6192,
      "형성한": 6193,
      "그에": 6194,
      "조리": 6195,
      "조직": 6196,
      "중의": 6197,
      "볼트": 6198,
      "사람": 6199,
      "상단": 6200,
      "생물": 6201,
      "부여": 6202,
      "전극과": 6203,
      "처리를": 6204,
      "판과": 6205,
      "구성을": 6206,
      "천연": 6207,
      "3차원": 6208,
      "사이에서": 6209,
      "PS": 6210,
      "센싱": 6211,
      "발현": 6212,
      "결제": 6213,
      "교반": 6214,
      "트레이": 6215,
      "편의": 6216,
      "데이": 6217,
      "도전성": 6218,
      "다시": 6219,
      "의해서": 6220,
      "질화": 6221,
      "정된": 6222,
      "방지하는": 6223,
      "편광": 6224,
      "덮개": 6225,
      "단열": 6226,
      "방열": 6227,
      "스피": 6228,
      "고정되는": 6229,
      "운전자": 6230,
      "다수개의": 6231,
      "향을": 6232,
      "리지": 6233,
      "프레임을": 6234,
      "높일": 6235,
      "운영": 6236,
      "입구": 6237,
      "di": 6238,
      "파워": 6239,
      "ri": 6240,
      "플렉": 6241,
      "분배": 6242,
      "층에": 6243,
      "유전체": 6244,
      "양극": 6245,
      "형으로": 6246,
      "고압": 6247,
      "비용을": 6248,
      "이차": 6249,
      "유출": 6250,
      "클럭": 6251,
      "평면": 6252,
      "ter": 6253,
      "고객": 6254,
      "료를": 6255,
      "자연": 6256,
      "공통": 6257,
      "라우": 6258,
      "송수신": 6259,
      "OS": 6260,
      "감시": 6261,
      "커넥터": 6262,
      "잠금": 6263,
      "측벽": 6264,
      "벨트": 6265,
      "그를": 6266,
      "lo": 6267,
      "티브": 6268,
      "액정표시": 6269,
      "상면에": 6270,
      "불순": 6271,
      "센서를": 6272,
      "도우": 6273,
      "la": 6274,
      "표시되는": 6275,
      "프레임에": 6276,
      "최대": 6277,
      "준비": 6278,
      "커패시": 6279,
      "성분을": 6280,
      "용해": 6281,
      "아미노": 6282,
      "표면을": 6283,
      "34": 6284,
      "용량": 6285,
      "II": 6286,
      "유도체": 6287,
      "인출": 6288,
      "제로": 6289,
      "19": 6290,
      "플라스틱": 6291,
      "지방": 6292,
      "질소": 6293,
      "정밀": 6294,
      "과정을": 6295,
      "현상을": 6296,
      "점착": 6297,
      "정확하게": 6298,
      "자유": 6299,
      "물품": 6300,
      "설치하여": 6301,
      "우레": 6302,
      "반대": 6303,
      "판독": 6304,
      "많은": 6305,
      "유니": 6306,
      "하이드": 6307,
      "공유": 6308,
      "모터의": 6309,
      "시스템이": 6310,
      "감싸": 6311,
      "버스": 6312,
      "경제": 6313,
      "각도": 6314,
      "형상을": 6315,
      "작업을": 6316,
      "혹은": 6317,
      "지시": 6318,
      "컬러": 6319,
      "최소": 6320,
      "자동차의": 6321,
      "혼합하여": 6322,
      "내측에": 6323,
      "통화": 6324,
      "Al": 6325,
      "정보와": 6326,
      "하단": 6327,
      "구비하여": 6328,
      "수명": 6329,
      "건강": 6330,
      "이용하는": 6331,
      "워드": 6332,
      "카르": 6333,
      "제조방법을": 6334,
      "구조로": 6335,
      "부재에": 6336,
      "어드레스": 6337,
      "발생을": 6338,
      "장착되는": 6339,
      "형성한다": 6340,
      "부호화": 6341,
      "강화": 6342,
      "충돌": 6343,
      "하드": 6344,
      "폐쇄": 6345,
      "생체": 6346,
      "공간에": 6347,
      "35": 6348,
      "기능성": 6349,
      "방법으로": 6350,
      "구매": 6351,
      "co": 6352,
      "타겟": 6353,
      "그러": 6354,
      "기반으로": 6355,
      "가입자": 6356,
      "절곡": 6357,
      "더라도": 6358,
      "르게": 6359,
      "제조할": 6360,
      "층은": 6361,
      "충진": 6362,
      "형성된다": 6363,
      "살균": 6364,
      "AC": 6365,
      "기판과": 6366,
      "상이한": 6367,
      "비를": 6368,
      "충분": 6369,
      "블럭": 6370,
      "주사": 6371,
      "에이": 6372,
      "고안": 6373,
      "루프": 6374,
      "소형": 6375,
      "정보가": 6376,
      "체인": 6377,
      "완전": 6378,
      "적절": 6379,
      "유입되는": 6380,
      "하우징의": 6381,
      "만을": 6382,
      "개별": 6383,
      "판단하는": 6384,
      "만족": 6385,
      "성과": 6386,
      "되거나": 6387,
      "하나를": 6388,
      "막의": 6389,
      "폐기": 6390,
      "난방": 6391,
      "교체": 6392,
      "착용": 6393,
      "단계에서": 6394,
      "감지하는": 6395,
      "수에": 6396,
      "블레이": 6397,
      "상기와": 6398,
      "정화": 6399,
      "자신": 6400,
      "장착된": 6401,
      "방향의": 6402,
      "42": 6403,
      "버터": 6404,
      "히터": 6405,
      "되되": 6406,
      "두고": 6407,
      "고체": 6408,
      "되었": 6409,
      "완료": 6410,
      "원활": 6411,
      "집적": 6412,
      "전동": 6413,
      "연관": 6414,
      "발포": 6415,
      "함으로서": 6416,
      "em": 6417,
      "해진": 6418,
      "제공되는": 6419,
      "하강": 6420,
      "간격을": 6421,
      "애플리케이션": 6422,
      "송풍": 6423,
      "촉진": 6424,
      "th": 6425,
      "평행": 6426,
      "판매": 6427,
      "데이터에": 6428,
      "가장자": 6429,
      "순차적으로": 6430,
      "응축": 6431,
      "스트립": 6432,
      "포함하되": 6433,
      "질량": 6434,
      "현상": 6435,
      "클라이언트": 6436,
      "재료를": 6437,
      "구에": 6438,
      "고장": 6439,
      "건축": 6440,
      "혼합물을": 6441,
      "슬롯": 6442,
      "접지": 6443,
      "르는": 6444,
      "밴드": 6445,
      "류를": 6446,
      "어나": 6447,
      "매체": 6448,
      "이벤": 6449,
      "이들": 6450,
      "상기한": 6451,
      "만큼": 6452,
      "기둥": 6453,
      "구가": 6454,
      "가능하고": 6455,
      "데이타": 6456,
      "전계": 6457,
      "에러": 6458,
      "이점이": 6459,
      "내로": 6460,
      "결과를": 6461,
      "소를": 6462,
      "하면서도": 6463,
      "기준으로": 6464,
      "탑재": 6465,
      "간에": 6466,
      "않아": 6467,
      "패키지": 6468,
      "교차": 6469,
      "통신을": 6470,
      "어셈블리": 6471,
      "홀을": 6472,
      "분포": 6473,
      "존재하는": 6474,
      "발명에서는": 6475,
      "il": 6476,
      "압출": 6477,
      "도입": 6478,
      "단을": 6479,
      "컨트롤러": 6480,
      "지게": 6481,
      "경로를": 6482,
      "쓰레": 6483,
      "것이며": 6484,
      "핸드": 6485,
      "이탈": 6486,
      "비율": 6487,
      "CO": 6488,
      "마다": 6489,
      "사용자에게": 6490,
      "냉장고": 6491,
      "목적을": 6492,
      "기억": 6493,
      "자외선": 6494,
      "분류": 6495,
      "공정과": 6496,
      "운반": 6497,
      "시작": 6498,
      "고유": 6499,
      "슬라이드": 6500,
      "MP": 6501,
      "질을": 6502,
      "케이싱": 6503,
      "코더": 6504,
      "뚜껑": 6505,
      "부재가": 6506,
      "엘리": 6507,
      "어지는": 6508,
      "400": 6509,
      "목표": 6510,
      "장치로": 6511,
      "구체적으로는": 6512,
      "MS": 6513,
      "베이어": 6514,
      "크기를": 6515,
      "권취": 6516,
      "결정된": 6517,
      "하였다": 6518,
      "ct": 6519,
      "입력되는": 6520,
      "에도": 6521,
      "플루": 6522,
      "모양": 6523,
      "파손": 6524,
      "정수": 6525,
      "아래": 6526,
      "자성": 6527,
      "에너지를": 6528,
      "응답하여": 6529,
      "서를": 6530,
      "지점": 6531,
      "41": 6532,
      "500": 6533,
      "필름을": 6534,
      "장치에서": 6535,
      "28": 6536,
      "채널을": 6537,
      "참조": 6538,
      "손상": 6539,
      "부착된": 6540,
      "사이클": 6541,
      "한편": 6542,
      "압연": 6543,
      "전달하는": 6544,
      "사각": 6545,
      "캐비": 6546,
      "토크": 6547,
      "력에": 6548,
      "선의": 6549,
      "감광": 6550,
      "시아": 6551,
      "돌기": 6552,
      "인지": 6553,
      "경계": 6554,
      "전기적": 6555,
      "μm": 6556,
      "상향": 6557,
      "라인을": 6558,
      "사출": 6559,
      "환원": 6560,
      "유사": 6561,
      "임계": 6562,
      "삽입되는": 6563,
      "멘트": 6564,
      "우레탄": 6565,
      "수단에": 6566,
      "단말기에": 6567,
      "방향에": 6568,
      "대의": 6569,
      "바이오": 6570,
      "제4": 6571,
      "물질의": 6572,
      "둘러": 6573,
      "실질": 6574,
      "자에": 6575,
      "피드": 6576,
      "몸체의": 6577,
      "되기": 6578,
      "에칭": 6579,
      "33": 6580,
      "스페이": 6581,
      "to": 6582,
      "Ti": 6583,
      "중계": 6584,
      "제시": 6585,
      "일부를": 6586,
      "입자를": 6587,
      "어플리케이션": 6588,
      "메타": 6589,
      "극대화": 6590,
      "라고": 6591,
      "히드": 6592,
      "저온": 6593,
      "아웃": 6594,
      "조절하는": 6595,
      "클러치": 6596,
      "적합한": 6597,
      "방지하여": 6598,
      "us": 6599,
      "조절할": 6600,
      "소프트": 6601,
      "ag": 6602,
      "착탈": 6603,
      "발생시키는": 6604,
      "개발": 6605,
      "주차": 6606,
      "가스의": 6607,
      "비교하여": 6608,
      "하향": 6609,
      "과정과": 6610,
      "기본": 6611,
      "성의": 6612,
      "간단한": 6613,
      "완충": 6614,
      "접착제": 6615,
      "um": 6616,
      "자세": 6617,
      "입력된": 6618,
      "날개": 6619,
      "하중": 6620,
      "바이러": 6621,
      "물과": 6622,
      "폭시": 6623,
      "트랜스": 6624,
      "un": 6625,
      "패스": 6626,
      "불량": 6627,
      "ur": 6628,
      "In": 6629,
      "수신하고": 6630,
      "상으로": 6631,
      "ph": 6632,
      "에서도": 6633,
      "유지할": 6634,
      "방지하고": 6635,
      "IC": 6636,
      "카운": 6637,
      "지원": 6638,
      "선별": 6639,
      "산을": 6640,
      "150": 6641,
      "다리": 6642,
      "유전": 6643,
      "매트릭": 6644,
      "시각": 6645,
      "단량": 6646,
      "비해": 6647,
      "최종": 6648,
      "구의": 6649,
      "위험": 6650,
      "ate": 6651,
      "스에": 6652,
      "플래": 6653,
      "압력을": 6654,
      "컨베이어": 6655,
      "차폐": 6656,
      "들로": 6657,
      "위를": 6658,
      "피복": 6659,
      "윈도우": 6660,
      "브러": 6661,
      "각각에": 6662,
      "레이터": 6663,
      "간편하게": 6664,
      "않으": 6665,
      "로딩": 6666,
      "레이션": 6667,
      "시키며": 6668,
      "좌표": 6669,
      "구리": 6670,
      "이루어져": 6671,
      "절삭": 6672,
      "개선된": 6673,
      "지속": 6674,
      "휘발": 6675,
      "선택되는": 6676,
      "글리": 6677,
      "아민": 6678,
      "달성하기": 6679,
      "플랜지": 6680,
      "에폭시": 6681,
      "PD": 6682,
      "축을": 6683,
      "지고": 6684,
      "배치되며": 6685,
      "제어를": 6686,
      "고정된": 6687,
      "표현": 6688,
      "설명": 6689,
      "연결되며": 6690,
      "유효성분으로": 6691,
      "판정": 6692,
      "원형": 6693,
      "열처리": 6694,
      "접근": 6695,
      "정확한": 6696,
      "1종": 6697,
      "단말의": 6698,
      "할로": 6699,
      "시설": 6700,
      "병렬": 6701,
      "압착": 6702,
      "프로브": 6703,
      "프로필": 6704,
      "중심으로": 6705,
      "향상된": 6706,
      "도모": 6707,
      "회로에": 6708,
      "개재": 6709,
      "기초로": 6710,
      "홈이": 6711,
      "출력되는": 6712,
      "안정적으로": 6713,
      "분야": 6714,
      "공을": 6715,
      "가진다": 6716,
      "구획": 6717,
      "입사": 6718,
      "독립적으로": 6719,
      "기술적": 6720,
      "ii": 6721,
      "예에": 6722,
      "정제": 6723,
      "실장": 6724,
      "위해서": 6725,
      "감을": 6726,
      "모노": 6727,
      "시간이": 6728,
      "입체": 6729,
      "추출물": 6730,
      "쪽으로": 6731,
      "이션": 6732,
      "나무": 6733,
      "문제점을": 6734,
      "결합되고": 6735,
      "스캔": 6736,
      "인쇄회로": 6737,
      "신속하게": 6738,
      "골프": 6739,
      "대에": 6740,
      "슬래": 6741,
      "영향을": 6742,
      "면역": 6743,
      "방지하기": 6744,
      "형성할": 6745,
      "크기": 6746,
      "약제": 6747,
      "올레": 6748,
      "수지를": 6749,
      "후보": 6750,
      "이산화": 6751,
      "트랙": 6752,
      "실현": 6753,
      "등과": 6754,
      "마모": 6755,
      "자에게": 6756,
      "세서": 6757,
      "간격으로": 6758,
      "배출되는": 6759,
      "벡터": 6760,
      "드는": 6761,
      "매칭": 6762,
      "장을": 6763,
      "연장되는": 6764,
      "조화": 6765,
      "am": 6766,
      "공이": 6767,
      "률을": 6768,
      "기체": 6769,
      "인접한": 6770,
      "절감할": 6771,
      "기기의": 6772,
      "nm": 6773,
      "실질적으로": 6774,
      "손잡이": 6775,
      "세그": 6776,
      "프레임과": 6777,
      "이즈": 6778,
      "직선": 6779,
      "전사": 6780,
      "임의의": 6781,
      "구분": 6782,
      "아날": 6783,
      "유용한": 6784,
      "토록": 6785,
      "발생된": 6786,
      "굴절": 6787,
      "복원": 6788,
      "일치": 6789,
      "올레핀": 6790,
      "노광": 6791,
      "포인트": 6792,
      "공중합체": 6793,
      "구역": 6794,
      "이소": 6795,
      "케이스의": 6796,
      "혼합물": 6797,
      "소모": 6798,
      "아날로그": 6799,
      "스피커": 6800,
      "거리를": 6801,
      "아릴": 6802,
      "코드를": 6803,
      "상태에": 6804,
      "다공성": 6805,
      "AP": 6806,
      "있음": 6807,
      "블록의": 6808,
      "해소": 6809,
      "태양전지": 6810,
      "영역과": 6811,
      "36": 6812,
      "공진": 6813,
      "실제": 6814,
      "분말을": 6815,
      "회로는": 6816,
      "양측에": 6817,
      "DM": 6818,
      "커플": 6819,
      "막이": 6820,
      "인장": 6821,
      "140": 6822,
      "전이": 6823,
      "경우에는": 6824,
      "둘러싸": 6825,
      "일단": 6826,
      "공기가": 6827,
      "마그네": 6828,
      "용도에": 6829,
      "테이너": 6830,
      "기계적": 6831,
      "시점": 6832,
      "이루는": 6833,
      "패널을": 6834,
      "파일을": 6835,
      "스크류": 6836,
      "록시": 6837,
      "획득하는": 6838,
      "트로": 6839,
      "id": 6840,
      "양호": 6841,
      "가소성": 6842,
      "TV": 6843,
      "제동": 6844,
      "오목": 6845,
      "전극의": 6846,
      "견고": 6847,
      "마주": 6848,
      "전후": 6849,
      "휴대폰": 6850,
      "망을": 6851,
      "모듈의": 6852,
      "가능하며": 6853,
      "바퀴": 6854,
      "현저": 6855,
      "몰드": 6856,
      "축에": 6857,
      "에스테르": 6858,
      "본체와": 6859,
      "폴리에스테르": 6860,
      "52": 6861,
      "용액을": 6862,
      "해당하는": 6863,
      "생성하고": 6864,
      "원가": 6865,
      "방향족": 6866,
      "프로그램을": 6867,
      "바인": 6868,
      "신호로": 6869,
      "일러": 6870,
      "210": 6871,
      "길이를": 6872,
      "운드": 6873,
      "이후": 6874,
      "페닐": 6875,
      "고주파": 6876,
      "체로": 6877,
      "효소": 6878,
      "플러그": 6879,
      "물질이": 6880,
      "대를": 6881,
      "오스": 6882,
      "등이": 6883,
      "상태의": 6884,
      "한쪽": 6885,
      "왕복": 6886,
      "본체에": 6887,
      "프로토": 6888,
      "실시간으로": 6889,
      "sp": 6890,
      "파악": 6891,
      "제공하는데": 6892,
      "셀의": 6893,
      "플루오": 6894,
      "발신": 6895,
      "공정에": 6896,
      "정전": 6897,
      "신호와": 6898,
      "Co": 6899,
      "산업": 6900,
      "자동차용": 6901,
      "위치한": 6902,
      "기용": 6903,
      "형을": 6904,
      "값이": 6905,
      "자극": 6906,
      "마련된": 6907,
      "에지": 6908,
      "장의": 6909,
      "공동": 6910,
      "지도록": 6911,
      "구조가": 6912,
      "ve": 6913,
      "열가소성": 6914,
      "방수": 6915,
      "빛을": 6916,
      "홈을": 6917,
      "치료용": 6918,
      "타이밍": 6919,
      "이하의": 6920,
      "추출물을": 6921,
      "102": 6922,
      "균일하게": 6923,
      "파라미터": 6924,
      "연료전지": 6925,
      "방식을": 6926,
      "랭크": 6927,
      "서버에": 6928,
      "알칼": 6929,
      "000": 6930,
      "직류": 6931,
      "중첩": 6932,
      "엔진의": 6933,
      "트래": 6934,
      "방법과": 6935,
      "면에는": 6936,
      "부분의": 6937,
      "대해서": 6938,
      "반경": 6939,
      "재질": 6940,
      "이루어지고": 6941,
      "받은": 6942,
      "신발": 6943,
      "에틸렌": 6944,
      "만들어": 6945,
      "식으로": 6946,
      "전하": 6947,
      "정보의": 6948,
      "드라이버": 6949,
      "수신하여": 6950,
      "근접": 6951,
      "회전하는": 6952,
      "기관": 6953,
      "데이터가": 6954,
      "블록을": 6955,
      "화물": 6956,
      "개시되어": 6957,
      "지그": 6958,
      "판별": 6959,
      "yl": 6960,
      "터널": 6961,
      "구성되고": 6962,
      "프로토콜": 6963,
      "유용하게": 6964,
      "커플링": 6965,
      "교정": 6966,
      "구비되고": 6967,
      "용이한": 6968,
      "휘발성": 6969,
      "감소시킬": 6970,
      "제조방법은": 6971,
      "치환된": 6972,
      "향상시키는": 6973,
      "수로": 6974,
      "RS": 6975,
      "시퀀": 6976,
      "인하여": 6977,
      "스타": 6978,
      "연속적으로": 6979,
      "음향": 6980,
      "적은": 6981,
      "장착되어": 6982,
      "특성이": 6983,
      "때에": 6984,
      "아암": 6985,
      "리스트": 6986,
      "공기의": 6987,
      "측정된": 6988,
      "부위에": 6989,
      "연성": 6990,
      "상면": 6991,
      "필드": 6992,
      "온라인": 6993,
      "ig": 6994,
      "사를": 6995,
      "래치": 6996,
      "근거": 6997,
      "51": 6998,
      "계면": 6999,
      "사용하지": 7000,
      "내주": 7001,
      "아연": 7002,
      "RA": 7003,
      "소켓": 7004,
      "광섬유": 7005,
      "알칼리": 7006,
      "홈에": 7007,
      "가교": 7008,
      "대응하여": 7009,
      "율이": 7010,
      "단말기를": 7011,
      "포화": 7012,
      "해상": 7013,
      "공간이": 7014,
      "프로세스": 7015,
      "매립": 7016,
      "기울": 7017,
      "스택": 7018,
      "출구": 7019,
      "소결": 7020,
      "플로": 7021,
      "이때": 7022,
      "하이브": 7023,
      "타측": 7024,
      "유량": 7025,
      "제공하고": 7026,
      "패널에": 7027,
      "멀티미디어": 7028,
      "직렬": 7029,
      "음식물": 7030,
      "트렌": 7031,
      "용기에": 7032,
      "신뢰성을": 7033,
      "투여": 7034,
      "항균": 7035,
      "나머": 7036,
      "암호화": 7037,
      "있어서의": 7038,
      "기반의": 7039,
      "소자에": 7040,
      "결과에": 7041,
      "체크": 7042,
      "추적": 7043,
      "조립체": 7044,
      "상측": 7045,
      "피드백": 7046,
      "판이": 7047,
      "단계로": 7048,
      "CP": 7049,
      "이디": 7050,
      "필터링": 7051,
      "제거할": 7052,
      "상응": 7053,
      "45": 7054,
      "결합하는": 7055,
      "3D": 7056,
      "카트리": 7057,
      "활성을": 7058,
      "밸브를": 7059,
      "이동하는": 7060,
      "번째": 7061,
      "미만": 7062,
      "그라": 7063,
      "모듈에": 7064,
      "양자": 7065,
      "센서의": 7066,
      "부분적으로": 7067,
      "ad": 7068,
      "천공": 7069,
      "디코딩": 7070,
      "대칭": 7071,
      "제에": 7072,
      "바람직하게는": 7073,
      "양을": 7074,
      "시료": 7075,
      "호스트": 7076,
      "ut": 7077,
      "화재": 7078,
      "이들의": 7079,
      "방식의": 7080,
      "균일한": 7081,
      "실시예는": 7082,
      "폭을": 7083,
      "두께를": 7084,
      "영구": 7085,
      "ine": 7086,
      "효율이": 7087,
      "제안": 7088,
      "센터": 7089,
      "문제를": 7090,
      "값에": 7091,
      "갖도록": 7092,
      "미러": 7093,
      "명세서": 7094,
      "후면": 7095,
      "시의": 7096,
      "용기의": 7097,
      "분리된": 7098,
      "거의": 7099,
      "잔류": 7100,
      "삽입되어": 7101,
      "노이즈": 7102,
      "제어할": 7103,
      "시트를": 7104,
      "액상": 7105,
      "보수": 7106,
      "바와": 7107,
      "불어": 7108,
      "하이브리드": 7109,
      "모서": 7110,
      "유해": 7111,
      "제공함에": 7112,
      "페이지": 7113,
      "수동": 7114,
      "증기": 7115,
      "터빈": 7116,
      "설치하고": 7117,
      "얻는": 7118,
      "이루어질": 7119,
      "설정하는": 7120,
      "해지는": 7121,
      "변화를": 7122,
      "계측": 7123,
      "발진": 7124,
      "01": 7125,
      "층간": 7126,
      "농도": 7127,
      "플랫": 7128,
      "블레이드": 7129,
      "파지": 7130,
      "단의": 7131,
      "운용": 7132,
      "전해질": 7133,
      "수조": 7134,
      "사용한": 7135,
      "슬리브": 7136,
      "어를": 7137,
      "모드를": 7138,
      "합성수지": 7139,
      "다층": 7140,
      "진입": 7141,
      "머리": 7142,
      "면서도": 7143,
      "심볼": 7144,
      "텍스트": 7145,
      "작업이": 7146,
      "패턴의": 7147,
      "리고": 7148,
      "구성하여": 7149,
      "공정에서": 7150,
      "매개": 7151,
      "저렴": 7152,
      "최소화할": 7153,
      "농축": 7154,
      "향해": 7155,
      "초과": 7156,
      "단면": 7157,
      "송신하는": 7158,
      "끼움": 7159,
      "화하여": 7160,
      "번호를": 7161,
      "결함": 7162,
      "장소": 7163,
      "영상의": 7164,
      "고정하는": 7165,
      "장치로부터": 7166,
      "검출된": 7167,
      "배합": 7168,
      "콘트": 7169,
      "인가되는": 7170,
      "소프트웨어": 7171,
      "마스터": 7172,
      "개질": 7173,
      "화장료": 7174,
      "조향": 7175,
      "니다": 7176,
      "시간에": 7177,
      "기술에": 7178,
      "필터를": 7179,
      "음료": 7180,
      "부분이": 7181,
      "스페이서": 7182,
      "내구성": 7183,
      "엘이디": 7184,
      "본원": 7185,
      "트가": 7186,
      "바이러스": 7187,
      "지주": 7188,
      "구조물의": 7189,
      "걸쳐": 7190,
      "것은": 7191,
      "시켜서": 7192,
      "확보할": 7193,
      "실의": 7194,
      "누설": 7195,
      "박리": 7196,
      "사진": 7197,
      "이루어지도록": 7198,
      "ap": 7199,
      "수용하는": 7200,
      "배향": 7201,
      "파우": 7202,
      "현장": 7203,
      "태양광": 7204,
      "편리하게": 7205,
      "me": 7206,
      "조건을": 7207,
      "유닛에": 7208,
      "상관": 7209,
      "법을": 7210,
      "문서": 7211,
      "응용": 7212,
      "시청": 7213,
      "제어하기": 7214,
      "음을": 7215,
      "형성하기": 7216,
      "표준": 7217,
      "수정": 7218,
      "자는": 7219,
      "인공": 7220,
      "증진": 7221,
      "내열": 7222,
      "보유": 7223,
      "바인더": 7224,
      "약학": 7225,
      "무게": 7226,
      "첨가하여": 7227,
      "인코딩": 7228,
      "백라이트": 7229,
      "연에": 7230,
      "하에서": 7231,
      "핸들": 7232,
      "부피": 7233,
      "교통": 7234,
      "101": 7235,
      "빔을": 7236,
      "식을": 7237,
      "가루": 7238,
      "결합되며": 7239,
      "tic": 7240,
      "2개": 7241,
      "홀이": 7242,
      "역할": 7243,
      "격벽": 7244,
      "구와": 7245,
      "캐패시": 7246,
      "라디": 7247,
      "방법으로서": 7248,
      "con": 7249,
      "션을": 7250,
      "드라이브": 7251,
      "고려": 7252,
      "스핀": 7253,
      "유래": 7254,
      "특징이": 7255,
      "유닛의": 7256,
      "가락": 7257,
      "밀도": 7258,
      "의료": 7259,
      "크기의": 7260,
      "숙성": 7261,
      "클램프": 7262,
      "필름의": 7263,
      "재배": 7264,
      "27": 7265,
      "ET": 7266,
      "매트릭스": 7267,
      "축의": 7268,
      "위치에서": 7269,
      "처리된": 7270,
      "실리카": 7271,
      "냉동": 7272,
      "관에": 7273,
      "카르복": 7274,
      "수준": 7275,
      "기술을": 7276,
      "출력을": 7277,
      "강도를": 7278,
      "qu": 7279,
      "전자기": 7280,
      "연결하여": 7281,
      "컨트롤": 7282,
      "어난": 7283,
      "마운": 7284,
      "노이드": 7285,
      "대체": 7286,
      "is": 7287,
      "상대적으로": 7288,
      "트랜지스터의": 7289,
      "염을": 7290,
      "구성에": 7291,
      "공정이": 7292,
      "실링": 7293,
      "수신한": 7294,
      "Fe": 7295,
      "제품을": 7296,
      "경보": 7297,
      "메뉴": 7298,
      "기타": 7299,
      "법에": 7300,
      "유체를": 7301,
      "물로": 7302,
      "크를": 7303,
      "변화에": 7304,
      "위치로": 7305,
      "구비하며": 7306,
      "내부에서": 7307,
      "있었다": 7308,
      "관과": 7309,
      "용이하고": 7310,
      "전면에": 7311,
      "접속된": 7312,
      "SO": 7313,
      "셀룰": 7314,
      "탈착": 7315,
      "신규한": 7316,
      "층으로": 7317,
      "보행": 7318,
      "플레이트의": 7319,
      "웨이퍼의": 7320,
      "타임": 7321,
      "수축": 7322,
      "추출하는": 7323,
      "스캐": 7324,
      "구비되며": 7325,
      "특이": 7326,
      "품질을": 7327,
      "관절": 7328,
      "이동시키는": 7329,
      "발생한": 7330,
      "아가": 7331,
      "통해서": 7332,
      "시동": 7333,
      "일면에": 7334,
      "변환하는": 7335,
      "레스": 7336,
      "제어방법에": 7337,
      "가장자리": 7338,
      "부재는": 7339,
      "화하는": 7340,
      "로터": 7341,
      "테두": 7342,
      "자인": 7343,
      "용도": 7344,
      "ST": 7345,
      "포토레지스트": 7346,
      "제공하여": 7347,
      "윤활": 7348,
      "구성되며": 7349,
      "SI": 7350,
      "탐색": 7351,
      "ran": 7352,
      "소요": 7353,
      "wt": 7354,
      "교류": 7355,
      "사이즈": 7356,
      "우선": 7357,
      "회로의": 7358,
      "리스": 7359,
      "캡슐": 7360,
      "가스가": 7361,
      "분기": 7362,
      "추가로": 7363,
      "MOS": 7364,
      "미국": 7365,
      "계수": 7366,
      "지하": 7367,
      "동물": 7368,
      "더불어": 7369,
      "본딩": 7370,
      "신경": 7371,
      "구축": 7372,
      "얻어진": 7373,
      "도달": 7374,
      "손실": 7375,
      "수단의": 7376,
      "요소를": 7377,
      "문제점이": 7378,
      "덕트": 7379,
      "종료": 7380,
      "외부의": 7381,
      "할로겐": 7382,
      "화합물의": 7383,
      "제가": 7384,
      "허브": 7385,
      "이면": 7386,
      "주소": 7387,
      "밝혔": 7388,
      "나머지": 7389,
      "네트워크를": 7390,
      "조성물의": 7391,
      "형성함으로써": 7392,
      "ver": 7393,
      "하측": 7394,
      "서열": 7395,
      "철근": 7396,
      "각을": 7397,
      "구성한": 7398,
      "나타낸": 7399,
      "유발": 7400,
      "유닛은": 7401,
      "원소": 7402,
      "탄화수소": 7403,
      "평판": 7404,
      "결합하여": 7405,
      "선에": 7406,
      "됨에": 7407,
      "흐르는": 7408,
      "전압이": 7409,
      "마감": 7410,
      "이용할": 7411,
      "맞춤": 7412,
      "산출하는": 7413,
      "호출": 7414,
      "동영상": 7415,
      "저장하고": 7416,
      "등으로": 7417,
      "프로필렌": 7418,
      "중인": 7419,
      "이루어지며": 7420,
      "고안은": 7421,
      "커패시터": 7422,
      "주조": 7423,
      "태그": 7424,
      "사용이": 7425,
      "제어하여": 7426,
      "취득": 7427,
      "외측에": 7428,
      "선회": 7429,
      "제공함으로써": 7430,
      "신축": 7431,
      "변동": 7432,
      "송출": 7433,
      "가능하여": 7434,
      "히트": 7435,
      "원의": 7436,
      "양의": 7437,
      "펠러": 7438,
      "알코": 7439,
      "링을": 7440,
      "친환경": 7441,
      "아세": 7442,
      "제거하여": 7443,
      "비상": 7444,
      "도광": 7445,
      "칼슘": 7446,
      "페달": 7447,
      "결속": 7448,
      "도어의": 7449,
      "알코올": 7450,
      "CC": 7451,
      "복호화": 7452,
      "화장품": 7453,
      "스팀": 7454,
      "방향과": 7455,
      "프라이": 7456,
      "경화성": 7457,
      "시키면서": 7458,
      "외부에": 7459,
      "수단이": 7460,
      "광의": 7461,
      "감지하여": 7462,
      "판넬": 7463,
      "손쉽게": 7464,
      "시트의": 7465,
      "해야": 7466,
      "표면의": 7467,
      "정해진": 7468,
      "행하는": 7469,
      "발명이": 7470,
      "파를": 7471,
      "Mn": 7472,
      "츄에이터": 7473,
      "구현할": 7474,
      "검증": 7475,
      "보고": 7476,
      "객체": 7477,
      "나타내고": 7478,
      "PCB": 7479,
      "적응": 7480,
      "서버가": 7481,
      "사용하기": 7482,
      "온도가": 7483,
      "자신의": 7484,
      "자와": 7485,
      "가격": 7486,
      "제로서": 7487,
      "티드": 7488,
      "스펙": 7489,
      "메탈": 7490,
      "얼굴": 7491,
      "면적을": 7492,
      "AT": 7493,
      "실외": 7494,
      "손상을": 7495,
      "공기조화": 7496,
      "모터를": 7497,
      "상단에": 7498,
      "액의": 7499,
      "자전": 7500,
      "함유된": 7501,
      "모듈은": 7502,
      "구조체": 7503,
      "액에": 7504,
      "밝혔다": 7505,
      "시그": 7506,
      "만으로": 7507,
      "로프": 7508,
      "지가": 7509,
      "적용하여": 7510,
      "향상시키고": 7511,
      "댐퍼": 7512,
      "집진": 7513,
      "지지부": 7514,
      "연관된": 7515,
      "우수하고": 7516,
      "온수": 7517,
      "거쳐": 7518,
      "단부가": 7519,
      "안정성을": 7520,
      "as": 7521,
      "유닛과": 7522,
      "주름": 7523,
      "촬상": 7524,
      "포넌": 7525,
      "po": 7526,
      "금융": 7527,
      "도핑": 7528,
      "비가": 7529,
      "샤프": 7530,
      "영역에서": 7531,
      "보일러": 7532,
      "테르": 7533,
      "알고리": 7534,
      "예컨": 7535,
      "유니트": 7536,
      "스텐": 7537,
      "지정": 7538,
      "타이드": 7539,
      "전용": 7540,
      "44": 7541,
      "상태가": 7542,
      "조절하여": 7543,
      "ir": 7544,
      "적절한": 7545,
      "장식": 7546,
      "테로": 7547,
      "격자": 7548,
      "텔레": 7549,
      "재에": 7550,
      "운동을": 7551,
      "선택하는": 7552,
      "폴리에틸렌": 7553,
      "계속": 7554,
      "변위": 7555,
      "확인할": 7556,
      "°C의": 7557,
      "미생물": 7558,
      "음식": 7559,
      "프레스": 7560,
      "단말이": 7561,
      "ase": 7562,
      "비행": 7563,
      "오브": 7564,
      "시키지": 7565,
      "외주면에": 7566,
      "논리": 7567,
      "릴레이": 7568,
      "라인에": 7569,
      "출입": 7570,
      "비아": 7571,
      "이동을": 7572,
      "배열된": 7573,
      "경우에도": 7574,
      "인터페이스를": 7575,
      "예컨대": 7576,
      "도메인": 7577,
      "부직": 7578,
      "계층": 7579,
      "오는": 7580,
      "탑승": 7581,
      "Re": 7582,
      "셀을": 7583,
      "티타": 7584,
      "단부를": 7585,
      "관이": 7586,
      "그래픽": 7587,
      "브래": 7588,
      "폴리우레탄": 7589,
      "중앙에": 7590,
      "휘도": 7591,
      "생산성을": 7592,
      "방사선": 7593,
      "최적의": 7594,
      "니켈": 7595,
      "구동부": 7596,
      "쪽에": 7597,
      "있다는": 7598,
      "알고리즘": 7599,
      "Mo": 7600,
      "이격되어": 7601,
      "AR": 7602,
      "하나에": 7603,
      "원통형": 7604,
      "기능이": 7605,
      "전극에": 7606,
      "포함되는": 7607,
      "줄여": 7608,
      "동력을": 7609,
      "수득": 7610,
      "제외": 7611,
      "재료의": 7612,
      "로를": 7613,
      "유지하는": 7614,
      "각도를": 7615,
      "침투": 7616,
      "레오": 7617,
      "38": 7618,
      "원주": 7619,
      "있기": 7620,
      "클램": 7621,
      "일부가": 7622,
      "측의": 7623,
      "컨텐츠를": 7624,
      "지로": 7625,
      "전선": 7626,
      "제와": 7627,
      "원을": 7628,
      "수직으로": 7629,
      "앵커": 7630,
      "차량에": 7631,
      "안전하게": 7632,
      "규소": 7633,
      "단말에": 7634,
      "카본": 7635,
      "완화": 7636,
      "개방된": 7637,
      "메일": 7638,
      "시뮬": 7639,
      "기로부터": 7640,
      "te": 7641,
      "급수": 7642,
      "데이터와": 7643,
      "부품의": 7644,
      "염증": 7645,
      "부착되는": 7646,
      "처리하여": 7647,
      "pp": 7648,
      "이득": 7649,
      "반응을": 7650,
      "캐비티": 7651,
      "컨테이너": 7652,
      "적이고": 7653,
      "하우징에": 7654,
      "가의": 7655,
      "나타낸다": 7656,
      "포집": 7657,
      "일단이": 7658,
      "상응하는": 7659,
      "공간의": 7660,
      "제는": 7661,
      "바로": 7662,
      "이라": 7663,
      "대형": 7664,
      "알콕": 7665,
      "키를": 7666,
      "220": 7667,
      "유연": 7668,
      "가속": 7669,
      "접점": 7670,
      "분리하는": 7671,
      "차가": 7672,
      "예비": 7673,
      "입력받아": 7674,
      "인덱": 7675,
      "아미드": 7676,
      "상기의": 7677,
      "고형": 7678,
      "컴포넌": 7679,
      "이벤트": 7680,
      "값과": 7681,
      "아닌": 7682,
      "장치로서": 7683,
      "화학적": 7684,
      "부유": 7685,
      "화면을": 7686,
      "미끄": 7687,
      "AN": 7688,
      "효율적인": 7689,
      "롭게": 7690,
      "압전": 7691,
      "칼라": 7692,
      "레지스터": 7693,
      "류의": 7694,
      "사용함으로써": 7695,
      "111": 7696,
      "세로": 7697,
      "트래픽": 7698,
      "UE": 7699,
      "조절이": 7700,
      "주파수를": 7701,
      "재로": 7702,
      "탈수": 7703,
      "입자의": 7704,
      "내벽": 7705,
      "지정된": 7706,
      "US": 7707,
      "공중합": 7708,
      "터닝": 7709,
      "않게": 7710,
      "중요": 7711,
      "매체에": 7712,
      "1의": 7713,
      "기대": 7714,
      "단량체": 7715,
      "작용을": 7716,
      "정류": 7717,
      "트렌치": 7718,
      "라인의": 7719,
      "깊이": 7720,
      "공정의": 7721,
      "일체형": 7722,
      "전지의": 7723,
      "헤더": 7724,
      "원활하게": 7725,
      "경량": 7726,
      "112": 7727,
      "안정화": 7728,
      "리의": 7729,
      "복잡": 7730,
      "상측에": 7731,
      "클립": 7732,
      "탐지": 7733,
      "필라": 7734,
      "역할을": 7735,
      "버너": 7736,
      "CR": 7737,
      "모듈과": 7738,
      "밸브의": 7739,
      "입력을": 7740,
      "터미": 7741,
      "프로파일": 7742,
      "공구": 7743,
      "액티브": 7744,
      "집합": 7745,
      "세그먼트": 7746,
      "생성하여": 7747,
      "마련되는": 7748,
      "캐스트": 7749,
      "오브젝": 7750,
      "플랫폼": 7751,
      "재활용": 7752,
      "mo": 7753,
      "부직포": 7754,
      "솔레": 7755,
      "음이온": 7756,
      "데이트": 7757,
      "옥시": 7758,
      "모드로": 7759,
      "디바이스의": 7760,
      "사료": 7761,
      "제공하고자": 7762,
      "마그네슘": 7763,
      "방으로": 7764,
      "절개": 7765,
      "사전": 7766,
      "계를": 7767,
      "RFID": 7768,
      "요철": 7769,
      "솔레노이드": 7770,
      "레이어": 7771,
      "수행하여": 7772,
      "서버를": 7773,
      "플레이트를": 7774,
      "cm": 7775,
      "운행": 7776,
      "압축기": 7777,
      "침전": 7778,
      "위의": 7779,
      "영양": 7780,
      "질환의": 7781,
      "표적": 7782,
      "약품": 7783,
      "스펙트": 7784,
      "전달되는": 7785,
      "감속": 7786,
      "축과": 7787,
      "됨과": 7788,
      "충분한": 7789,
      "까지의": 7790,
      "불편": 7791,
      "솔더": 7792,
      "쿠션": 7793,
      "말했다": 7794,
      "항상": 7795,
      "달리": 7796,
      "집중": 7797,
      "레벨을": 7798,
      "MI": 7799,
      "발전기": 7800,
      "추출된": 7801,
      "스토퍼": 7802,
      "진동을": 7803,
      "구성은": 7804,
      "뛰어난": 7805,
      "블랙": 7806,
      "형태를": 7807,
      "내부를": 7808,
      "강판": 7809,
      "예약": 7810,
      "종이": 7811,
      "반전": 7812,
      "하단에": 7813,
      "으로부터의": 7814,
      "황토": 7815,
      "ff": 7816,
      "알려": 7817,
      "착신": 7818,
      "상하로": 7819,
      "헤테로": 7820,
      "프로세싱": 7821,
      "대량": 7822,
      "MA": 7823,
      "권선": 7824,
      "해결하기": 7825,
      "메모리에": 7826,
      "기구를": 7827,
      "환경을": 7828,
      "픽업": 7829,
      "절연막을": 7830,
      "도파": 7831,
      "기포": 7832,
      "연계": 7833,
      "이상을": 7834,
      "파쇄": 7835,
      "사이를": 7836,
      "푸집": 7837,
      "나는": 7838,
      "전압의": 7839,
      "작성": 7840,
      "오류": 7841,
      "거푸집": 7842,
      "고정되어": 7843,
      "자체": 7844,
      "인버터": 7845,
      "sh": 7846,
      "단순화": 7847,
      "1∼": 7848,
      "걸이": 7849,
      "라인과": 7850,
      "회원": 7851,
      "영역이": 7852,
      "재료로": 7853,
      "소자는": 7854,
      "무늬": 7855,
      "이산화탄소": 7856,
      "이웃": 7857,
      "외측으로": 7858,
      "미터": 7859,
      "바이어": 7860,
      "오프셋": 7861,
      "ity": 7862,
      "수단으로": 7863,
      "무선통신": 7864,
      "량에": 7865,
      "추에이터": 7866,
      "제공된": 7867,
      "블록에": 7868,
      "트라": 7869,
      "클램핑": 7870,
      "스팅": 7871,
      "차의": 7872,
      "하우징과": 7873,
      "와이": 7874,
      "직교": 7875,
      "압을": 7876,
      "장치용": 7877,
      "하에": 7878,
      "카보": 7879,
      "Ni": 7880,
      "액츄에이터": 7881,
      "정합": 7882,
      "잡음": 7883,
      "구성으로": 7884,
      "손실을": 7885,
      "마크": 7886,
      "공급하여": 7887,
      "요청을": 7888,
      "프린트": 7889,
      "공조": 7890,
      "인입": 7891,
      "티타늄": 7892,
      "베이터": 7893,
      "유체의": 7894,
      "수와": 7895,
      "안경": 7896,
      "외부로부터": 7897,
      "적층된": 7898,
      "내는": 7899,
      "수용성": 7900,
      "구동하는": 7901,
      "패널과": 7902,
      "패터닝": 7903,
      "만들": 7904,
      "사이트": 7905,
      "센서에": 7906,
      "업데이트": 7907,
      "사용자에": 7908,
      "치는": 7909,
      "for": 7910,
      "ab": 7911,
      "마커": 7912,
      "연장된": 7913,
      "이전": 7914,
      "PL": 7915,
      "나노튜브": 7916,
      "갱신": 7917,
      "플루오로": 7918,
      "부호": 7919,
      "스테인": 7920,
      "너트": 7921,
      "재질의": 7922,
      "에어백": 7923,
      "스케줄": 7924,
      "디바이스는": 7925,
      "채널의": 7926,
      "EG": 7927,
      "것과": 7928,
      "필요가": 7929,
      "pro": 7930,
      "지반": 7931,
      "스테이지": 7932,
      "공정으로": 7933,
      "104": 7934,
      "분석하여": 7935,
      "어서": 7936,
      "대신": 7937,
      "디자인": 7938,
      "대향하는": 7939,
      "아이템": 7940,
      "모터에": 7941,
      "받을": 7942,
      "다고": 7943,
      "아스": 7944,
      "열전": 7945,
      "받고": 7946,
      "Cu": 7947,
      "통과하는": 7948,
      "스케일": 7949,
      "임피": 7950,
      "미립": 7951,
      "전위": 7952,
      "케이스에": 7953,
      "알콕시": 7954,
      "공급하기": 7955,
      "세포의": 7956,
      "떨어": 7957,
      "가시": 7958,
      "액화": 7959,
      "돌출된": 7960,
      "상향링크": 7961,
      "억제할": 7962,
      "하이드로": 7963,
      "부위를": 7964,
      "슬릿": 7965,
      "위성": 7966,
      "서버로": 7967,
      "부품을": 7968,
      "별도로": 7969,
      "혼합된": 7970,
      "재질로": 7971,
      "시에는": 7972,
      "이상인": 7973,
      "임피던": 7974,
      "글라": 7975,
      "미연에": 7976,
      "복사": 7977,
      "인덕": 7978,
      "산화막": 7979,
      "지원하는": 7980,
      "장에": 7981,
      "ack": 7982,
      "비용이": 7983,
      "스펙트럼": 7984,
      "차에": 7985,
      "굴곡": 7986,
      "주문": 7987,
      "모서리": 7988,
      "흡기": 7989,
      "스텝": 7990,
      "터미널": 7991,
      "맞물": 7992,
      "LCD": 7993,
      "화상을": 7994,
      "인을": 7995,
      "ell": 7996,
      "면에서": 7997,
      "액추에이터": 7998,
      "패드를": 7999,
      "수술": 8000,
      "스마트폰": 8001,
      "준비하는": 8002,
      "액이": 8003,
      "패턴이": 8004,
      "완전히": 8005,
      "스테이션": 8006,
      "보장": 8007,
      "개구부": 8008,
      "내측으로": 8009,
      "올리고": 8010,
      "물질로": 8011,
      "일정하게": 8012,
      "접촉하는": 8013,
      "우측": 8014,
      "변환하여": 8015,
      "기상": 8016,
      "넓은": 8017,
      "시멘트": 8018,
      "됨을": 8019,
      "지도": 8020,
      "환자의": 8021,
      "이식": 8022,
      "제조되는": 8023,
      "센서와": 8024,
      "삽입된": 8025,
      "비하여": 8026,
      "서버로부터": 8027,
      "신체": 8028,
      "명령을": 8029,
      "EC": 8030,
      "구성하고": 8031,
      "발생할": 8032,
      "약물": 8033,
      "카르복실": 8034,
      "필요로": 8035,
      "수명을": 8036,
      "샘플링": 8037,
      "스위치를": 8038,
      "포맷": 8039,
      "인간": 8040,
      "범위를": 8041,
      "입출력": 8042,
      "콘텐츠를": 8043,
      "쓰레기": 8044,
      "이용해": 8045,
      "들에게": 8046,
      "치아": 8047,
      "활동": 8048,
      "종류의": 8049,
      "UV": 8050,
      "높이를": 8051,
      "사의": 8052,
      "이형": 8053,
      "흐름을": 8054,
      "엘리베이터": 8055,
      "구조는": 8056,
      "이하인": 8057,
      "산의": 8058,
      "섹션": 8059,
      "선단": 8060,
      "수송": 8061,
      "드릴": 8062,
      "몰딩": 8063,
      "낙하": 8064,
      "규칙": 8065,
      "실시예에서": 8066,
      "적을": 8067,
      "금을": 8068,
      "온도에서": 8069,
      "스로": 8070,
      "임의로": 8071,
      "시그널": 8072,
      "실란": 8073,
      "전구체": 8074,
      "제조하기": 8075,
      "리모": 8076,
      "측정할": 8077,
      "탄소수": 8078,
      "브래킷": 8079,
      "악취": 8080,
      "관통하여": 8081,
      "확인하는": 8082,
      "05": 8083,
      "위치와": 8084,
      "지만": 8085,
      "섬유를": 8086,
      "인서": 8087,
      "응집": 8088,
      "저항을": 8089,
      "용기를": 8090,
      "제어신호를": 8091,
      "경고": 8092,
      "제약": 8093,
      "분무": 8094,
      "배출하는": 8095,
      "핀을": 8096,
      "확실": 8097,
      "유저": 8098,
      "착색": 8099,
      "염색": 8100,
      "함수": 8101,
      "지문": 8102,
      "플로우": 8103,
      "길이방향으로": 8104,
      "이격된": 8105,
      "웨이퍼를": 8106,
      "챔버의": 8107,
      "영역으로": 8108,
      "함은": 8109,
      "볼록": 8110,
      "매핑": 8111,
      "어려": 8112,
      "화가": 8113,
      "추어": 8114,
      "수단은": 8115,
      "항목": 8116,
      "물리적": 8117,
      "줄기": 8118,
      "차단하는": 8119,
      "손가락": 8120,
      "들로부터": 8121,
      "구조물을": 8122,
      "and": 8123,
      "프론": 8124,
      "BS": 8125,
      "버섯": 8126,
      "들에서": 8127,
      "발생하지": 8128,
      "시스템과": 8129,
      "탱크의": 8130,
      "들면": 8131,
      "폐수": 8132,
      "향상을": 8133,
      "이외": 8134,
      "생활": 8135,
      "탄산": 8136,
      "내장된": 8137,
      "구멍을": 8138,
      "양호한": 8139,
      "하므로써": 8140,
      "면으로": 8141,
      "전원공급": 8142,
      "55": 8143,
      "확대": 8144,
      "완성": 8145,
      "전송을": 8146,
      "소음을": 8147,
      "방에": 8148,
      "작동을": 8149,
      "°C에서": 8150,
      "수광": 8151,
      "하려": 8152,
      "기반하여": 8153,
      "순서": 8154,
      "결합을": 8155,
      "않고도": 8156,
      "크기가": 8157,
      "코팅된": 8158,
      "먼지": 8159,
      "제공하며": 8160,
      "냉각수": 8161,
      "연결부": 8162,
      "스가": 8163,
      "빠른": 8164,
      "디바이스에": 8165,
      "홀에": 8166,
      "커버의": 8167,
      "함침": 8168,
      "플레이트와": 8169,
      "62": 8170,
      "VD": 8171,
      "가질": 8172,
      "펩타이드": 8173,
      "텔레비": 8174,
      "함유하고": 8175,
      "타입의": 8176,
      "지지체": 8177,
      "리프": 8178,
      "sion": 8179,
      "부식": 8180,
      "트륨": 8181,
      "글루": 8182,
      "대폭": 8183,
      "파티": 8184,
      "그는": 8185,
      "사고를": 8186,
      "차지": 8187,
      "편집": 8188,
      "pH": 8189,
      "계면활성": 8190,
      "염기": 8191,
      "퓨즈": 8192,
      "포스": 8193,
      "전지용": 8194,
      "회전에": 8195,
      "반도체층": 8196,
      "도료": 8197,
      "정의된": 8198,
      "되었다": 8199,
      "ub": 8200,
      "마우": 8201,
      "회전시키는": 8202,
      "않는다": 8203,
      "암호": 8204,
      "관리하는": 8205,
      "나트륨": 8206,
      "마련되어": 8207,
      "칩을": 8208,
      "pl": 8209,
      "패킷을": 8210,
      "재가": 8211,
      "ure": 8212,
      "필러": 8213,
      "혈관": 8214,
      "수거": 8215,
      "위로": 8216,
      "이음": 8217,
      "OF": 8218,
      "융합": 8219,
      "rol": 8220,
      "기기에": 8221,
      "매니": 8222,
      "라이드": 8223,
      "ne": 8224,
      "연장되어": 8225,
      "구성요소": 8226,
      "셀룰로": 8227,
      "추진": 8228,
      "스트림을": 8229,
      "계산하는": 8230,
      "개선할": 8231,
      "기구에": 8232,
      "충분히": 8233,
      "43": 8234,
      "사업": 8235,
      "에이블": 8236,
      "위치하고": 8237,
      "덮는": 8238,
      "포인": 8239,
      "커버를": 8240,
      "펌핑": 8241,
      "디바이스를": 8242,
      "동시": 8243,
      "변이": 8244,
      "질병": 8245,
      "단계의": 8246,
      "바늘": 8247,
      "탄올": 8248,
      "온도로": 8249,
      "FT": 8250,
      "관심": 8251,
      "슬러지": 8252,
      "공급된": 8253,
      "원심": 8254,
      "포커": 8255,
      "제어기": 8256,
      "프탈": 8257,
      "동적": 8258,
      "않을": 8259,
      "엔드": 8260,
      "부착되어": 8261,
      "리아": 8262,
      "주의": 8263,
      "ice": 8264,
      "보존": 8265,
      "요구되는": 8266,
      "설치하는": 8267,
      "안내하는": 8268,
      "노출된": 8269,
      "크랭크": 8270,
      "컨버터": 8271,
      "반죽": 8272,
      "풍력": 8273,
      "수신되는": 8274,
      "스티렌": 8275,
      "고정되고": 8276,
      "활물질": 8277,
      "이용될": 8278,
      "불필요한": 8279,
      "신장": 8280,
      "용으로": 8281,
      "가열하는": 8282,
      "속하는": 8283,
      "밸런": 8284,
      "배터리의": 8285,
      "캐소": 8286,
      "레드": 8287,
      "배치된다": 8288,
      "이물질": 8289,
      "러스": 8290,
      "컬럼": 8291,
      "ow": 8292,
      "분위": 8293,
      "통의": 8294,
      "디코더": 8295,
      "유입된": 8296,
      "유성": 8297,
      "GPS": 8298,
      "색상": 8299,
      "절약": 8300,
      "축소": 8301,
      "불포화": 8302,
      "술한": 8303,
      "한쌍의": 8304,
      "DNA": 8305,
      "통령": 8306,
      "호퍼": 8307,
      "당해": 8308,
      "회전가능하게": 8309,
      "1로": 8310,
      "에피": 8311,
      "접속되는": 8312,
      "유로를": 8313,
      "단말기로": 8314,
      "ide": 8315,
      "이물질을": 8316,
      "매체를": 8317,
      "선이": 8318,
      "전단": 8319,
      "선반": 8320,
      "간단하게": 8321,
      "적이": 8322,
      "DB": 8323,
      "각각은": 8324,
      "인가하는": 8325,
      "위치하며": 8326,
      "파괴": 8327,
      "아크릴레이트": 8328,
      "pe": 8329,
      "화합물은": 8330,
      "관능": 8331,
      "리가": 8332,
      "54": 8333,
      "감지된": 8334,
      "모션": 8335,
      "차이": 8336,
      "몸체와": 8337,
      "플렉서": 8338,
      "전송되는": 8339,
      "동작하는": 8340,
      "결정하고": 8341,
      "건물": 8342,
      "지난": 8343,
      "방식에": 8344,
      "연결을": 8345,
      "타단": 8346,
      "침지": 8347,
      "동기화": 8348,
      "불순물": 8349,
      "비교적": 8350,
      "슬라이더": 8351,
      "Cr": 8352,
      "미생": 8353,
      "줄이고": 8354,
      "향하여": 8355,
      "알킬기": 8356,
      "채워": 8357,
      "주요": 8358,
      "경과": 8359,
      "절연층": 8360,
      "원적외선": 8361,
      "조의": 8362,
      "전송하고": 8363,
      "열교환기": 8364,
      "연료를": 8365,
      "화면에": 8366,
      "단위로": 8367,
      "도장": 8368,
      "일반적으로": 8369,
      "더미": 8370,
      "전극이": 8371,
      "염화": 8372,
      "수용되는": 8373,
      "비정": 8374,
      "렌즈를": 8375,
      "히는": 8376,
      "치료에": 8377,
      "가해지는": 8378,
      "메쉬": 8379,
      "29": 8380,
      "Di": 8381,
      "원단": 8382,
      "46": 8383,
      "블루": 8384,
      "갖춘": 8385,
      "성분의": 8386,
      "가용": 8387,
      "가맹": 8388,
      "시킴과": 8389,
      "자유롭게": 8390,
      "하향링크": 8391,
      "하수": 8392,
      "염료": 8393,
      "가중": 8394,
      "안정적인": 8395,
      "가는": 8396,
      "하드웨어": 8397,
      "직물": 8398,
      "이상으로": 8399,
      "포지": 8400,
      "제거하고": 8401,
      "나아가": 8402,
      "점화": 8403,
      "정보는": 8404,
      "소재를": 8405,
      "현저히": 8406,
      "단말로부터": 8407,
      "안정성": 8408,
      "가요": 8409,
      "복귀": 8410,
      "자동화": 8411,
      "불소": 8412,
      "제거하기": 8413,
      "누름": 8414,
      "대전": 8415,
      "로에": 8416,
      "기판이": 8417,
      "촉매를": 8418,
      "유체가": 8419,
      "조인트": 8420,
      "군으로부터": 8421,
      "적정": 8422,
      "안료": 8423,
      "힘을": 8424,
      "대통령": 8425,
      "ck": 8426,
      "규격": 8427,
      "부에는": 8428,
      "설치한": 8429,
      "양쪽": 8430,
      "시뮬레이션": 8431,
      "유무": 8432,
      "동작에": 8433,
      "니즘": 8434,
      "김치": 8435,
      "개선하여": 8436,
      "age": 8437,
      "세트를": 8438,
      "외장": 8439,
      "머신": 8440,
      "안에": 8441,
      "로컬": 8442,
      "글래": 8443,
      "이종": 8444,
      "하측에": 8445,
      "견고하게": 8446,
      "싱크": 8447,
      "SS": 8448,
      "형성하며": 8449,
      "라디칼": 8450,
      "ho": 8451,
      "lay": 8452,
      "공급할": 8453,
      "가를": 8454,
      "세포를": 8455,
      "리닝": 8456,
      "메트": 8457,
      "원료를": 8458,
      "정하는": 8459,
      "전지를": 8460,
      "가열하여": 8461,
      "유를": 8462,
      "선택하여": 8463,
      "편심": 8464,
      "분리하여": 8465,
      "좌측": 8466,
      "페놀": 8467,
      "향상되는": 8468,
      "ma": 8469,
      "생성되는": 8470,
      "어의": 8471,
      "프로젝": 8472,
      "단말기가": 8473,
      "자전거": 8474,
      "랜덤": 8475,
      "커팅": 8476,
      "그대로": 8477,
      "클래": 8478,
      "측정하여": 8479,
      "랜드": 8480,
      "oly": 8481,
      "모델을": 8482,
      "로직": 8483,
      "하더라도": 8484,
      "가져": 8485,
      "라우드": 8486,
      "오존": 8487,
      "인의": 8488,
      "선과": 8489,
      "일으": 8490,
      "전구": 8491,
      "현실": 8492,
      "수행하기": 8493,
      "워터": 8494,
      "배출구": 8495,
      "기름": 8496,
      "카메라를": 8497,
      "조건에": 8498,
      "배기가스": 8499,
      "OH": 8500,
      "플라이": 8501,
      "록킹": 8502,
      "파이프의": 8503,
      "빠르게": 8504,
      "편향": 8505,
      "필터의": 8506,
      "61": 8507,
      "농도를": 8508,
      "형성을": 8509,
      "호스": 8510,
      "제조에": 8511,
      "것으로써": 8512,
      "스티어링": 8513,
      "왜곡": 8514,
      "저장되는": 8515,
      "개구부를": 8516,
      "프론트": 8517,
      "환자": 8518,
      "모듈이": 8519,
      "통로를": 8520,
      "근거리": 8521,
      "검출하여": 8522,
      "Con": 8523,
      "시프트": 8524,
      "회전을": 8525,
      "외곽": 8526,
      "마주보": 8527,
      "수중": 8528,
      "600": 8529,
      "후의": 8530,
      "포함되어": 8531,
      "사용하고": 8532,
      "마스크를": 8533,
      "도와": 8534,
      "안테나를": 8535,
      "프라이머": 8536,
      "사용자는": 8537,
      "단자를": 8538,
      "차체": 8539,
      "성능이": 8540,
      "TP": 8541,
      "스토리지": 8542,
      "움을": 8543,
      "비율로": 8544,
      "것인": 8545,
      "검지": 8546,
      "인이": 8547,
      "외부에서": 8548,
      "트랜지스터를": 8549,
      "무인": 8550,
      "필름에": 8551,
      "인체에": 8552,
      "구성함으로써": 8553,
      "감광성": 8554,
      "짐을": 8555,
      "가정": 8556,
      "사용을": 8557,
      "혼합한": 8558,
      "브레인": 8559,
      "평탄": 8560,
      "압축기의": 8561,
      "실록": 8562,
      "융착": 8563,
      "용량을": 8564,
      "유통": 8565,
      "전파": 8566,
      "그래핀": 8567,
      "테두리": 8568,
      "중량부를": 8569,
      "설치할": 8570,
      "식에서": 8571,
      "충격을": 8572,
      "기기를": 8573,
      "위생": 8574,
      "박막을": 8575,
      "없어": 8576,
      "카보네이트": 8577,
      "제조용": 8578,
      "이미드": 8579,
      "음악": 8580,
      "처리부": 8581,
      "유의": 8582,
      "피크": 8583,
      "도모할": 8584,
      "작용하는": 8585,
      "증류": 8586,
      "재조합": 8587,
      "생성하기": 8588,
      "op": 8589,
      "yst": 8590,
      "클러스터": 8591,
      "유지하면서": 8592,
      "계의": 8593,
      "리더": 8594,
      "함유한": 8595,
      "전송된": 8596,
      "요청에": 8597,
      "카트리지": 8598,
      "타격": 8599,
      "단말로": 8600,
      "Li": 8601,
      "카테": 8602,
      "동작이": 8603,
      "빔의": 8604,
      "장비의": 8605,
      "값의": 8606,
      "강도가": 8607,
      "근거하여": 8608,
      "모드에서": 8609,
      "칩의": 8610,
      "평행하게": 8611,
      "적용할": 8612,
      "환경에서": 8613,
      "성형하는": 8614,
      "신뢰성": 8615,
      "발명이다": 8616,
      "감염": 8617,
      "도출": 8618,
      "올려": 8619,
      "기화": 8620,
      "감싸는": 8621,
      "없고": 8622,
      "바이어스": 8623,
      "안정성이": 8624,
      "본체를": 8625,
      "기설정된": 8626,
      "줄이": 8627,
      "신속하고": 8628,
      "제조한": 8629,
      "기여": 8630,
      "두께가": 8631,
      "지능": 8632,
      "세균": 8633,
      "배리어": 8634,
      "인접하는": 8635,
      "받지": 8636,
      "편을": 8637,
      "제어부는": 8638,
      "전류가": 8639,
      "전자파": 8640,
      "상부로": 8641,
      "기밀": 8642,
      "대비": 8643,
      "받이": 8644,
      "팩트": 8645,
      "저하를": 8646,
      "오픈": 8647,
      "받침대": 8648,
      "강제": 8649,
      "외피": 8650,
      "내구성을": 8651,
      "멤브레인": 8652,
      "그래피": 8653,
      "실린더의": 8654,
      "1개": 8655,
      "생산하는": 8656,
      "탄력": 8657,
      "외벽": 8658,
      "소재의": 8659,
      "인산": 8660,
      "펌프의": 8661,
      "반응기": 8662,
      "캐소드": 8663,
      "바탕": 8664,
      "상용": 8665,
      "사용된다": 8666,
      "디스크의": 8667,
      "저면에": 8668,
      "출사": 8669,
      "라이너": 8670,
      "기판상에": 8671,
      "지지되는": 8672,
      "성분이": 8673,
      "160": 8674,
      "운전자의": 8675,
      "뉴클": 8676,
      "모발": 8677,
      "해를": 8678,
      "인체": 8679,
      "최대한": 8680,
      "시클로": 8681,
      "저장부": 8682,
      "형성하도록": 8683,
      "EL": 8684,
      "생성한다": 8685,
      "녹화": 8686,
      "발휘": 8687,
      "바이패스": 8688,
      "불량을": 8689,
      "자원을": 8690,
      "능동": 8691,
      "캐릭": 8692,
      "통과한": 8693,
      "Zn": 8694,
      "공급부": 8695,
      "ment": 8696,
      "실험": 8697,
      "ction": 8698,
      "형성되도록": 8699,
      "고정시키는": 8700,
      "리프트": 8701,
      "비드": 8702,
      "셀에": 8703,
      "노즐을": 8704,
      "관계없이": 8705,
      "그러한": 8706,
      "글리콜": 8707,
      "모노머": 8708,
      "FC": 8709,
      "트리거": 8710,
      "교육": 8711,
      "짧은": 8712,
      "공사": 8713,
      "용매를": 8714,
      "파라미터를": 8715,
      "고정부": 8716,
      "벽체": 8717,
      "전압에": 8718,
      "억제하는": 8719,
      "채용": 8720,
      "MC": 8721,
      "점검": 8722,
      "현상이": 8723,
      "속도가": 8724,
      "이소시아": 8725,
      "Ga": 8726,
      "48": 8727,
      "디엔": 8728,
      "IS": 8729,
      "주고": 8730,
      "95": 8731,
      "개폐하는": 8732,
      "분을": 8733,
      "오차": 8734,
      "1a": 8735,
      "플래시": 8736,
      "능력을": 8737,
      "내용을": 8738,
      "획득된": 8739,
      "컴퓨팅": 8740,
      "히드록시": 8741,
      "NO": 8742,
      "과제로": 8743,
      "감압": 8744,
      "인에이블": 8745,
      "vice": 8746,
      "막에": 8747,
      "돌출부": 8748,
      "균주": 8749,
      "수록": 8750,
      "감소시키는": 8751,
      "금속을": 8752,
      "발광소자": 8753,
      "기공": 8754,
      "길이가": 8755,
      "제어하고": 8756,
      "상판": 8757,
      "어댑": 8758,
      "실에": 8759,
      "건설": 8760,
      "되었을": 8761,
      "연신": 8762,
      "효과적인": 8763,
      "게이션": 8764,
      "전류의": 8765,
      "전반": 8766,
      "타측에": 8767,
      "바람직한": 8768,
      "봉지": 8769,
      "조성물이": 8770,
      "재와": 8771,
      "양이온": 8772,
      "감쇠": 8773,
      "공개": 8774,
      "53": 8775,
      "Mg": 8776,
      "해주는": 8777,
      "Pro": 8778,
      "구조물에": 8779,
      "간단하고": 8780,
      "플레이트에": 8781,
      "약학적": 8782,
      "일단에": 8783,
      "스트로": 8784,
      "공작": 8785,
      "마그네트": 8786,
      "소요되는": 8787,
      "TS": 8788,
      "조립체를": 8789,
      "배면": 8790,
      "에테르": 8791,
      "Ca": 8792,
      "이용되는": 8793,
      "열에": 8794,
      "행렬": 8795,
      "몸체에": 8796,
      "연결된다": 8797,
      "he": 8798,
      "인서트": 8799,
      "관계를": 8800,
      "값으로": 8801,
      "정도를": 8802,
      "수행되는": 8803,
      "이상이": 8804,
      "기저": 8805,
      "습식": 8806,
      "초점": 8807,
      "일반식": 8808,
      "cess": 8809,
      "때까지": 8810,
      "위치가": 8811,
      "검출하고": 8812,
      "저장탱크": 8813,
      "제품에": 8814,
      "대표": 8815,
      "단말기에서": 8816,
      "cy": 8817,
      "콘덴": 8818,
      "선박의": 8819,
      "전처리": 8820,
      "후크": 8821,
      "클록": 8822,
      "적용되는": 8823,
      "운송": 8824,
      "310": 8825,
      "으로의": 8826,
      "차량이": 8827,
      "능을": 8828,
      "시일": 8829,
      "거울": 8830,
      "했을": 8831,
      "스트리": 8832,
      "전원이": 8833,
      "가수": 8834,
      "패킹": 8835,
      "시술": 8836,
      "분사하는": 8837,
      "수용된": 8838,
      "미를": 8839,
      "얻어지는": 8840,
      "리셋": 8841,
      "장착되고": 8842,
      "가맹점": 8843,
      "의존": 8844,
      "인터넷을": 8845,
      "제어에": 8846,
      "많이": 8847,
      "리소": 8848,
      "말단": 8849,
      "항체": 8850,
      "지며": 8851,
      "유용하다": 8852,
      "테트라": 8853,
      "다운로드": 8854,
      "제외한": 8855,
      "igh": 8856,
      "센서가": 8857,
      "설비의": 8858,
      "부분은": 8859,
      "에어컨": 8860,
      "단자와": 8861,
      "37": 8862,
      "컴포넌트": 8863,
      "up": 8864,
      "고전압": 8865,
      "SiO": 8866,
      "이지": 8867,
      "않으며": 8868,
      "최적화": 8869,
      "진다": 8870,
      "속도로": 8871,
      "타설": 8872,
      "질화물": 8873,
      "분진": 8874,
      "풀리": 8875,
      "알림": 8876,
      "스크롤": 8877,
      "TC": 8878,
      "ge": 8879,
      "정량": 8880,
      "변성": 8881,
      "친화": 8882,
      "수신기": 8883,
      "2a": 8884,
      "변압": 8885,
      "편의성을": 8886,
      "이어서": 8887,
      "사전에": 8888,
      "산성": 8889,
      "특정한": 8890,
      "집광": 8891,
      "스윙": 8892,
      "애노드": 8893,
      "피치": 8894,
      "회의": 8895,
      "미끄럼": 8896,
      "세트의": 8897,
      "증강": 8898,
      "출력된": 8899,
      "홀로": 8900,
      "회전력을": 8901,
      "넣고": 8902,
      "범위에": 8903,
      "터치스크린": 8904,
      "저렴한": 8905,
      "스퍼": 8906,
      "전송할": 8907,
      "각도로": 8908,
      "회전자": 8909,
      "라우팅": 8910,
      "아미노산": 8911,
      "뉴클레오": 8912,
      "중단": 8913,
      "방지용": 8914,
      "거친": 8915,
      "브러시": 8916,
      "유입구": 8917,
      "단백질을": 8918,
      "hy": 8919,
      "65": 8920,
      "보온": 8921,
      "벡터를": 8922,
      "CN": 8923,
      "다단": 8924,
      "높이고": 8925,
      "슬립": 8926,
      "체결되는": 8927,
      "토양": 8928,
      "그러나": 8929,
      "단락": 8930,
      "시블": 8931,
      "혈액": 8932,
      "슬래브": 8933,
      "만드는": 8934,
      "기호": 8935,
      "파라": 8936,
      "물체": 8937,
      "저해": 8938,
      "돌기가": 8939,
      "103": 8940,
      "바디의": 8941,
      "form": 8942,
      "반응시켜": 8943,
      "신호들을": 8944,
      "패턴에": 8945,
      "데크": 8946,
      "인자": 8947,
      "줌으로써": 8948,
      "하므로서": 8949,
      "쇼핑": 8950,
      "으면": 8951,
      "표지": 8952,
      "높아": 8953,
      "크기로": 8954,
      "공간으로": 8955,
      "도전형": 8956,
      "블로": 8957,
      "임펠러": 8958,
      "Ar": 8959,
      "수행하고": 8960,
      "중요한": 8961,
      "소거": 8962,
      "열의": 8963,
      "병원": 8964,
      "106": 8965,
      "점등": 8966,
      "커피": 8967,
      "후방에": 8968,
      "오염을": 8969,
      "ulti": 8970,
      "전방에": 8971,
      "시야": 8972,
      "그립": 8973,
      "없이도": 8974,
      "영구자석": 8975,
      "불가": 8976,
      "ene": 8977,
      "그루": 8978,
      "하나는": 8979,
      "보빈": 8980,
      "플란": 8981,
      "조립식": 8982,
      "크로스": 8983,
      "서버와": 8984,
      "해양": 8985,
      "폐기물": 8986,
      "신용": 8987,
      "학적으로": 8988,
      "혼합하는": 8989,
      "투입하여": 8990,
      "나란": 8991,
      "비밀": 8992,
      "제거된": 8993,
      "경유": 8994,
      "서버는": 8995,
      "캐패시터": 8996,
      "RNA": 8997,
      "방법이다": 8998,
      "USB": 8999,
      "막과": 9000,
      "함으로": 9001,
      "PP": 9002,
      "파이프를": 9003,
      "파형": 9004,
      "sc": 9005,
      "장기간": 9006,
      "강의": 9007,
      "추천": 9008,
      "온도에": 9009,
      "그레이": 9010,
      "행할": 9011,
      "안정된": 9012,
      "du": 9013,
      "kg": 9014,
      "정도": 9015,
      "함량이": 9016,
      "이소시아네이트": 9017,
      "드로": 9018,
      "발산": 9019,
      "얇은": 9020,
      "나노입자": 9021,
      "간극": 9022,
      "성에": 9023,
      "스틸": 9024,
      "듀얼": 9025,
      "공에": 9026,
      "포스트": 9027,
      "지속적으로": 9028,
      "문제가": 9029,
      "특징을": 9030,
      "시키거나": 9031,
      "케이스와": 9032,
      "강한": 9033,
      "강판의": 9034,
      "스탠": 9035,
      "DS": 9036,
      "부상": 9037,
      "화에": 9038,
      "비게이션": 9039,
      "유도하는": 9040,
      "일시": 9041,
      "부산": 9042,
      "증가시킬": 9043,
      "지면": 9044,
      "해석": 9045,
      "판단하여": 9046,
      "li": 9047,
      "ly": 9048,
      "관찰": 9049,
      "홀의": 9050,
      "속에": 9051,
      "사이에는": 9052,
      "목록": 9053,
      "와이어를": 9054,
      "실행하는": 9055,
      "문을": 9056,
      "PV": 9057,
      "모터와": 9058,
      "폴리실리콘": 9059,
      "지나": 9060,
      "전지에": 9061,
      "75": 9062,
      "부분과": 9063,
      "환형": 9064,
      "int": 9065,
      "ot": 9066,
      "훈련": 9067,
      "부재로": 9068,
      "도어를": 9069,
      "lect": 9070,
      "업무": 9071,
      "안착되는": 9072,
      "부하를": 9073,
      "바닥에": 9074,
      "폭이": 9075,
      "산출된": 9076,
      "여부에": 9077,
      "제공하도록": 9078,
      "영상에": 9079,
      "할당된": 9080,
      "발견": 9081,
      "단말기와": 9082,
      "활용할": 9083,
      "입력에": 9084,
      "향상시켜": 9085,
      "성형된": 9086,
      "2의": 9087,
      "바깥": 9088,
      "물은": 9089,
      "쉽고": 9090,
      "변형을": 9091,
      "냉매를": 9092,
      "않아도": 9093,
      "변환된": 9094,
      "서브프레임": 9095,
      "위치의": 9096,
      "대략": 9097,
      "하우징을": 9098,
      "다가": 9099,
      "조작에": 9100,
      "상위": 9101,
      "시트에": 9102,
      "품을": 9103,
      "공급받아": 9104,
      "정착": 9105,
      "접속되어": 9106,
      "헤드의": 9107,
      "차례": 9108,
      "동안에": 9109,
      "스테이터": 9110,
      "최소화하여": 9111,
      "1개의": 9112,
      "이동이": 9113,
      "줄어": 9114,
      "세션": 9115,
      "전화번호": 9116,
      "폴리프로필렌": 9117,
      "I의": 9118,
      "품질의": 9119,
      "카드를": 9120,
      "121": 9121,
      "단말을": 9122,
      "프린터": 9123,
      "비정질": 9124,
      "난연": 9125,
      "투영": 9126,
      "감소시켜": 9127,
      "투자": 9128,
      "원자를": 9129,
      "전극은": 9130,
      "of": 9131,
      "률이": 9132,
      "내부에는": 9133,
      "펌프를": 9134,
      "예상": 9135,
      "탄소나노튜브": 9136,
      "통상의": 9137,
      "스캐닝": 9138,
      "실록산": 9139,
      "이동할": 9140,
      "가요성": 9141,
      "개구를": 9142,
      "프린팅": 9143,
      "증대시킬": 9144,
      "것이고": 9145,
      "청정": 9146,
      "하여금": 9147,
      "이하로": 9148,
      "형질": 9149,
      "RP": 9150,
      "용의": 9151,
      "인삼": 9152,
      "토너": 9153,
      "파트": 9154,
      "회로와": 9155,
      "판단하고": 9156,
      "tive": 9157,
      "계량": 9158,
      "반응성": 9159,
      "수지의": 9160,
      "희석": 9161,
      "시계": 9162,
      "길게": 9163,
      "Ch": 9164,
      "종래에는": 9165,
      "좋은": 9166,
      "환기": 9167,
      "압력이": 9168,
      "내경": 9169,
      "높고": 9170,
      "향상시킨": 9171,
      "양방향": 9172,
      "구동부를": 9173,
      "산란": 9174,
      "프로세서를": 9175,
      "시퀀스": 9176,
      "방지하도록": 9177,
      "파일럿": 9178,
      "관로": 9179,
      "조사하는": 9180,
      "과도": 9181,
      "wor": 9182,
      "일련": 9183,
      "불순물을": 9184,
      "고려하여": 9185,
      "유사한": 9186,
      "처리할": 9187,
      "구동되는": 9188,
      "의류": 9189,
      "자동적으로": 9190,
      "인쇄회로기판": 9191,
      "상온": 9192,
      "전송한다": 9193,
      "관리를": 9194,
      "극성": 9195,
      "둘레에": 9196,
      "제5": 9197,
      "반송파": 9198,
      "범위의": 9199,
      "원가를": 9200,
      "mp": 9201,
      "180": 9202,
      "차광": 9203,
      "광고를": 9204,
      "조정하는": 9205,
      "과제는": 9206,
      "습니다": 9207,
      "시간의": 9208,
      "굴착": 9209,
      "구동을": 9210,
      "매설": 9211,
      "탈취": 9212,
      "제어한다": 9213,
      "230": 9214,
      "투사": 9215,
      "경사지게": 9216,
      "수위": 9217,
      "튜브의": 9218,
      "단위를": 9219,
      "군에서": 9220,
      "신호는": 9221,
      "샤프트의": 9222,
      "반영": 9223,
      "열풍": 9224,
      "축적": 9225,
      "코일을": 9226,
      "참여": 9227,
      "먼저": 9228,
      "임시": 9229,
      "제어가": 9230,
      "카운터": 9231,
      "이송하는": 9232,
      "완료된": 9233,
      "trol": 9234,
      "단말기로부터": 9235,
      "후속": 9236,
      "다이아": 9237,
      "ical": 9238,
      "임피던스": 9239,
      "투스": 9240,
      "TE": 9241,
      "바람직하다": 9242,
      "마늘": 9243,
      "통신망": 9244,
      "구속": 9245,
      "외경": 9246,
      "데이터로": 9247,
      "나선": 9248,
      "케이블을": 9249,
      "크기에": 9250,
      "계획": 9251,
      "위치하여": 9252,
      "치가": 9253,
      "하중을": 9254,
      "차동": 9255,
      "접촉되는": 9256,
      "필요에": 9257,
      "몸체부": 9258,
      "조류": 9259,
      "임을": 9260,
      "회전되는": 9261,
      "티오": 9262,
      "밸브에": 9263,
      "림을": 9264,
      "설정하고": 9265,
      "관통하는": 9266,
      "최소한": 9267,
      "방의": 9268,
      "일측이": 9269,
      "방음": 9270,
      "비용으로": 9271,
      "주석": 9272,
      "롤러를": 9273,
      "수분을": 9274,
      "코너": 9275,
      "모드에": 9276,
      "LD": 9277,
      "이번": 9278,
      "리소스": 9279,
      "현지": 9280,
      "케이블의": 9281,
      "항산화": 9282,
      "와이퍼": 9283,
      "일어나": 9284,
      "특성에": 9285,
      "멤버": 9286,
      "컨버": 9287,
      "탈부착": 9288,
      "가습": 9289,
      "프를": 9290,
      "공급을": 9291,
      "높여": 9292,
      "전개": 9293,
      "텅스텐": 9294,
      "렇게": 9295,
      "케이스를": 9296,
      "om": 9297,
      "포트를": 9298,
      "간편하고": 9299,
      "임플란": 9300,
      "라벨": 9301,
      "포함함으로써": 9302,
      "보다도": 9303,
      "증폭기": 9304,
      "fer": 9305,
      "산화물을": 9306,
      "비휘발성": 9307,
      "SD": 9308,
      "예열": 9309,
      "컨택": 9310,
      "산화막을": 9311,
      "누출": 9312,
      "복구": 9313,
      "겸용": 9314,
      "유형": 9315,
      "방문": 9316,
      "타이머": 9317,
      "조를": 9318,
      "MO": 9319,
      "마운팅": 9320,
      "전의": 9321,
      "렌즈의": 9322,
      "함량": 9323,
      "치의": 9324,
      "차량을": 9325,
      "ace": 9326,
      "2차원": 9327,
      "낚시": 9328,
      "피사": 9329,
      "파우더": 9330,
      "출원": 9331,
      "뛰어나": 9332,
      "방법의": 9333,
      "제조방법이": 9334,
      "오리": 9335,
      "정확히": 9336,
      "환경에": 9337,
      "영역은": 9338,
      "주어": 9339,
      "대사": 9340,
      "향하는": 9341,
      "하위": 9342,
      "ann": 9343,
      "승객": 9344,
      "종의": 9345,
      "NH": 9346,
      "5∼": 9347,
      "마개": 9348,
      "폴리올레핀": 9349,
      "지니": 9350,
      "형성될": 9351,
      "치에": 9352,
      "코일의": 9353,
      "거더": 9354,
      "당뇨": 9355,
      "상황을": 9356,
      "나이트": 9357,
      "통상": 9358,
      "백색": 9359,
      "암의": 9360,
      "오일을": 9361,
      "냄새": 9362,
      "소독": 9363,
      "둘러싸는": 9364,
      "소자가": 9365,
      "포켓": 9366,
      "분리막": 9367,
      "등록된": 9368,
      "망간": 9369,
      "피리": 9370,
      "삽입하여": 9371,
      "타이어의": 9372,
      "S1": 9373,
      "넣어": 9374,
      "크롬": 9375,
      "이송되는": 9376,
      "발명을": 9377,
      "디지탈": 9378,
      "lu": 9379,
      "브를": 9380,
      "턴스": 9381,
      "광이": 9382,
      "프로그래": 9383,
      "효율성을": 9384,
      "이로써": 9385,
      "수용체": 9386,
      "단결정": 9387,
      "디스플레이하는": 9388,
      "구조체를": 9389,
      "해결할": 9390,
      "머니": 9391,
      "접속을": 9392,
      "이미지의": 9393,
      "생성부": 9394,
      "인덱스": 9395,
      "판은": 9396,
      "시간과": 9397,
      "위치되는": 9398,
      "작업의": 9399,
      "바를": 9400,
      "위치된": 9401,
      "조성물로": 9402,
      "누적": 9403,
      "일회": 9404,
      "하면에": 9405,
      "글로": 9406,
      "피로": 9407,
      "발생시": 9408,
      "센스": 9409,
      "내구성이": 9410,
      "소자와": 9411,
      "매개로": 9412,
      "입력받는": 9413,
      "1000": 9414,
      "선로": 9415,
      "주로": 9416,
      "삭제": 9417,
      "가까": 9418,
      "승하강": 9419,
      "122": 9420,
      "3개의": 9421,
      "하천": 9422,
      "이용함으로써": 9423,
      "콘덴서": 9424,
      "250": 9425,
      "상당": 9426,
      "알람": 9427,
      "피니": 9428,
      "SN": 9429,
      "맞게": 9430,
      "용이하도록": 9431,
      "데이타를": 9432,
      "드에": 9433,
      "플렉시블": 9434,
      "력의": 9435,
      "섭취": 9436,
      "분출": 9437,
      "바의": 9438,
      "일이": 9439,
      "차이를": 9440,
      "제어장치": 9441,
      "시그널링": 9442,
      "표시된": 9443,
      "명의": 9444,
      "중량부에": 9445,
      "없다": 9446,
      "스퍼터": 9447,
      "촬영된": 9448,
      "2D": 9449,
      "가수분해": 9450,
      "장점을": 9451,
      "외면에": 9452,
      "엘리먼트": 9453,
      "내연": 9454,
      "비로": 9455,
      "예방할": 9456,
      "인조": 9457,
      "NG": 9458,
      "접하는": 9459,
      "글라스": 9460,
      "구성한다": 9461,
      "우수하여": 9462,
      "하부로": 9463,
      "브러쉬": 9464,
      "공의": 9465,
      "56": 9466,
      "제공되며": 9467,
      "열이": 9468,
      "치료를": 9469,
      "vi": 9470,
      "소오스": 9471,
      "배경": 9472,
      "순간": 9473,
      "게이트웨이": 9474,
      "도포된": 9475,
      "장입": 9476,
      "사이클로": 9477,
      "크레인": 9478,
      "촉매의": 9479,
      "끝단": 9480,
      "점착제": 9481,
      "끼워져": 9482,
      "패턴과": 9483,
      "건식": 9484,
      "카세트": 9485,
      "엘라": 9486,
      "핵산": 9487,
      "단자에": 9488,
      "각기": 9489,
      "장시간": 9490,
      "전기를": 9491,
      "검출기": 9492,
      "면은": 9493,
      "고강도": 9494,
      "기지국으로부터": 9495,
      "St": 9496,
      "스위치의": 9497,
      "알킬렌": 9498,
      "움직임을": 9499,
      "ON": 9500,
      "수율": 9501,
      "돌출되어": 9502,
      "선택적": 9503,
      "추출하여": 9504,
      "서보": 9505,
      "99": 9506,
      "테이퍼": 9507,
      "복조": 9508,
      "하였을": 9509,
      "롤러의": 9510,
      "압입": 9511,
      "기입": 9512,
      "ystem": 9513,
      "구형": 9514,
      "페라이트": 9515,
      "항암": 9516,
      "동력전달": 9517,
      "복호": 9518,
      "텍스": 9519,
      "담배": 9520,
      "에틸": 9521,
      "일반적인": 9522,
      "테이블을": 9523,
      "의사": 9524,
      "Ac": 9525,
      "정전기": 9526,
      "제어신호에": 9527,
      "일부에": 9528,
      "몸체를": 9529,
      "수행하도록": 9530,
      "발사": 9531,
      "국부": 9532,
      "르고": 9533,
      "AS": 9534,
      "화합물과": 9535,
      "이동되는": 9536,
      "검출할": 9537,
      "자료": 9538,
      "한국": 9539,
      "병렬로": 9540,
      "발명에서": 9541,
      "유닛이": 9542,
      "동결": 9543,
      "헤드를": 9544,
      "예정": 9545,
      "가열된": 9546,
      "했다고": 9547,
      "때의": 9548,
      "에스": 9549,
      "입력부": 9550,
      "야기": 9551,
      "패드의": 9552,
      "기록된": 9553,
      "마우스": 9554,
      "엑스": 9555,
      "부시": 9556,
      "절첩": 9557,
      "양단에": 9558,
      "절환": 9559,
      "세퍼": 9560,
      "공격": 9561,
      "제어함으로써": 9562,
      "기업": 9563,
      "언어": 9564,
      "CPU": 9565,
      "기적으로": 9566,
      "메모리를": 9567,
      "미세한": 9568,
      "견인": 9569,
      "첨가제": 9570,
      "안으로": 9571,
      "부위의": 9572,
      "요크": 9573,
      "수화": 9574,
      "페어": 9575,
      "응고": 9576,
      "담지": 9577,
      "중합체를": 9578,
      "유선": 9579,
      "교량": 9580,
      "밀어": 9581,
      "핸드오버": 9582,
      "도포하는": 9583,
      "력으로": 9584,
      "액체를": 9585,
      "전체적인": 9586,
      "회절": 9587,
      "act": 9588,
      "생산할": 9589,
      "염소": 9590,
      "투광": 9591,
      "히팅": 9592,
      "fi": 9593,
      "문의": 9594,
      "니어": 9595,
      "벽에": 9596,
      "유화": 9597,
      "회로가": 9598,
      "PE": 9599,
      "조에": 9600,
      "용액에": 9601,
      "통기": 9602,
      "64": 9603,
      "향상되고": 9604,
      "이라고": 9605,
      "황산": 9606,
      "회복": 9607,
      "출력한다": 9608,
      "5중량": 9609,
      "전진": 9610,
      "철도": 9611,
      "커터": 9612,
      "work": 9613,
      "아제": 9614,
      "점에": 9615,
      "플런": 9616,
      "데이터는": 9617,
      "생리": 9618,
      "이동국": 9619,
      "입력하는": 9620,
      "만곡": 9621,
      "전열": 9622,
      "단계는": 9623,
      "개별적으로": 9624,
      "스러": 9625,
      "타르": 9626,
      "네트워크에": 9627,
      "조립체는": 9628,
      "저장되어": 9629,
      "나이": 9630,
      "적당": 9631,
      "수집된": 9632,
      "n은": 9633,
      "구강": 9634,
      "약제학적": 9635,
      "계수를": 9636,
      "마사": 9637,
      "저압": 9638,
      "청구": 9639,
      "114": 9640,
      "기어와": 9641,
      "한번": 9642,
      "보호할": 9643,
      "생산성": 9644,
      "col": 9645,
      "장착하여": 9646,
      "채널에": 9647,
      "실과": 9648,
      "알콜": 9649,
      "ence": 9650,
      "개량": 9651,
      "결합부": 9652,
      "드러": 9653,
      "막으로": 9654,
      "에어로": 9655,
      "하이드록시": 9656,
      "단말기는": 9657,
      "계좌": 9658,
      "일을": 9659,
      "기판은": 9660,
      "rans": 9661,
      "RAM": 9662,
      "서포트": 9663,
      "확인하고": 9664,
      "챔버를": 9665,
      "영향": 9666,
      "인젝": 9667,
      "투명한": 9668,
      "고정자": 9669,
      "연속적인": 9670,
      "활용하여": 9671,
      "무수": 9672,
      "스포": 9673,
      "복합체": 9674,
      "그룹을": 9675,
      "명이": 9676,
      "돌출되는": 9677,
      "리세스": 9678,
      "삼각": 9679,
      "가속도": 9680,
      "조립체에": 9681,
      "채취": 9682,
      "파일의": 9683,
      "III": 9684,
      "스케줄링": 9685,
      "추가적인": 9686,
      "지방족": 9687,
      "레일을": 9688,
      "그린": 9689,
      "외관": 9690,
      "부족": 9691,
      "작업자의": 9692,
      "상부를": 9693,
      "요지로": 9694,
      "얻은": 9695,
      "분포를": 9696,
      "이외의": 9697,
      "72": 9698,
      "매니폴": 9699,
      "부담": 9700,
      "충족": 9701,
      "RL": 9702,
      "럽게": 9703,
      "eth": 9704,
      "MD": 9705,
      "독출": 9706,
      "슬래그": 9707,
      "주위에": 9708,
      "판으로": 9709,
      "전압과": 9710,
      "분석을": 9711,
      "서비스의": 9712,
      "pre": 9713,
      "신뢰성이": 9714,
      "제공될": 9715,
      "커니즘": 9716,
      "ME": 9717,
      "필라멘트": 9718,
      "노출되는": 9719,
      "벤딩": 9720,
      "센서는": 9721,
      "이전에": 9722,
      "획득하고": 9723,
      "제작된": 9724,
      "만든": 9725,
      "제어부와": 9726,
      "감소시키고": 9727,
      "승인": 9728,
      "운전자가": 9729,
      "디젤": 9730,
      "전했다": 9731,
      "시에도": 9732,
      "니들": 9733,
      "범퍼": 9734,
      "청색": 9735,
      "튜브를": 9736,
      "추출하고": 9737,
      "트는": 9738,
      "작업자가": 9739,
      "전달받아": 9740,
      "수행한다": 9741,
      "스핀들": 9742,
      "격리": 9743,
      "칫솔": 9744,
      "타민": 9745,
      "밸브와": 9746,
      "내면에": 9747,
      "대와": 9748,
      "스프링의": 9749,
      "규모": 9750,
      "속한": 9751,
      "구성될": 9752,
      "잔여": 9753,
      "표면이": 9754,
      "직경이": 9755,
      "평행한": 9756,
      "있지": 9757,
      "105": 9758,
      "부착하여": 9759,
      "RO": 9760,
      "접속하는": 9761,
      "벽을": 9762,
      "PG": 9763,
      "습도": 9764,
      "목재": 9765,
      "one": 9766,
      "따르는": 9767,
      "해수": 9768,
      "지향": 9769,
      "약학적으로": 9770,
      "ication": 9771,
      "크랙": 9772,
      "내열성": 9773,
      "서버에서": 9774,
      "항원": 9775,
      "고추": 9776,
      "주택": 9777,
      "커버에": 9778,
      "공극": 9779,
      "니트": 9780,
      "카메라의": 9781,
      "플렉서블": 9782,
      "곡면": 9783,
      "향상시키기": 9784,
      "필름은": 9785,
      "가하여": 9786,
      "조각": 9787,
      "표시부": 9788,
      "도시": 9789,
      "샤워": 9790,
      "지르": 9791,
      "이렇게": 9792,
      "적용될": 9793,
      "형광체": 9794,
      "스트레": 9795,
      "나누": 9796,
      "뱅크": 9797,
      "장착되며": 9798,
      "플런저": 9799,
      "속성": 9800,
      "축방향으로": 9801,
      "클라우드": 9802,
      "형질전환": 9803,
      "이온을": 9804,
      "좁은": 9805,
      "펩티드": 9806,
      "일련의": 9807,
      "광대역": 9808,
      "노드의": 9809,
      "블루투스": 9810,
      "수요": 9811,
      "탱크에": 9812,
      "글래스": 9813,
      "이로부터": 9814,
      "하류": 9815,
      "특수": 9816,
      "사이로": 9817,
      "지폐": 9818,
      "카운트": 9819,
      "펄스를": 9820,
      "der": 9821,
      "않으면서": 9822,
      "골격": 9823,
      "대가": 9824,
      "SC": 9825,
      "건조하는": 9826,
      "오븐": 9827,
      "전압으로": 9828,
      "압력에": 9829,
      "통을": 9830,
      "석을": 9831,
      "천정": 9832,
      "핑거": 9833,
      "두께의": 9834,
      "처럼": 9835,
      "램프의": 9836,
      "곡선": 9837,
      "보내": 9838,
      "에멀": 9839,
      "측면을": 9840,
      "리티": 9841,
      "슬러리": 9842,
      "제조를": 9843,
      "데이터베이스에": 9844,
      "낮출": 9845,
      "배선을": 9846,
      "주변의": 9847,
      "Cl": 9848,
      "발명인": 9849,
      "아이들": 9850,
      "력과": 9851,
      "있다고": 9852,
      "수는": 9853,
      "측정하고": 9854,
      "그리드": 9855,
      "모뎀": 9856,
      "서비스에": 9857,
      "감지부": 9858,
      "희생": 9859,
      "발생기": 9860,
      "맞는": 9861,
      "소재로": 9862,
      "메커니즘": 9863,
      "향상될": 9864,
      "검출부": 9865,
      "FET": 9866,
      "스프레이": 9867,
      "일측면에": 9868,
      "ding": 9869,
      "강성": 9870,
      "수집하는": 9871,
      "현재의": 9872,
      "제공되고": 9873,
      "동축": 9874,
      "민감": 9875,
      "디바이스가": 9876,
      "급전": 9877,
      "비접촉": 9878,
      "하나로": 9879,
      "중합성": 9880,
      "og": 9881,
      "어셈블리를": 9882,
      "지붕": 9883,
      "평탄화": 9884,
      "옥사이드": 9885,
      "회전시켜": 9886,
      "유동을": 9887,
      "gn": 9888,
      "시드": 9889,
      "De": 9890,
      "셀룰로오스": 9891,
      "per": 9892,
      "알파": 9893,
      "홈의": 9894,
      "요청하는": 9895,
      "처리가": 9896,
      "우수하며": 9897,
      "감이": 9898,
      "용이하며": 9899,
      "아래에": 9900,
      "미네": 9901,
      "마킹": 9902,
      "만족하는": 9903,
      "간소화": 9904,
      "등에서": 9905,
      "로서의": 9906,
      "성질": 9907,
      "체적": 9908,
      "정책": 9909,
      "사용자로부터": 9910,
      "지닌": 9911,
      "있었": 9912,
      "아스팔": 9913,
      "경쟁": 9914,
      "어떤": 9915,
      "빛의": 9916,
      "폴리올": 9917,
      "그룹의": 9918,
      "3a": 9919,
      "측에서": 9920,
      "함몰": 9921,
      "함량을": 9922,
      "준다": 9923,
      "단차": 9924,
      "개시는": 9925,
      "어린": 9926,
      "유아": 9927,
      "자형": 9928,
      "나선형": 9929,
      "ber": 9930,
      "폴리아미드": 9931,
      "모델링": 9932,
      "로이드": 9933,
      "탁월": 9934,
      "측정하기": 9935,
      "AM": 9936,
      "ox": 9937,
      "건조된": 9938,
      "플라즈마를": 9939,
      "챔버와": 9940,
      "모양의": 9941,
      "그루브": 9942,
      "생성을": 9943,
      "않았": 9944,
      "증식": 9945,
      "4개의": 9946,
      "경찰": 9947,
      "브라우": 9948,
      "판재": 9949,
      "여부": 9950,
      "네트워크의": 9951,
      "면으로부터": 9952,
      "열간": 9953,
      "마이크": 9954,
      "캐시": 9955,
      "분할된": 9956,
      "프로세서는": 9957,
      "매체의": 9958,
      "트레드": 9959,
      "고정되며": 9960,
      "유지하도록": 9961,
      "복수개": 9962,
      "증발기": 9963,
      "베이": 9964,
      "피니언": 9965,
      "일으키": 9966,
      "우려": 9967,
      "작게": 9968,
      "레이브": 9969,
      "향상된다": 9970,
      "설치가": 9971,
      "전문": 9972,
      "주지": 9973,
      "후진": 9974,
      "감응": 9975,
      "로울러": 9976,
      "통에": 9977,
      "사용된": 9978,
      "플로팅": 9979,
      "피부에": 9980,
      "전체적으로": 9981,
      "면적이": 9982,
      "냉장고의": 9983,
      "다르게": 9984,
      "수용부": 9985,
      "양식": 9986,
      "핀의": 9987,
      "본체부": 9988,
      "로봇의": 9989,
      "금형의": 9990,
      "오토": 9991,
      "커플러": 9992,
      "코크": 9993,
      "측정을": 9994,
      "내마모": 9995,
      "축이": 9996,
      "챔버에": 9997,
      "구멍이": 9998,
      "종양": 9999,
      "700": 10000,
      "주위": 10001,
      "전해액": 10002,
      "변색": 10003,
      "지시하는": 10004,
      "ill": 10005,
      "시스템으로": 10006,
      "ser": 10007,
      "억제하여": 10008,
      "분석하는": 10009,
      "암모니": 10010,
      "점도": 10011,
      "단말과": 10012,
      "반응에": 10013,
      "비틀": 10014,
      "ator": 10015,
      "의거": 10016,
      "양태": 10017,
      "폴리이미드": 10018,
      "에이전": 10019,
      "파손을": 10020,
      "중량을": 10021,
      "잉크젯": 10022,
      "양면": 10023,
      "사가": 10024,
      "맵핑": 10025,
      "구동력을": 10026,
      "발광다이오드": 10027,
      "끼워지는": 10028,
      "통신망을": 10029,
      "수치": 10030,
      "연료의": 10031,
      "고온의": 10032,
      "단어": 10033,
      "압박": 10034,
      "인버": 10035,
      "기동": 10036,
      "so": 10037,
      "실시하는": 10038,
      "OC": 10039,
      "클릭": 10040,
      "유무를": 10041,
      "장갑": 10042,
      "폭발": 10043,
      "친수성": 10044,
      "Na": 10045,
      "형태에": 10046,
      "높이는": 10047,
      "다이어": 10048,
      "여기에": 10049,
      "기부": 10050,
      "구간을": 10051,
      "이동시켜": 10052,
      "조사하여": 10053,
      "얼라인": 10054,
      "디스플레이를": 10055,
      "클로로": 10056,
      "것의": 10057,
      "아크릴계": 10058,
      "홈과": 10059,
      "식각하여": 10060,
      "하단부에": 10061,
      "응력": 10062,
      "프리즘": 10063,
      "콘택트": 10064,
      "모래": 10065,
      "일회용": 10066,
      "취출": 10067,
[...]
